#version: 0.2
ï ¼
ä ¸
ï¼ Į
ã Ģ
ç ļ
çļ Ħ
ãĢ Ĥ
ä º
ä »
å ı
æ ľ
å ħ
å Ī
ä ½
è ¿
å ¤
å ®
å ľ
æ Ī
å Ĳ
ç Ķ
æ ĺ
å Ĵ
åĴ Į
ä¸ Ģ
å Ĭ
æ ĸ
Ġ Ġ
è ¯
ç »
å ¹
ãĢ ģ
ä ¹
æĺ ¯
å °
è ®
å Ń
æ Ĺ
åľ ¨
å Ľ
ä» ¥
å º
é Ģ
ä ¼
å ¸
ä¸ ª
é ĩ
æ Ŀ
å į
äº º
å Į
ä¸ º
ï¼ ļ
ä¸ Ń
è ¡
æ ķ
æľ ī
ç ī
å Ĩ
åı ¯
å ¼
å ĩ
ĥ ½
å ·
å ¯
ç §
å ¾
è §
æĪ ĳ
æ ī
ç İ
è Ģ
å ¥
æ Ģ
¦ ģ
çĶ ¨
äº Ĩ
è ¦ģ
å ½
é Ĺ
ç Ń
ç Ľ
è¿ Ļ
æ ł
æ Ń
ä» ¬
è ĥ½
ä¸ į
æ ³
è ĩ
é Ŀ
å¹ ´
æ °
äº İ
è ´
æ Ķ
æ ŀ
æĹ ¶
é ¢
æ ĭ
çĶ Ł
ä ¿
æ Ĭ
å ĳ
åı¯ ä»¥
ç Ĳ
å ±
å ĵ
æ Ħ
å¤ §
ç º
æĪ Ĳ
åľ °
å ¦
å İ
è µ
ĠĠ ĠĠ
è¡ Į
æĸ ¹
æ İ
æ µ
ä¼ ļ
æ Ľ
æĿ ¥
è ¾
æ ¯
â Ģ
ä¸ Ĭ
åĪ °
å¯ ¹
å ¿
æ ĥ
çŃ ī
åĩ º
åŃ ¦
é Ļ
å¦ Ĥ
ä¸Ģ ä¸ª
ä ¾
ä½ ľ
æ Į
ä» ĸ
æ ı
é ľ
åĪ Ĩ
ä¸ ĭ
æ ¸
èĩ ª
åĽ ½
çī ©
æ ´
æ ²
é ĺ
æķ °
è ½
å¹ ¶
åı ĳ
å Ł
éľ Ģ
éĿ ¢
è ī
ï¼ ī
åĬ ¨
åħ ¶
ï¼ Ī
ç «
åĲ Į
è¿ ĩ
å¤ ļ
çĲ Ĩ
åĬ ł
å¥ ½
æ³ ķ
ç ®
åĲ İ
åŃ Ĳ
çİ °
æ į
æĽ ´
æĪĳ ä»¬
ç ±
ç§ į
æĸ ĩ
äº Ľ
æ ¬
è¿ Ľ
é ģ
Ġ |
ä½ ĵ
å® ¶
æ ±
ä½ ł
æ Ļ
çļĦ ç
å° Ĩ
é £
æı Ĳ
å® ļ
ä¹ ĭ
é «
é« ĺ
æľ Ģ
åĮ ĸ
æĢ §
éĢ ļ
åĬ Ľ
åº ¦
åħ ¬
åĵ ģ
ä½ ¿
é ķ
å ī
éľĢ è¦ģ
2 0
è¡ ¨
å »
ç ¨
ä¹ Ł
é ĥ
èĢ Į
è °
éĩ ı
ä¸ İ
å· ¥
åĲ Ī
éĹ ´
å° ı
æĪ ĸ
åħ ³
ä¿ Ŀ
åº Ķ
å¸ ¸
åĽ ł
ç ľ
æĹ ¥
ç Ĥ
- -
é¢ ĺ
éĩ į
åħ ¥
ç ³
i n
æľ Ī
è§ £
ç ½
è Ĥ
ä¸ »
å¾ Ĺ
æ Ĥ
ç ¾
è Ĭ
å ģ
å» º
å® ĥ
è ¶
ç ¤
æĦ Ł
æĸ °
æĥ ħ
éĹ ®
è® ¡
å ¢
æľ ¬
æŀ ľ
éĥ ¨
é ¦
ç ¬
ç Ħ
æį ®
åĪ ¶
æľ º
æĦ ı
èī ²
æī Ģ
å¼ ı
å¤ ©
æŃ ¤
çī ¹
ç» ı
éķ ¿
è ·
åĲ į
ç¨ ĭ
ä» £
å Ģ
è ¢
å® ŀ
ä¸ ļ
å¼ Ģ
æ° ´
ç± »
ï¼ Ł
ç ¡
å¸ Ĥ
çĦ ¶
å Ŀ
èĢ ħ
åĮ º
çĶ µ
ç Ł
é ¡
å½ ĵ
è® ¾
é Ķ
åĨ ħ
éĢ ī
0 0
åı Ĭ
äº §
è ģ
æ Ł
ç ©
çĽ ¸
å §
ç³ »
æ ģ
ç¾ İ
ä½ į
ä½¿ çĶ¨
é ħ
1 9
è¯ ¥
å¿ ĥ
é ļ
æĤ ¨
ç ´
âĢ ľ
âĢ Ŀ
é Ľ
ç ķ
çĤ ¹
è¢ «
e r
äº ĭ
å¹ ³
æĺ İ
ç Ŀ
æ¯ Ķ
éĹ® é¢ĺ
éĩ Į
a n
o n
åħ ¨
åĮ ħ
ä½ Ĩ
æ ·
åľ º
é ĥ½
åĳ ĺ
ç ĥ
ä» »
åī į
éģ ĵ
æ° Ķ
çĲ ĥ
æĬ Ģ
ĠĠ Ġ
å¤ ĸ
å½ ±
åĪ ©
åħ ·
ç ¼
ç ł
è Ĳ
æĮ ģ
éĢ Ĥ
è¿Ľ è¡Į
æ´ »
çĶ ±
åĬ ¡
é Ĥ
æł ¼
ä¿ ¡
ç¡ ®
è´ ¨
è¯ Ń
æľ Ł
é ª
è ĭ
o r
æ ¡
å £
è Ī
æ ¶
t h
å· ±
å ŀ
å± ķ
èĩª å·±
çĽ ®
è® ©
æĢ »
ç» ĵ
èµ ·
ãĢ ĭ
ãĢ Ĭ
ä¾ Ľ
æĸ ¯
ç¬ ¬
ä¸Ģ äºĽ
åı ĺ
ä» İ
è¿ ĺ
æľ ¯
è½ ¦
å® ī
çĿ Ģ
çİ ¯
è¯ ·
éĿ ŀ
äº ¤
åĬ ©
ç Ī
åı Ĺ
æ¬ ¡
ç» Ļ
æµ ·
è İ
è º
æŃ £
å ĸ
é Ł
ä¹ Ī
è¿Ļ ä¸ª
ä¸ ī
è ¥
_ _
åħ ĥ
è¯ ´
åı ¸
ä¾ ĭ
æ¯ ı
è¥ ¿
é ©
æī ĭ
èº «
åı £
é£ Ł
åį ķ
è į
å½ ¢
åŃ Ĺ
å¾ Ī
è® ®
ç ģ
ç® Ĺ
ç ¥
ç» Ł
å° Ķ
å¥½ çļĦ
é »
ä¸ ¤
Ġ 1
æĥ ³
r e
éĢļ è¿ĩ
è¿ Ĳ
è Ļ
å ķ
æıĲ ä¾Ľ
æ± Ĥ
ç§ ĳ
ç« ĭ
è ĥ
æ »
é£ İ
æĶ ¿
Ġ =
æł ¹
æĪ ·
ä¹ Ĳ
æĭ ¬
æ³ ¨
åŁ º
æ ®
e n
åı¯ èĥ½
åŀ ĭ
æĹ ł
æ ¼
æµ ģ
å¸ ®
æ° ĳ
ç» Ħ
å Ļ
ĠĠĠĠ ĠĠĠĠ
åħ ĭ
æķ Ļ
è £
èĩ ³
è° ĥ
çº ¿
åĮħ æĭ¬
æĺ¯ ä¸Ģ
æĶ ¾
ä¸į åĲĮ
è¾ ¾
æ¸ ¸
åĽ ŀ
æĭ ©
æĮ ĩ
ç ĭ
éĢī æĭ©
ç ĸ
å¦Ĥ æŀľ
ä½ ķ
ç Ļ
æĺ Ł
ä»¥ ä¸ĭ
a t
åĨ ³
ä»ĸ ä»¬
åį Ĺ
ä¸ ĸ
Â ·
é ¥
åĪ Ľ
èĬ Ĥ
å¤ Ħ
éŁ ³
é ĵ
åĲ ĳ
ä¹ ł
é¦ ĸ
åĻ ¨
åĪ Ĺ
æł ĩ
ç ²
é Ĵ
åħ¬ åı¸
å¯ ¼
åĨ Ļ
æĸ Ļ
åħ ±
å¼ º
ç ¦
ä» ¶
æİ ¥
è ±
æ º
å° ±
å° ĳ
è· ¯
æķ Ī
å¢ ĥ
éĩ ĳ
å¤ Ł
è¿Ļ äºĽ
éĺ Ł
åİ Ł
èµ Ħ
éĿŀ å¸¸
æŃ ¥
` `
s t
æĪ ĺ
ä¼ ł
éĤ £
ç¤ ¾
a r
åı ĸ
æģ ¯
ï¼ Ľ
åŁ İ
éĩį è¦ģ
åĪ Ļ
åĵ į
è§ Ĥ
æł¹ æį®
ç¤ º
è® ¤
åĨ Ľ
ä» ·
åı °
æ¸ ħ
ç´ ł
å® ¹
ä¸Ń çļĦ
æľ į
åħ ī
äº Į
éĢ ł
åĮ Ĺ
è ı
å¾ ·
æĻ º
çŁ ¥
-- --
ç® ¡
åĪ «
1 0
ç© º
å ²
èĢ ĥ
æķ° æį®
å¸ ĥ
æĶ ¯
å± ±
åİ Ĩ
æĶ ¹
åĲ Ħ
æł ·
ä¹ ī
å Ķ
èµ Ľ
åİ »
å¤ ĩ
æİ ¨
æķ ´
å® ¢
å¸® åĬ©
è¿ °
ä¸ ľ
a l
åĲĮ æĹ¶
ç± ³
è® º
åħ Ī
å½± åĵį
çķ Į
å¢ ŀ
åı į
çľ ĭ
é¢ Ĩ
è Ħ
åĢ ¼
ç Ĭ
åŃ ĺ
å¸ ¦
æ ¤
æ £
æĹ¶ éĹ´
æĬ ¤
èĩªå·± çļĦ
è Į
åı ª
æ¡ Ī
åıĳ å±ķ
æ· ±
å¤ ª
åĽł æŃ¤
è¯ ķ
èĥ½ å¤Ł
l e
o u
åı Ĥ
è§ Ħ
æ® µ
å§ ĭ
çº ¦
èģ Ķ
å¹ ¿
åķ Ĩ
è ĳ
åº ı
èĬ ±
éª Į
åĬ Ł
åħ¶ ä»ĸ
ä» Ģ
çĽ ´
äº ļ
ä¼ ĺ
ä¸Ń åĽ½
é¡ ¹
èĭ ±
ç§ ¯
è§ Ĩ
åģ ¥
ç§ °
æĬĢ æľ¯
ä» ½
æĸ¹ å¼ı
æº Ĳ
è¾ ĥ
è ¨
åĪ Ĵ
è¨ Ģ
è®¾ è®¡
çİ¯ å¢ĥ
è¯ Ŀ
å® Į
è£ ħ
æ ¨
æĶ ¶
å®ĥ ä»¬
å¼ ķ
ç» ´
ä¾ĭ å¦Ĥ
ç Ĺ
æĻ ¯
é© ¬
æĢ ģ
ç ħ
æ¸ ©
æĭ ī
å· ²
æ² ¡
æ¼ Ķ
ä»Ģ ä¹Ī
åŁ Ł
æĻº èĥ½
è¯ į
åĩ Ĩ
éħ į
åĨ µ
è§ Ĵ
çĪ ±
Ġ c
é ¸
åį ģ
å·¥ ä½ľ
æĿ Ĳ
æĸ Ń
èİ ·
ç Į
æľ ª
åĳ ³
çĶŁ æ´»
åĳ Ĭ
æ ¹
ä¸ Ķ
çİ ĩ
Ġ s
è¶ ³
æĸ¹ æ³ķ
æŁ ¥
è¯ Ĩ
ç« Ļ
åĽ ¢
æıĲ é«ĺ
æŀ ģ
çľ ģ
åı ·
æĢ Ŀ
å± ŀ
ç» Ĩ
æĸ¹ éĿ¢
Ċ ĠĠĠ
å ¡
è®¡ ç®Ĺ
æİ Ĵ
æĿ ¡
ä¹ ¦
ç® Ģ
e l
åı ²
äº§ åĵģ
å»º è®®
ä»¥ åıĬ
åģ ļ
éĺ ³
Ġ a
åº ·
ä¿¡ æģ¯
æ¨ ¡
æ² »
ç¼ ĸ
å¦Ĥ ä½ķ
ç½ ®
éĢ Ł
æĪ ı
è¾ ĵ
åºĶ è¯¥
è± ¡
ç½ ĳ
èĩ ´
Ġ t
æµ ĭ
å¤ į
å£ «
åĳ ½
Ġ th
åį İ
é¢ Ħ
çł ģ
è½ ¬
åĩ ı
åŃ¦ ä¹ł
æŀ Ħ
ç ¯
æĺ¯ ä¸Ģä¸ª
ç ¿
å¥ ¹
å¥ ³
å· ŀ
éĹ ¨
åį ³
åĮ »
æ²¡ æľī
æĬ ¥
åĽ Ľ
æī ¾
Ġ p
æ Ĵ
åĽł ä¸º
é¦ Ļ
i c
éĽ Ĩ
è´ ¹
èĲ ¥
æ ĳ
æ¬ ¢
æĪ ¿
æī ĵ
æ» ¡
è¿ ĳ
èı ľ
i t
e s
20 1
å¿ «
éļ ı
æĽ´ åĬł
çŃ Ķ
ãĢ Į
ãĢ į
åĸ ľ
i s
20 0
æĪĲ ä¸º
é ²
ï¼ī ï¼Į
è® ¸
ä¸ª äºº
çĥ Ń
åı ¥
æŃ Į
æĸĩ åĮĸ
çĻ ½
ç³» ç»Ł
è¯ ģ
å¤ ´
æ¸¸ æĪı
æ ¢
çº ¢
Ġ f
ç» Ń
ä¹ĭ éĹ´
æ Ĳ
in g
å¼Ģ å§ĭ
æĺ ĵ
è¯ Ħ
æľį åĬ¡
æ ļ
ä¸» è¦ģ
éĻ ¢
åĲ ¦
çĬ ¶
è® °
è¶ Ĭ
éĻ ħ
äºº ä»¬
çĶ¨ æĪ·
ä¸ĸ çķĮ
åģ¥ åº·
æĥħ åĨµ
ç« ł
ç¥ ŀ
ä¸ ĵ
u m
åħ »
å ¨
æ´» åĬ¨
åĨ į
éĶ Ģ
è½ »
ç© ¶
åĳ ¨
__ __
æķ ħ
æŀ Ĺ
èĩª çĦ¶
çī ĩ
çº §
çİ ĭ
å ĭ
èĻ ĳ
ç¦ »
è¿ĩ ç¨ĭ
å®ī åħ¨
åħ į
è´ Ń
å¯ Ĩ
åºĶ çĶ¨
å¸ Ī
èĤ ²
åĩ ł
Ġ m
ä¹ĭ ä¸Ģ
èī º
èģ Į
è§ ģ
åħ¶ ä¸Ń
äºĨ è§£
éĩ ĩ
ä¾ ¿
ä¿Ŀ æĮģ
ç¯ ĩ
å¼ ł
éŁ³ ä¹Ĳ
æĸ ½
æ¤ į
o m
ç ¢
çī Į
Ġ 2
éĻ ¤
ä¿ ®
åŁİ å¸Ĥ
äº Ĵ
çļĦ äºº
æı ı
æ¶ Ī
çł Ķ
åº ľ
è¿Ĳ åĬ¨
æŀ Ĳ
Ġ d
Ġ b
ç½ Ĺ
åº Ń
ç¤¾ ä¼ļ
è Ľ
Ġ w
æ¬ ¾
ĠĠĠĠ ĠĠĠ
åı ¤
æİ §
æ² ¹
çļĦ ä¸Ģ
an d
éĻ ©
è° ¢
åŃ ©
åį ĩ
ä½ İ
çĭ ¬
é ¾
å· ´
ç ı
æĬ ķ
åĽ ´
æľ Ľ
ç» ĥ
æ³¨ æĦı
åħ³ ç³»
å¯¹ äºİ
äº Ķ
äºº ç±»
Ġ n
èĤ ī
ç®¡ çĲĨ
åİ ¿
æ ħ
åĽ ¾
è Ĵ
èĥ½ åĬĽ
åĿ ĩ
ä½Ĩ æĺ¯
åĪĨ æŀĲ
é» ĳ
çŃ ĸ
`` `
åħ ħ
çľ Ł
åħ³ äºİ
¤ Ĳ
è ħ
æĽ ²
in t
è§£ åĨ³
å®ŀ çİ°
Ġ -
1 2
åĲ «
ä¸ ĩ
è®¤ ä¸º
a c
ä» ħ
åħ· æľī
è¯ »
åħ °
ç¾İ åĽ½
ç¬ ¦
å Ħ
å° ¼
é ¤Ĳ
è¯Ń è¨Ģ
åĲ ¸
å¿ ħ
ä¸įåĲĮ çļĦ
åŃ £
ç² ¾
çĹ ħ
éķ ĩ
åĪ¶ ä½ľ
å¾ ĭ
éļ ¾
åĲ Ĺ
åį ¡
æĹ ħ
åĨħ å®¹
äºº å·¥
åĢ Ļ
æĪĳä»¬ çļĦ
éĥ¨ åĪĨ
Ġ "
éĺ ²
ä½ł çļĦ
åİĨ åı²
æī į
çĶµ å½±
åĬł åħ¥
å¤ ±
æĸĩ ç«ł
ç ª
ç» Ī
éĢļ å¸¸
å ł
ç¡® ä¿Ŀ
å® Ŀ
èĢĥ èĻĳ
æĺ¯ä¸Ģ ç§į
åĦ ¿
åĪ° äºĨ
æīĢ æľī
å®¶ åºŃ
Ġ å¥½çļĦ
Ġth e
çĸ Ĺ
ä¿Ŀ æĬ¤
èº« ä½ĵ
ä¸¤ ä¸ª
è§ ī
åĲ ¬
çħ §
æ ĵ
å¾ Ģ
1 8
å¤§ çļĦ
çģ «
æİ ¢
æ¯ į
åħ ´
ç ĵ
åĬ ¿
åĶ ®
äº ī
æĽ´ å¤ļ
è®¸ å¤ļ
è´¨ éĩı
æľĢ åĲİ
èİ· å¾Ĺ
æĿ ĥ
å¤Ħ çĲĨ
å¸ Į
éľĢ æ±Ĥ
ç´ ¢
å ©
æ² ³
åı ĭ
äºº çļĦ
é» Ħ
éĺ ¿
å° ½
æıı è¿°
è¾ ¹
æĪĸ èĢħ
å® ¤
è®¡ åĪĴ
æĸĩ æľ¬
é¢Ĩ åŁŁ
æ ¦
äººå·¥ æĻºèĥ½
å¹ ²
å¸Ĥ åľº
ï¼ ģ
åı ¦
å± ħ
çŁ ³
åĩ »
è¿Ļ ç§į
çĶŁ æĪĲ
çłĶ ç©¶
éģ ¿
æĻ ®
ä½į äºİ
i on
Ġ 3
ä» Ĭ
ç»ĵ æŀľ
a s
éĩ Ĭ
å¯ Į
æĶ¯ æĮģ
a m
åĪ ĩ
åį ı
æĺ¯ åĲ¦
Ġ S
æĽ ¾
éĢĤ åĲĪ
ä½ľ ä¸º
ä»£ çłģ
äº «
æĿĲ æĸĻ
ä¸į æĸŃ
å¢ŀ åĬł
åŃ© åŃĲ
e d
èĽ ĭ
å·² ç»ı
åĸľ æ¬¢
èĳ Ĺ
å¯¼ èĩ´
ä¸ ¾
åıĳ çİ°
ä¸Ģ ç§į
å ĥ
èĢ ģ
åŃĺ åľ¨
çŃ ĳ
åľ Ł
å£ °
å± Ĥ
1 5
ç¦ ı
çĽ® æłĩ
åİ ĭ
éĵ ģ
Ġ o
åĽ Ń
åľ° åĮº
æĮ ī
åĬ¨ çī©
èĲ ½
è¶ £
ç¨ĭ åºı
ä» ĭ
æ¤į çī©
00 0
æĥħ æĦŁ
æľª æĿ¥
æ³ ¢
ä¼ Ĺ
ä¸Ģ ä¸ĭ
çĶ »
ä¹ °
r o
æł ¡
éħ Ĵ
é ±
åī §
è¯ Ĺ
æ¸ ¯
è´ Ł
å± Ģ
è¿ ŀ
å· §
ç ĳ
åĽŀ çŃĶ
æĬ Ĭ
é± ¼
åĪ Ŀ
äº ²
å»º çŃĳ
çİ ©
Ċ ĠĠĠĠĠĠĠ
åĲĦ ç§į
å®ļ çļĦ
è® Ń
æŃ¤ å¤ĸ
åıĺ åĮĸ
å¿ µ
åĩı å°ĳ
å»º ç«ĭ
æĸ° çļĦ
éĻ Ĳ
äº§ çĶŁ
åĵ ª
éĤ£ ä¹Ī
åĬŁ èĥ½
é¦ĸ åħĪ
é¥ ®
e t
æį ¢
l o
ä¸ ½
éĩįè¦ģ çļĦ
èī ¯
æĶ¿ åºľ
å¤ ı
ï¼ī ãĢĤ
åľ° çĲĥ
Ġ re
çİ° åľ¨
Ġ in
æķħ äºĭ
çĦ¶ åĲİ
çº ³
åĵģ çīĮ
æ´ ²
éģ¿ åħį
å½ ķ
åĨĻ ä¸Ģ
ä¼ ģ
çĶ¨ äºİ
ä¸Ĭ çļĦ
è¡Į ä¸º
æĿ İ
åº §
éĻ į
è´ £
çº ª
å§ Ķ
è¯ ī
1 1
æ¯ı ä¸ª
æĿ ¾
ä» ¤
å®¢ æĪ·
å® ĺ
é¢ ľ
åĥ ı
å¹¶ ä¸Ķ
è¶ ħ
ç Ĩ
è¿ ľ
æĽ´ å¥½
æµ İ
äº ¬
ä»£ è¡¨
u l
ç§ĳ åŃ¦
èīº æľ¯
çĶ± äºİ
äºº åı£
æĪĳä»¬ åı¯ä»¥
çĲĨ è§£
æķĻ èĤ²
i l
æİ§ åĪ¶
å¥ ¥
Ġ A
y th
å¤ª éĺ³
æĤ¨ çļĦ
en t
èį ī
éĶ ®
å¯ »
è´ ¢
Ġ h
u r
èĮ ĥ
Ġ i
Ġ C
åı Ī
é£ ŀ
åĸ Ħ
å®Į æĪĲ
çī Ľ
éĶ Ļ
æĺ ¾
æ² Ļ
éª ¤
5 0
Ġ +
è¡¨ è¾¾
æĭ ¥
æĸ¹ æ¡Ī
çķ ¥
æŃ¥ éª¤
ä¼ģ ä¸ļ
é£İ æł¼
Ġ and
åĩº çİ°
yth on
è® ²
åĿ Ĺ
è¡¨ ç¤º
ä½ ı
é¸ ¡
åħ ¸
3 0
ä¸Ģ èµ·
åĩ ½
ä»ĸ çļĦ
åĪĨ ç±»
ä¸» é¢ĺ
Ġt o
æ ¿
å¤§ åŃ¦
é¾ Ļ
å¾ ģ
æ£ Ģ
ä»· æł¼
åĬ ŀ
æĹ ı
çĽ¸ åħ³
éĿ¢ ç§¯
äº¤ éĢļ
é¢ľ èī²
Ġ (
åı Į
æĽ´å¥½ åľ°
çĶ ·
20 2
çĥ ¤
ç®Ģ åįķ
æ ½
åħĥ ç´ł
ä¹ĭéĹ´ çļĦ
ä»» åĬ¡
ç¿ »
è¾ĵ åħ¥
æľ ¨
å¥ ĩ
é ¼
ç» į
åį «
u t
ä»¥ä¸ĭ æĺ¯
åħ· ä½ĵ
æķ° åŃĹ
åĩ½ æķ°
å¸¦ æĿ¥
åı¯èĥ½ ä¼ļ
åº Ĺ
çĽ Ĭ
å® ³
ä¹Ł æĺ¯
å¾Ĺ åĪ°
æ± Ł
åħ ļ
æ´ ĭ
ç² ī
è¿Ļ æł·
ä»· åĢ¼
ä½ľ çĶ¨
è¦ģ æ±Ĥ
æĪĲ åĬŁ
u s
æŁ Ĳ
l i
å¤ «
éĿ Ĵ
åİ ħ
åį °
ç»ı æµİ
å° Ŀ
Ġ T
åıĹ åĪ°
ä½ľ åĵģ
åıĳ çĶŁ
è¡¨ çİ°
çĭ Ĺ
æ ¥
åĽ¢ éĺŁ
çİ° ä»£
åı ¶
å² Ľ
è ŀ
éĶĢ åĶ®
çļ ®
æ¿ Ģ
è ĵ
ç¬¬ ä¸Ģ
èµ °
å¥ ¶
é¢ Ŀ
æ¯Ķ èµĽ
æĭ ħ
çŁ Ń
ä¼ ¼
Ġ åľ¨
åĪ ¤
æł ĳ
éĴ Ł
19 9
æŃ ¢
å¾Ī å¤ļ
ä¼ł ç»Ł
ä»¥ ä¸Ĭ
å¾ ®
ç» ĩ
æĹ ©
d e
ç¾ ¤
å¹³ æĸ¹
Ġ y
ä»ĭ ç»į
r int
èĪ ŀ
å¸Į æľĽ
å¨ ģ
ç» ¿
å° Ħ
åĽł ç´ł
ç¡® å®ļ
å¿ Ĺ
æľ Ŀ
æĵ į
é² ľ
æĮ ĳ
æ¯Ķ å¦Ĥ
çļĦ ä¸Ģä¸ª
r i
ç»ĵ æŀĦ
åĪ© çĶ¨
ä¸Ģ ä»½
æ¹ ¾
åĳĺ å·¥
æĿ Ĥ
Ġ å½ĵ
æ² Ł
å¥ ĸ
æĹł æ³ķ
çŃī çŃī
æ´ ģ
---- ----
ç±» åŀĭ
Ġ 5
æĿ ¿
å Ĥ
çļĦ éĹ®é¢ĺ
æ¯Ķ è¾ĥ
è§£ éĩĬ
c h
è´Ń ä¹°
ç¼ º
å¼ Ĥ
ç¬¬ äºĮ
é º
é¦ Ĩ
çļĦ æĺ¯
ä¸Ń å¿ĥ
è½ ¯
çĶŁ åĳ½
è¿ ½
èĥ Į
ç§ »
ä¸ °
Ġ 4
çļĦ å½±åĵį
ç» §
åº ķ
æľº åĻ¨
é¡¹ çĽ®
ä»» ä½ķ
åĪ »
æĢ§ åĴĮ
å® £
åı¯ä»¥ å¸®åĬ©
çķ Ļ
ä½ĵ éªĮ
ä»İ èĢĮ
âĢ Ķ
æĬķ èµĦ
èĲ ¨
åħ¬ éĩĮ
è Ĺ
ä»ĸä»¬ çļĦ
a y
åı¥ åŃĲ
è ľ
ç¤ ¼
ä¸į ä»ħ
å½¢ æĪĲ
ç³ ĸ
v e
æĿ¥ è¯´
çĶŁ çī©
o l
ä¸º äºĨ
æ¦ Ĥ
å¯ Ł
æĭ¥ æľī
èĪ Ĵ
æľĢ ç»Ī
é Ń
æľī æķĪ
1 6
Ġ I
æĴ Ń
å¯¹ è¯Ŀ
è¯ ĳ
g e
s e
å· ®
æĻ ļ
å© ļ
åį ĥ
Ġo f
Ġ P
çī Ī
ç§¯ æŀģ
åħ³ éĶ®
èį Ĳ
çª ģ
æŁ ĵ
éĢ Ĳ
èĭ ı
ç§ĳ æĬĢ
ä¸į æĺ¯
åŃ¦ çĶŁ
åħ³ æ³¨
äºº æ°ĳ
Ċ ĠĠĠĠĠĠĠĠ
âĢĿ ãĢĤ
é¥ °
çĮ «
æİ¨ èįĲ
äº ĳ
æĬĢ å·§
Ġ 0
éĻ Ĩ
é¡ »
Ġ M
çī¹ çĤ¹
X X
å¼Ģ åıĳ
Ġ B
æķ £
æīĢ ä»¥
åĴ ĸ
æĿ ¯
æī ¿
è Ń
çļĦ åľ°
è® ¨
è¿ĩç¨ĭ ä¸Ń
å½ ©
æ²Ł éĢļ
æĶ »
éĥ½ æĺ¯
æĪĳ çļĦ
æĢ» ä¹ĭ
å®ĥ çļĦ
æł ¸
åħ¨ çĲĥ
æĮĳ æĪĺ
æŃ£ ç¡®
è®¾ å¤ĩ
è¿ĺ æľī
åŁº æľ¬
åĩĨ å¤ĩ
èŃ ¦
å°ı è¯´
éĩĩ çĶ¨
éĩı çļĦ
ç» ľ
æ¬ §
è¯ ¯
âĢĿ ï¼Į
æī¾ åĪ°
ç¥ ¨
çĽ ĳ
åĲĪ ä½ľ
( "
c t
æ´ ¾
æĽ´å¤ļ çļĦ
ç»Ħ ç»ĩ
æ¸ Ĳ
ä¼ ¦
åĳ ¢
æĦŁ åĪ°
è®Ń ç»ĥ
ç»Ļ æĪĳ
ä¸ ¥
åħ Ń
åıį åºĶ
èµ· æĿ¥
çī© è´¨
åĳĬ è¯ī
èµĦ æºĲ
ä½į ç½®
æī §
å°Ŀ è¯ķ
çģ µ
åķ ¡
æĪĳä»¬ éľĢè¦ģ
æ° §
åģ ĩ
æ´ Ĺ
æĮģ ç»Ń
éĿ Ļ
æ± ½
åį Ĭ
è¯ ¦
æĢ§ çļĦ
çŁ¥ éģĵ
å¾ ħ
æ± ī
åı¯ä»¥ éĢļè¿ĩ
åĴĸ åķ¡
æĵį ä½ľ
æĿ ĳ
èŀ į
çİ¯ ä¿Ŀ
Ġ '
äºĨ ä¸Ģ
åĵ Ī
Ġ æĪĳ
i m
å² ģ
èį ¯
å¡ Ķ
æ³ Ľ
åĽ½ å®¶
1 7
åĬ ±
éģ ĩ
å¤© æ°Ķ
åĪĹ è¡¨
åĪĽ éĢł
åĨ °
è§Ĵ èī²
æ· ·
ç ĩ
åıĤ åĬł
åŁ ¹
èĪ ª
çĶµ è§Ĩ
å¿ĥ çĲĨ
èĩª çĶ±
ä¾ Ŀ
ä¸ĵ ä¸ļ
é¦Ļ æ¸¯
å ³
åį ļ
è¾ĵ åĩº
çı Ń
è¡ £
____ ____
æĲ Ń
å·¥ åħ·
å½ Ĵ
çĽ Ĳ
è¾ ĳ
h e
åŁº ç¡
å° ļ
a d
æŃ ¦
çļĦ éĩįè¦ģ
åŁºç¡ Ģ
è¡ ¡
1 4
u n
è Ķ
ä¸ ´
å½ĵ åľ°
æ³ķ åĽ½
åĪ¶ å®ļ
Ġ e
æ¨¡ åŀĭ
çĶŁ äº§
ä¼ ¤
å· ¦
ä¹ ¡
é£Ł çī©
åģ ľ
åĮħ åĲ«
ç« ŀ
èĥ ľ
å°± æĺ¯
å ª
æīį èĥ½
åĮ» çĸĹ
å° Ĭ
ç»Ħ æĪĲ
åĿ ļ
æĹ¥ æľ¬
è· Ŀ
ä¸į èĥ½
åħ¬åı¸ çļĦ
æĺ ¥
èĵ Ŀ
æķ° éĩı
åı¯ä»¥ åľ¨
æ¯ Ľ
å¿ħ é¡»
åĪĨ éĴŁ
2 5
çļĦç ¾
çĻ ¾
æŃ »
éļı çĿĢ
çĶµ åŃĲ
æ¸© åº¦
çĪ ¶
åı ³
åº ĵ
ä» ĺ
éħ ¸
åĨĻä¸Ģ ç¯ĩ
æķĪ æŀľ
æħ ¢
æ¥ ¼
æ´ ŀ
éĴ Ī
ä» į
æ£ ®
æĳ Ħ
æ¹ ĸ
éĢŁ åº¦
è¡Į æĺŁ
åĳ ¼
ä¹ ĺ
åĨ ľ
è¯¦ ç»Ĩ
éĵ ¶
é Ĩ
åľ £
åıĤ ä¸İ
åĲ ĥ
éĻ Ī
ä¿ ĥ
é£İ éĻ©
èĪĴ éĢĤ
19 8
å®ŀ éĻħ
èĪ ¬
i d
æĬĢ èĥ½
å¤ ľ
åħ «
å¹¿ æ³Ľ
å® Ĺ
ç¨ ³
( )
Ġ g
åĬĽ åĴĮ
å±ŀ äºİ
å® Ī
åį ł
çļĦ æĹ¶
åĽ °
Ġf or
çł ´
åħ± åĲĮ
åįķ è¯į
è¿Ļ æĺ¯
ç½ĳ ç»ľ
o t
æľ ĭ
çĽ ĸ
æİ ª
v er
ç« ¯
éĽ ¨
ä¼ Ĭ
åħ µ
è± Ĩ
é¸ Ł
åŃĹ ç¬¦
èĻ ½
äº ®
ä½ Ļ
æķ´ ä¸ª
çĶŁ æĢģ
çī Ļ
1 3
æ¶Ī è´¹
ç§ ĺ
Ġ 6
æĦı ä¹ī
åı° æ¹¾
ä¹ĭ åĲİ
éĽ ·
ä¸° å¯Į
åį ´
ç©º éĹ´
ç»ı éªĮ
åĤ ¨
ç© ¿
éĹ »
ä½ ³
g h
äºĭ ä»¶
æĿ¡ ä»¶
çļĦç ¬
åĮĸ åŃ¦
åĬ ª
èĤ ¤
çĻ »
çļĦ åıĳå±ķ
é¡ º
æİ Į
æĪĲ åĳĺ
çŁ¥ è¯Ĩ
çĶ ²
è¡ Ĺ
å® ĩ
èī² çļĦ
ç¿» è¯ĳ
ä¸į è¦ģ
ç» ª
æ±½ è½¦
å ĺ
èĦ ĳ
ç´ §
åĨ³ å®ļ
æľĭ åıĭ
æ· »
ä¹Ł åı¯ä»¥
çļĦç¾ İ
æıĲ åĩº
éĺ ħ
è°ĥ æķ´
åĽ½ éĻħ
1 00
åª Ĵ
è¯ ¢
è ĸ
æķĪ çİĩ
æ°Ķ åĢĻ
åıĺ å¾Ĺ
æĸĩ åŃ¦
ç» ¼
å¤§ åĪ©
åĬł å¼º
é¢ ĳ
è¿ İ
éĢ ı
åĲį ç§°
åĨ ·
å½¢ å¼ı
èĤ ¡
ç§ ĭ
æĮī çħ§
æĺ¯ åľ¨
a p
éĢł æĪĲ
çĦ¶ èĢĮ
è¡Į æĶ¿
æľº ä¼ļ
å®¹ æĺĵ
èĹ ı
äºº åĳĺ
æľĢ è¿ĳ
æİª æĸ½
ä¸ ²
æĦ ¿
çī¹ å¾ģ
æ´ Ľ
P ython
æī ¹
éħ ±
åĮĹ äº¬
å®ŀ éªĮ
æį Ł
èĻ½ çĦ¶
åĭ Ĵ
è¡¨ æł¼
å¸ Ŀ
Ġy ou
Ġ $
çī¹ åĪ«
ç»Ļ åĩº
åī ¯
çĨ Ł
å¯» æī¾
åĩł ä¸ª
é¡ ¿
æ¢ ¦
äºĨ ä¸Ģä¸ª
æ ¾
è¯· éĹ®
æµ ª
ç® ±
äº¤ æµģ
æİ¢ ç´¢
ç¤¾ äº¤
èĮ ¶
åıª æľī
æ± ¡
æŀ ¶
å® ł
æļ ĸ
åĢ Ĵ
æ£Ģ æŁ¥
åĪĨ åĪ«
o w
åŁº äºİ
ç®Ĺ æ³ķ
å¹³ åĿĩ
çĵ ¦
é«ĺ çļĦ
e m
ç§° ä¸º
çĮ ®
å¾ ª
å¸¸ è§ģ
ç»§ ç»Ń
n t
ä½¿ å¾Ĺ
ä¸Ń åįİ
å¤į æĿĤ
å· ¨
æ²» çĸĹ
ä¸Ģ çĽ´
åķĨ åĵģ
åĪĽ ä½ľ
éĿ ©
ä¸ī ä¸ª
çĤ Ĵ
é£Ł åĵģ
æµĭ è¯ķ
è¯ º
é¡ ¾
èĩª æĪĳ
å§Ķ åĳĺ
å¦Ĥæŀľ ä½ł
Ġ 8
Ġn um
åĲ ī
è Ĩ
æĪĳ æĥ³
or t
c e
æĬ¥ åĳĬ
èģĮ ä¸ļ
æ¤ Ĵ
æ³ķ å¾ĭ
i f
å®ĥä»¬ çļĦ
è¿Ľ åħ¥
ä½ Ľ
Ġ L
åĲ¸ å¼ķ
çİ© å®¶
ç £
éĻ Ħ
ä¸ ĥ
æ»¡ è¶³
é¼ ĵ
å§ Ĩ
ï¼ļ âĢľ
èĮĥ åĽ´
èĭ± åĽ½
è§Ħ åĪĴ
ä¼ °
ä¸ĸ çºª
éĩ İ
ä¹ Ŀ
å¡ ŀ
å¹´ çļĦ
ä¸» ä¹ī
éĢ ģ
æĢĿ èĢĥ
æĺ¯ æĮĩ
çľ ¼
é ¹
ä¸Ģ æ¬¡
ä¸Ģ æŃ¥
æłĩ åĩĨ
" )
Ġ D
å®ł çī©
u e
è½ ®
èİ ±
çĭ¬ çī¹
æľ «
æ ©
çĥ Ī
è¡Į åĬ¨
ĠĠĠĠĠĠĠĠ ĠĠĠĠĠĠĠĠ
åİŁ åĽł
æģ ©
è¡ Ģ
Ġå½ĵ çĦ¶
éļ ľ
åĲ §
æľī åħ³
è´ Ŀ
å¤© çļĦ
ç¼ ĵ
æ° ¸
ç» Ŀ
è´ µ
æ¼ «
åĨ ²
çĽ ĺ
åł Ĥ
or d
å¹ ¸
äº ¦
ä¸į ä¼ļ
è·Ŀ ç¦»
Ġ {
æĶ¹ åıĺ
åħħ æ»¡
Ġ H
æĶ¿ æ²»
åĩ Ģ
æĹħ æ¸¸
æĿ Ł
éĥ½ æľī
æĹ¶ æľŁ
äºº çī©
æľŁ éĹ´
æ¶ ²
éĶ ħ
çº ¸
éĺħ è¯»
çļĦç ľ
èģĶ ç³»
è¯´ æĺİ
çĶŁ éķ¿
èĩª åĬ¨
åªĴ ä½ĵ
æĬ Ĺ
åĪĽ æĸ°
ç§ ģ
n um
Ġ è¿Ļ
æŃĮ æĽ²
èĢĮ ä¸Ķ
çŃĸ çķ¥
å°Ĩ åħ¶
éģ Ĺ
çģ ¯
å®ļ ä¹ī
è´ ¥
åĲ ¯
èĥ ¡
æī ĺ
éĿ ł
åĮº åŁŁ
åľ Ĩ
èĳĹ åĲį
éĢ Ķ
ãĢĤ âĢĿ
Ġ is
é¤Ĳ åİħ
éĺ ¶
å¾ Ħ
ç§ Ģ
ä¹ĭ åīį
è¾ Ĩ
åı¦ å¤ĸ
å¢ŀ å¼º
éĩĩ åıĸ
Ġ W
ä¸Ģ èĪ¬
ä¹ ħ
çħ ®
k e
Ġ st
è¿ĺ æĺ¯
æĲŃ éħį
çĽ® åīį
o d
èī¯ å¥½çļĦ
ä½ł åı¯ä»¥
è¿ Ķ
æīĭ æľº
å± ĭ
ç»ĥ ä¹ł
ä¼ ¯
å½ĵ æĹ¶
åı£ æĦŁ
æĭ Ł
å¿« éĢŁ
å¤ļ ç§į
æ° ı
æ·· åĲĪ
å·¥ ç¨ĭ
æĪĲ æľ¬
æĥħ ç»ª
åħ´ è¶£
å® ¡
åĳĬè¯ī æĪĳ
æĭ ¿
p rint
è´ §
éĿ¢ çļĦ
åŃ¦ æł¡
åĶ ±
åĮ Ģ
èĥĮ æĻ¯
é¥® é£Ł
æĦŁ è§ī
æ·» åĬł
at e
å¹³ åı°
æ¶ ī
i r
åĽ º
Ġ l
èĢħ çļĦ
åį³ åı¯
ä¼ ĳ
a v
å¤ļ å°ĳ
æľī ä¸Ģ
èģ ļ
å¼ ¹
é«ĺ åº¦
ç¨ İ
6 0
æĢ İ
æĥħåĨµ ä¸ĭ
2 4
é² ģ
æı ¡
Ġ F
f or
ï¼ī ãĢģ
åĵ ¥
æĸ¹ åĲĳ
è¶ ĭ
Ġ å°Ĩ
å¹³ è¡¡
Ġ è¯·
è®¡ç®Ĺ æľº
çĶ °
æĬ ĺ
ç©º æ°Ķ
å¦Ĥ ä¸ĭ
éĢ Ģ
æļ ´
æĪĲ éķ¿
ä»¥ ä¾¿
å¸Ĥ éķĩ
ä¿ĥ è¿Ľ
è· Ł
å¹¶ åľ¨
æľī è¶£
éĢĲ æ¸Ĳ
åĩĨ ç¡®
ç³» åĪĹ
è¿Ļ éĩĮ
è®° å½ķ
¹ ģ
ç»ı åİĨ
åĬ© äºİ
èĥ½ æºĲ
æĦŁ åıĹ
æĿ Ģ
çļĦ å¤§
å® Ļ
çŃī æĸ¹éĿ¢
19 4
æ¸ħ æ´ģ
åĨ ł
å¥ ı
æĢ» ç»ĵ
èĲ¥ åħ»
åİĭ åĬĽ
å°ı æĹ¶
ç«ŀ äºī
æ¡ ¥
è¾¾ åĪ°
åľº æĻ¯
å® ½
åķĨ ä¸ļ
è¯ ¾
ä¾ §
å®¶ åħ·
è¡Į çļĦ
é© ¶
å· Ŀ
å®ļ æľŁ
åĮĸ çļĦ
åĬª åĬĽ
è¾ ĸ
çĽ¸ å¯¹
çī© çĲĨ
å° ģ
æĺ¯ ä»Ģä¹Ī
çİ ī
åĮ» çĶŁ
çĸ ¾
åĲĪ éĢĤ
è½ ½
åĳ Ī
at ion
Ċ Ġ
æĦı è¯Ĩ
19 7
çĸ ĳ
å®ĩ å®Ļ
å° º
Ġ 7
è¿Ļ ä¸Ģ
æŃ£ åľ¨
çļĦç Ł
æĸ Ĺ
ur n
åŁ ĥ
æľ Ĺ
éĢĤ éĩı
æĪĲ ç«ĭ
çļ ĩ
å°ı æĺİ
æķ° åŃ¦
æ°´ å¹³
ä¸º æĤ¨
æİ Ī
å¸ Ń
çļĦç ¤
åĲĪ çĲĨ
æ±¡ æŁĵ
ä¸ Ŀ
çļĦç¬ ¬
ä¸ĭ æĿ¥
Ġ G
èĶ ¬
çļĦç Ī
æī ©
éĤ ®
) :
è¿ ª
åģļ åĩº
çļĦ æĸ¹æ³ķ
æ¹ ¿
æĿ¥ è¶Ĭ
æĽ´ å¥½çļĦ
ç¬¬ ä¸ī
ic e
Ġ r
éº ¦
ĠĠĠĠ Ġ
å¤ ®
è· ĳ
åŃĹç¬¦ ä¸²
èĪ ¹
è¶Ĭ æĿ¥è¶Ĭ
åľ¨ è¿Ļä¸ª
æİ¥ åıĹ
åħ¬ åħ±
è°ĥ æŁ¥
æ¨¡ å¼ı
Ġ R
å® ģ
éĢĤ åºĶ
er s
åĵª äºĽ
çŃ ¾
æ¶ ¦
æ½ ľ
å¢ Ļ
æľī åĬ©äºİ
èĳ ±
éĶĻ è¯¯
å³ °
å¤ļ ä¸ª
åįķ ä½į
è´Ł è´£
éļ Ĳ
çĽ Ł
çľĭ åĪ°
ä¸Ģ å®ļ
Ġ [
æµ ĵ
è¶ĭ åĬ¿
ä¸Ģ ä½į
ä¿Ŀ è¯ģ
çĬ¶ æĢģ
åĿ ı
è® ¢
J o
æī§ è¡Į
è¯Ĺ æŃĮ
æ³¨ éĩį
æ³ °
ä¸į åı¯
è½¦ ç«Ļ
æĶ¶ åħ¥
æ± ¤
æĭħ ä»»
éĴĪ å¯¹
çĽ´ æİ¥
ç½ ª
è´¢ åĬ¡
ä¼ļ è®®
æĳ ©
å® «
å ´
ĊĠĠĠĠĠĠĠĠ ĠĠĠ
æĤ¨ åı¯ä»¥
æĥ ¯
Ġ /
æĦı å¤§åĪ©
åĿ Ĳ
æ¬¢ è¿İ
åį ±
2 8
åĬ ³
è¶³ å¤Ł
èĶ¬ èıľ
e x
ç ¹ģ
æĮ ¥
è½¯ ä»¶
æĭ Į
Ġ #
å¦Ĥæŀľ æĤ¨
ç®Ģåįķ çļĦ
A I
éĢĤ å½ĵ
åº¦ åĴĮ
åĲĮæĹ¶ ä¹Ł
èĤ Į
o p
èĻ ļ
è¡Į ä¸ļ
æĤ £
éĺ³ åħī
ä¸Ĭ æµ·
æŁ Ķ
ä¸Ń å¤®
æĺ¯ çĶ±
å» ¶
æĹ ĭ
çĽ´ åĪ°
è· ³
æ¯ Ĵ
æıĲ åįĩ
ç¼ĸ åĨĻ
æĥ³ è¦ģ
t urn
è¡¨ éĿ¢
ä¸ĭ éĿ¢
Ġ x
è¿ĺ åı¯ä»¥
çĬ ¯
çĽ¸ äºĴ
ç« ¥
æĽ ¼
çĹ ĩ
Ġ1 0
åł ¡
éľ ²
äº« åıĹ
èĤ ¥
åĪĨ å¸ĥ
am e
é¡ ¶
åĬĽ éĩı
" ,
a b
ãĢĭ ãĢģ
æľī äºĽ
è°¢ è°¢
äº Ī
è´Ń çī©
æĶ¾ åħ¥
é ½
ç»´ æĬ¤
éĻį ä½İ
è®¾ ç½®
å£ ¤
-- -
2 1
å¹´ ä»£
çŃĶ æ¡Ī
æģ Ĵ
æİĴ åºı
æĸ° éĹ»
åĲİ çļĦ
ä¼ ´
èĦ ļ
çĪ± æĥħ
è´£ ä»»
çĥ §
å¸ ģ
éĵ ¾
çļĦç ĥ
æĹħ è¡Į
ç± į
ç³ ķ
è®© æĪĳä»¬
é¾ Ħ
æĹ §
åħ¶ æ¬¡
æĽ ¿
é¢Ĩ å¯¼
åģ ı
æĶ¿ çŃĸ
Ġ 9
æ³ ¡
è´ ¡
Ġ <
ä¸Ģ æ®µ
ç»ı è¿ĩ
æ² ī
èĢ Ĳ
å± Ĭ
Ġ E
ç» ©
gh t
åı «
å¯¹ æĸ¹
åĿ ¦
åħ± åĴĮ
éĩį æĸ°
å±ķ ç¤º
± ä¹Ĳ
çĸ¾ çĹħ
å®Į åħ¨
æĿ¥ èĩª
æķ ĳ
çĲĨ è®º
4 0
é¼ĵ åĬ±
ä¸ ģ
åĨħ éĥ¨
ç»Ĩ èĬĤ
åĲį ä¸º
çĶ¨ çļĦ
æĶ¹ åĸĦ
åıĬ æĹ¶
ä½ł å¥½
è¶³ çĲĥ
æĥ³ æ³ķ
2 3
çī© ä½ĵ
çī© åĵģ
Ġ *
çĸ «
è¡ ¥
Ġd e
èĴ Ļ
ä¼ĺ åĮĸ
Ġre turn
åĪĽ å»º
çĭ¬ ç«ĭ
åĳ¼ åĲ¸
ç¾İ ä¸½
202 1
æĿ °
æĮĩ å¯¼
æľĢ å¤§
è® ¿
è£ħ é¥°
è¯Ħ ä¼°
é¢Ħ ç®Ĺ
åº Ĩ
é»ĳ æ´ŀ
ul t
æĭ į
æ± ĩ
æĶ¾ æĿ¾
å°Ĭ éĩį
åį Ī
æ± ģ
æľĢ é«ĺ
åĿĩ åĮĢ
æĺ ł
äºĭ æĥħ
h n
p ut
èĲ¥ éĶĢ
è¿ŀ æİ¥
åĪĨ äº«
åī Ĥ
èģ Ĭ
åĭ ĩ
åħ¬ åĽŃ
ä¸º ä»Ģä¹Ī
è§Ĥ çĤ¹
éĽ ħ
èĭ± è¯Ń
çļĦç ł
ç¾İ åħĥ
è Ŀ
æĦŁ è°¢
çĶ ļ
åĪĨ ä¸º
ç¤¾ åĮº
åıĸ å¾Ĺ
ç¬¦ åĲĪ
æĺİ ç¡®
æĶ¾ åľ¨
éĺ µ
æĢ§ èĥ½
è¿½ æ±Ĥ
ä¹ł æĥ¯
èī ¾
éĴ ±
ç¨³ å®ļ
å¿ħ è¦ģ
è¿Ľ ä¸ĢæŃ¥
çĳ ŀ
åĶ Ĳ
en d
è° Ī
æ¦Ĥ å¿µ
å° ¾
å® ľ
æľī ä¸Ģä¸ª
æĢĿ æĥ³
çİ° è±¡
Ġ N
ä¹ ³
è§Ħ åĪĻ
æľĢ ä½³
åĪ ĺ
ç½ĳ ç«Ļ
æĢ ¥
çľ ł
èµ ŀ
è ¹
è¿ ·
éĵģ è·¯
åĨ³ çŃĸ
Ġi f
çļĦ æĸ¹å¼ı
æİĮ æı¡
è®¨ è®º
ç»ı åħ¸
è®¾ æĸ½
çĤ ¼
å¾· åĽ½
æ± ł
è ª
åĵ ²
ç»ĵ æĿŁ
æľº æŀĦ
Ġ v
æĪĳ ä¼ļ
èµ ı
åĪĨ åŃĲ
ç¼ ©
æĪ¿ éĹ´
5 00
è®© äºº
å¾ª çİ¯
çģ ¾
ãĢĭãĢģ ãĢĬ
åºĶ çļĦ
Jo hn
è¿Ķ åĽŀ
èį £
æ¯ı ä¸ªäºº
æĪĳ åı¯ä»¥
æ·± åħ¥
2 2
ç»ı å¸¸
é¥ Ń
å¥³ æĢ§
å»º è®¾
äº ¿
ä» ª
åĪ¤ æĸŃ
æıĲä¾Ľ äºĨ
å¥ Ĺ
åľ° æĸ¹
åı¯ æĮģç»Ń
åĬĽ çļĦ
çĬ¶ åĨµ
èĥ½ éĩı
' ,
éĢ Ĵ
å¹¸ ç¦ı
æĹ¥ æľŁ
å¼º è°ĥ
æ» ĳ
æĶ¹ è¿Ľ
ç¢ ³
å¹´ è½»
åº Ħ
o s
æĢİ ä¹Ī
çİ Ľ
æŃ£ å¼ı
. .
å¼ķ èµ·
åŃ¦ éĻ¢
é¢Ħ æµĭ
åºĶ å¯¹
äº ¡
éķ¿ åº¦
é© ¾
çļĦ æĸĩç«ł
9 9
å¡ ĳ
åº Ĭ
åı¯ä»¥ ä½¿çĶ¨
çĩ ĥ
ä»¥ ç¡®ä¿Ŀ
éģ į
å «
Ġp rint
æĹ¶ å°ļ
åĪ¶ éĢł
éĽ ª
åħ±åĴĮ åĽ½
å§Ķåĳĺ ä¼ļ
è¿Ļä¸ª éĹ®é¢ĺ
åĪ º
è ¸
æĬ ½
å®¤ åĨħ
19 5
ä¸Ģ åĲį
æĥ ł
æľī çĿĢ
æĪĺ äºī
ç§ Ł
å¸® æĪĳ
æ¾ ³
çļĦ çĶŁæ´»
çĿ ¡
ç¬ Ķ
ar t
ç» ĺ
ä¸į è¿ĩ
åĲį åŃĹ
éª ¨
ç¬ ĳ
æ° Ľ
çĦ ¦
å®ī è£ħ
æĲ ľ
æľī ä»Ģä¹Ī
çĭ¬çī¹ çļĦ
åŀ ĥ
æĭ Ķ
åľ ¾
åŀĥ åľ¾
ç¼ĸ ç¨ĭ
ä¹Ł ä¼ļ
éľ ĩ
ä¼ ½
åĲĪéĢĤ çļĦ
è½ ¨
ä¸¥ éĩį
çļĦ å°ı
å¤ļ æł·
n d
Ġb e
çĿ £
æ¶ī åıĬ
éģ µ
èĥ ŀ
èģĶ ç½ĳ
ãĢĭ ï¼Į
âĢĶ âĢĶ
çĶ ľ
çĽ¸ åĲĮ
éĻ¤ äºĨ
æĹ¥ å¸¸
æĲ ħ
æĹł è®º
2 7
ä»Ĭ å¤©
åŃĹ æ¯į
åĽ° éļ¾
è§£åĨ³ æĸ¹æ¡Ī
ä¸Ģ ç¯ĩ
ex t
çļĦåľ° æĸ¹
è¾ £
è¯ ļ
åį ·
l y
å¹³æĸ¹ åħ¬éĩĮ
æµ· æ´ĭ
èĭ± æĸĩ
èĽĭ ç³ķ
æļ Ĺ
è§ ¦
çļĦ ä¸»è¦ģ
è¶ħ è¿ĩ
å¹ ķ
å² ¸
çº ½
èİ «
19 6
re s
ä¸ļ åĬ¡
æ² ¿
æģ Ĳ
å¹´ é¾Ħ
æ°§ åĮĸ
çļĦ ä¿¡æģ¯
ç¾İ é£Ł
æ¯ ķ
å° ¤
ä¸Ń æľĢ
åĢ ¾
æĺ¾ ç¤º
æĭ Ľ
åģ¥ èº«
8 0
çļĦ åºĶçĶ¨
åĵģ è´¨
a in
è§Ħ å®ļ
èĪ °
è¿Ļ æ®µ
ãĢį ï¼Į
è ķ
è° ·
2 6
æĶ¯ ä»ĺ
éĽ Ħ
éľĢè¦ģ æ³¨æĦı
éĿ¢ å¯¹
æ¸ħ æĻ
åĢ Ł
å¢ŀ éķ¿
è´¹ çĶ¨
åīį å¾Ģ
åĲİ æĿ¥
èĴ ľ
Ġ= =
é¢ Ĺ
èĢ ³
éŃ Ķ
i th
è° ±
è´¡ çĮ®
æ¬§ æ´²
æĲħ æĭĮ
ä¹Ł æľī
u b
è¯ Ĭ
çĶļ èĩ³
æŃ£ç¡® çļĦ
å¹¶ ä¸į
çĶ ³
åı¯ä»¥ è®©
æķ ¬
åİ Ĥ
å½ ¼
çļĦç ģ
èĴ Ĥ
æĥ Ĭ
è§Ĥ å¯Ł
an t
20 19
çĽ¸ ä¿¡
çī© ç§į
éķ¿ æľŁ
èĻ «
ä¹ Į
ä¸Ģ é¦ĸ
äºĴ åĬ¨
å¯Ĩ åº¦
ç§» åĬ¨
æ¯ı å¤©
æľºåĻ¨ äºº
ç»¿ èī²
æĸ¹ ä¾¿
20 20
æµģ è¡Į
æİ¨ å¹¿
éĶ »
çĪ Ĩ
ç¥ ĸ
èª ī
çļĦç¤ ¾
è ļ
èį ·
å½¢ è±¡
ä¹ İ
å¹ »
åĴĮ åħ¶ä»ĸ
åıĳ å¸ĥ
æŁĲ äºĽ
æ¶Īè´¹ èĢħ
åĳ¨ åĽ´
èĭ ¥
å¥¹ çļĦ
çľŁ æŃ£
èĬĤ çĽ®
é ³
è½¬ æį¢
å®ī æİĴ
åĩº äºĨ
éĶ» çĤ¼
å¼ Ĺ
å¯ ¸
2 9
çļĦç ©
åĩº æĿ¥
é¸¡ èĽĭ
å®£ ä¼ł
åħ¨ åĽ½
åħħ åĪĨ
çĶŁæĪĲ ä¸Ģä¸ª
è½¦ è¾Ĩ
åĬ¨ ä½ľ
ç¨ĭ åº¦
å°Ĩ ä¼ļ
åı£ åĳ³
æ¢ ħ
çļĦ æķ°æį®
æĢ Ģ
h i
å¹¿ åĳĬ
é£Ł æĿĲ
ä¸ ¹
è§ī å¾Ĺ
ou t
æ°ĶåĢĻ åıĺåĮĸ
é ŀ
ľ ä¼½
éģ Ń
æµģ ç¨ĭ
èĦ ±
on e
åĪ ļ
åĵ² åŃ¦
é» İ
äºº çĶŁ
çĽ Ľ
è¯Ĩ åĪ«
å¿ Ĩ
åŃ¦ ä¼ļ
19 3
ĠĠĠĠ ĠĠ
éĩĳ èŀį
çīĽ å¥¶
å¸¸è§ģ çļĦ
q u
åŃĲ çļĦ
ou r
å¤§ å°ı
è®© æĪĳ
éĺ¶ æ®µ
å¤§ éĩı
çİ° å®ŀ
å·¦ åı³
æķ ı
éĻĲ åĪ¶
ä¸Ń æĸĩ
ç»Ĩ èĥŀ
æĪĲä¸º äºĨ
ç¡ ¬
å² ©
æ°´ æŀľ
æĶ» åĩ»
åº Ł
æ® Ĭ
ä¼ĺ ç§Ģ
åĨħ çļĦ
Ġ Ã
æĹ¶ ä»£
å® ¾
å±ħ æ°ĳ
åıĮ æĸ¹
ç²¾ ç¥ŀ
ä»ĸ åľ¨
ç»ĵ åĲĪ
åį« çĶŁ
ä¸Ĭ éĿ¢
ä¼ĺ åĬ¿
è¯Ħ ä»·
åı¤ ä»£
èĮ Ħ
åĩº çļĦ
æ³ ³
è£ħ ä¿®
ä¼ĺ çĤ¹
ç±» ä¼¼
é» ĺ
é«ĺ æķĪ
è§Ĥ ä¼Ĺ
åŃ£ èĬĤ
åĪĽ æĦı
çı į
ä¸į éĶĻ
p ython
åºĶçĶ¨ ç¨ĭåºı
çļĦçł Ķ
å¤§ å®¶
èı ²
èī² å½©
å© ´
å®¶ å±ħ
æģ ¶
å¯ ¿
éħĴ åºĹ
åŃ ¤
æıĲ åıĸ
e w
i v
èĽĭ çĻ½
æ·± åĪ»
åİ ļ
åĺ ī
çª Ĺ
è· µ
ç¾İ åĳ³
æĥħ èĬĤ
çĽ¸ ä¼¼
ä½ĵ çļĦ
é¥ ¼
å·¥ ä¸ļ
åĨĻä¸Ģç¯ĩ åħ³äºİ
å¹ ħ
çļĦæĹ¶ åĢĻ
éĥ¨ éĹ¨
æĦ ī
ç½ ²
èĦ Ĥ
ä»į çĦ¶
é¦ Ī
r ac
å°¼ äºļ
æĪĲ åĪĨ
éĽ ¶
çĽ® çļĦ
ä¸Ģ æł·
åĳĪ çİ°
éģĵ å¾·
éļ Ķ
å¼ ĥ
æİ¨ åĬ¨
çļĦ æĹ¶éĹ´
è¿Ĳ è¡Į
å½¢ çĬ¶
éķ ľ
æł¸ å¿ĥ
åŁ¹ è®Ń
æ¯ «
åį ¢
åĳ³ éģĵ
å°½ ç®¡
for m
ä½ł éľĢè¦ģ
çº¢ èī²
ãĢĭ ï¼Ī
æ» ©
çı ł
æ½ ®
èİ· åıĸ
çļĦ å·¥ä½ľ
ç¥ŀ ç§ĺ
æĢĿ ç»´
p p
åĨ Ĵ
éĤ ¦
Ġ æĺ¯
çĶµ èĦĳ
ar r
åħ± æľī
æ¸ħæĻ °
çķ ª
o b
åį° åº¦
åı¥ è¯Ŀ
ä¸ª æĢ§
ãĢį ãĢĤ
éĩı åŃĲ
ç»Ļ å®ļ
éĢ ĥ
å®ŀ è·µ
èĩ³ å°ĳ
æīĢ éľĢ
éĹ Ń
çī¹ æ®Ĭ
åľ¨ ä¸Ģèµ·
é¡ µ
çļĦ åħ³éĶ®
åįĥ ç±³
ç¥ Ŀ
éĻĦ è¿ĳ
åŃĺ åĤ¨
ãĢĭ ãĢĤ
å¼Ģ æĶ¾
çĤ ¸
çĲĥ éĺŁ
) )
ä¸Ĭ æľĢ
ä¿¡ ä»»
çļĦç ¨
åĨ ¬
ä»¤ äºº
æ»¡ æĦı
éļ Ĩ
è®¤ è¯Ĩ
a g
è¯Ħ è®º
es s
äºĴ èģĶç½ĳ
èľ ľ
éĿ¢ ä¸´
å£° éŁ³
é©¾ é©¶
c i
éº »
æį ·
æĬ «
æį ķ
çļĦç© º
å¯¹è¯Ŀ åĨħå®¹
in d
è¹ Ī
æĦı è§ģ
i g
éĴ ¢
Ġ `
æľī æīĢ
å§ ľ
åĩ ī
æĪ¿ å±ĭ
çļĦ æķħäºĭ
æ· ¡
åıį é¦Ī
ä»¥ä¸ĭæĺ¯ ä¸ĢäºĽ
çļĦ å»ºè®®
åĨł åĨĽ
è¯¾ ç¨ĭ
è¿ĩ åİ»
Ġå½ĵçĦ¶ åı¯ä»¥
å¨ ±ä¹Ĳ
èĳĹåĲį çļĦ
ç§į ç±»
çļĦçĪ ±
Ġ int
æķ° çļĦ
èģĶ åĲĪ
ac k
ä½ł ä»¬
äº¤ æĺĵ
Ġ O
èĳ ¡
è¿Ľ æŃ¥
åĩº çĶŁ
ä½ł èĥ½
èĪŀ è¹Ī
åĨį æ¬¡
éģĵ è·¯
å¯» æ±Ĥ
çĶ¨ æĿ¥
as s
ä¿ Ħ
å¤ı åŃ£
åĦ¿ ç«¥
çļĦ çİ¯å¢ĥ
åıĺ éĩı
éĥ½ ä¼ļ
202 2
äº§åĵģ çļĦ
å®Ŀ å®Ŀ
æĸ¹ ç¨ĭ
æ³ ½
l d
an s
ï¼Į âĢľ
æĿ¥ æºĲ
çĹ Ľ
å·® å¼Ĥ
' s
è¯ģ æį®
o o
å Ĺ
æ¶ Ĥ
ä¾ĭ åŃĲ
ç»Ħ åĲĪ
çļĦçłĶ ç©¶
èĢ Ĺ
N A
åĮ ¹
æĴ °
å¼ Ł
æ¸© æļĸ
æİ¢ è®¨
äººæ°ĳ åħ±åĴĮåĽ½
æĮĩ åįĹ
å¿« ä¹Ĳ
åħ ¼
çĳ ľä¼½
åĿ Ģ
æİ¥ ä¸ĭæĿ¥
è¡¨ æ¼Ķ
çļĦ éľĢæ±Ĥ
ç¾İ çļĦ
20 00
ä¾ µ
è§ Ī
ç»¼ åĲĪ
ç Ĵ
å¤ļ çļĦ
Ġ li
æ£® æŀĹ
Ġ el
åį ĸ
åħ¬ å¼ı
çļĦç ¼
ç¼º çĤ¹
20 10
è¿ ¹
çĶŁæĢģ ç³»ç»Ł
æ°Ľ åĽ´
çĽ¸ åºĶçļĦ
éĢ »
ç» ķ
åŁ¹ åħ»
æ·± åº¦
æĲľ ç´¢
åĶ ¯
æĹ Ĺ
æĦı åĳ³
å®£ å¸ĥ
å¦ »
ä½ľ èĢħ
Ġc h
el f
ä½ĵ èĤ²
æģ ĭ
åľŁ å£¤
al l
åŃ Ļ
åĢĴ åħ¥
åģĩ è®¾
ä» Ķ
p t
èĲ Ħ
çļ® èĤ¤
èĳ¡ èĲĦ
Ġ it
st r
å·§ åħĭ
åĲĪ åĲĮ
ä¸Ńåįİ äººæ°ĳåħ±åĴĮåĽ½
æ® ĸ
æĢ» çļĦ
åĢ¼ å¾Ĺ
èĭ ¦
æİ ī
å¡ «
ç»Ļ å®ļçļĦ
æ ĩ
éĵ¶ è¡Į
çĶŁ åŃĺ
ç¤¾äº¤ åªĴä½ĵ
çļĦ æĥħæĦŁ
æĦŁ åıĹåĪ°
åľ° çĲĨ
éª ĳ
å¯ º
æĿ ¨
æĢ» ç»Ł
éĹ®é¢ĺ çļĦ
201 8
ou nt
æľī å¾Īå¤ļ
çģ °
æ¡ £
* *
èħ ¿
éĢĤå½ĵ çļĦ
è¯ģ æĺİ
7 0
è¯» èĢħ
åı¦ ä¸Ģ
åıĤ èĢĥ
å¼ ±
å§ ¿
å¤ªéĺ³ ç³»
éĨ Ĵ
æ¡ Į
å±ķ çİ°
ar d
çī¹ èī²
è¶³å¤Ł çļĦ
åı¯ä»¥ éĢīæĭ©
å¦ Ĩ
æĺ¯ ä¸ŃåĽ½
âĢ ĭ
åıĹ æ¬¢è¿İ
a ge
åįģ åĪĨ
åī ª
é½ Ĳ
åĨ Į
ä» °
åİŁ çĲĨ
ä¹ ı
å± ı
a k
è®² è¿°
è® ¯
æľī æĹ¶
ç ¦ģ
æ¬ £
4 5
èĴ ¸
æı ´
a x
éŁ ©
æī ¬
çĨ Ĭ
çļĦç ²
æīĢ è¿°
åİ ¨
æĶ¶ éĽĨ
ç»¼ ä¸Ĭ
æ°ĳ åĽ½
å½ ¹
Ġ J
éŀ ĭ
åĪĩ æĪĲ
æ°Ķ æ¸©
æĢ»çļĦ æĿ¥è¯´
èµ ĸ
ä¸ĭ çļĦ
p ort
æľºåĻ¨ åŃ¦ä¹ł
åŃ¦ èĢħ
èĩª ä¿¡
ä¸ī è§Ĵ
æ£ Ĵ
æĸ¯ çī¹
æµ· æĭĶ
å½ĵ åīį
å¤§ éĩıçļĦ
è§Ĵ åº¦
è¡¨ æĺİ
ä¸º ä¸»
è§Ħ æ¨¡
ç¿ °
éľĢè¦ģ èĢĥèĻĳ
èı Į
Ġ æł¹æį®
åĮ» åŃ¦
æĬ µ
________ ________
é£ŀ è¡Į
ä» ģ
è¿ĩ åº¦
èĤ ¯
åı¦ ä¸Ģä¸ª
it y
ä¹ Ļ
å¤§ éĻĨ
è¿ ģ
Ġth at
è¿ Ŀ
è´Ł éĿ¢
ç´ «
ä¸Ģ æ¬¾
Ġ å¦Ĥæŀľ
p l
Ġ on
ä»ĸ äºº
åĨĻ ä½ľ
Ġc on
Ġ çļĦ
åĿļ æĮģ
å§ ĵ
Ġ le
åĴ ¨
an ge
çļĦç ĭ
æĪ ´
âĢĭ âĢĭ
åħ·ä½ĵ çļĦ
é© »
èģ ĺ
Ġ j
9 0
ç±»åŀĭ çļĦ
æĦıåĳ³ çĿĢ
æĢģ åº¦
èħ Ĳ
åĮĹ éĥ¨
éĥ ģ
æĸ° é²ľ
éĥ ¡
ä¿Ŀ éļľ
3 1
æı Ĵ
ï¼ī ï¼ļ
æ³ķ éĻ¢
p er
æķ Į
æŀ ª
æĻ ĭ
çķ ħ
è£ ģ
æ¸¸ æ³³
ç§į æ¤į
è¯· ä½ł
å¦ Ļ
ä¹ ±
å©´ åĦ¿
å¿ ł
åı¯èĥ½ æĺ¯
p e
å©ļ ç¤¼
èĩª è¡Į
éĢ» è¾ĳ
æľī éĻĲ
è¢« ç§°ä¸º
è¿Ĳ ç®Ĺ
ç² Ĵ
è ¦
åĪ ĳ
å£ ģ
è®º æĸĩ
æ¼Ķ åĳĺ
æĭ ¼
çĶŁ å¹³
è¿Ļ ç¯ĩ
3 5
de f
æĪĳä»¬ åºĶè¯¥
çĪ¶ æ¯į
ç»Ł è®¡
åıĬ åħ¶
åĬŀ åħ¬
åĴ¨ è¯¢
åĩ ¯
æĽ¾ ç»ı
ä¸°å¯Į çļĦ
å½¼ æŃ¤
åıĺ æĪĲ
å¾Ī å¥½
Ġ }
éĢī é¡¹
å·§åħĭ åĬĽ
çĶŁæ´» ä¸Ń
çļĦä¸Ģ ç§į
çļĦç ½
æĹ¶éĹ´ åĴĮ
ä¸¾ è¡Į
åĲĮ æł·
éĺ »
éĤ® ä»¶
éģĩ åĪ°
å®ŀ æĸ½
åĩº çīĪ
æ¯ķ ä¸ļ
åĪĹ åĩº
æŃ£ å¸¸
çĲ ´
i a
å¿ ĺ
æĬĢæľ¯ çļĦ
å¤§ æ°Ķ
éĤ£ äºĽ
åįĹ éĥ¨
è½» æĿ¾
çĵ ľ
i z
èµ ¢
ul a
åıª æĺ¯
ä¼ ¸
äºĭ é¡¹
é¢ĺ çĽ®
æľ µ
èµĦ äº§
çļĦ è®¾è®¡
åĪĨ éħį
å¯¹ è±¡
è¥¿ çıŃ
æµ ®
ç»¼ä¸Ĭ æīĢè¿°
è¥¿çıŃ çīĻ
çģ Ń
201 6
éĩĳ å±ŀ
ç¦» å¼Ģ
è¦ Ĩ
ä¿Ŀ éĻ©
ç¢ İ
ä¸¤ ç§į
æīĢ åľ¨
å°¤ åħ¶
ç¬¬ ä¸Ģä¸ª
èĵĿ èī²
åħī çº¿
ä¹ Ķ
è· ¨
çĲĥ åĳĺ
æĻ¯ çĤ¹
åŃ©åŃĲ çļĦ
il l
çŃī äºİ
æľīæķĪ çļĦ
å¿ħè¦ģ çļĦ
Ġw ith
çļĦä¸Ģ éĥ¨åĪĨ
åŁº åĽł
èĦ ī
åĲ ´
æħ §
ä¸Ģ åıª
åıĳ æĮ¥
é¥® æĸĻ
åĢ º
æ¢ ģ
èµ «
åľ° çļĦ
èĩª èº«
in e
æ¯Ķ ä¾ĭ
æĪĳä»¬ å°Ĩ
åľ¨ çº¿
è¢ ĭ
å§ »
éĺ² æŃ¢
åľ¨ ä¸Ģä¸ª
æģĴ æĺŁ
èĬ Ŀ
éĺ ´
å¦ Ī
æķ ¦
å°½ åı¯èĥ½
i st
å¸ ķ
èµĦ æĸĻ
çļĦ åŁºç¡Ģ
' :
äººç±» çļĦ
åķ Ĭ
è¾ ħ
æİ¨ çĲĨ
æ°Ķ ä½ĵ
å¼º çĥĪ
æ¡Ī ä»¶
åľ Ī
é»Ħ èī²
èİ ī
åĪ Ģ
è§Ĩ è§ī
å¹¶ å°Ĩ
çĵ ¶
å¤ļ æķ°
çļĦç ¥
ä¿® æĶ¹
çĥ ¹
om e
äºĭ å®ŀ
t r
çļĦçĥ Ń
åĸľæ¬¢ çļĦ
çĽ¸åħ³ çļĦ
æĦı æĢĿ
= "
éĩį å¤į
Ġre s
an g
T he
æĬ« èĲ¨
ä¸ľ è¥¿
ä»·åĢ¼ è§Ĥ
éĢī ä¸¾
Ġ \
é ī
å® ĭ
ç»´ æĮģ
å½¢ çļĦ
çº½ çº¦
çĥ Ł
çĦ¦ èĻĳ
è·¯ çº¿
æĹ ¢
è´ ¦
201 7
åįļ çī©
çŁ ¿
åŃ Ķ
æĤ¨ éľĢè¦ģ
éī ´
T om
æĺ¯ éĿŀå¸¸
Ċ ĠĠ
æĪĲ ç»©
av a
éļı æľº
å©ļ å§»
åĲĦ ä¸ª
é¥ ª
m ent
æĶ¯ åĩº
éķ¿ çļĦ
å®¶ äºº
æķ´ æķ°
æľªæĿ¥ çļĦ
æĺŁ æľŁ
æľī çļĦ
çī© çļĦ
æİĴ æĶ¾
èľ Ĥ
è± ª
ç¼ĵ è§£
æĸ¹éĿ¢ çļĦ
åĪĻ æĺ¯
u c
åħ ¹
å½ĵ çĦ¶
äºº å£«
äºº éĻħ
èĢĮ ä¸įæĺ¯
è°ĥ åĳ³
åı¯ä»¥ æł¹æį®
âĢ ¦
å¸¦æĿ¥ äºĨ
åŃ¦ åĲį
åĲĮ å¹´
â Ħ
æĤ£ èĢħ
åıĤ æķ°
åİ ĺ
æ² ĥ
éĻ ·
ap p
åĪĹ è½¦
åĨħ å¿ĥ
æī °
Ġ âĢľ
C h
i e
æķ° ç»Ħ
æģ ¢
201 1
çķª èĮĦ
æľīè¶£ çļĦ
åĪ© æ¶¦
èģĶ çĽŁ
åĵª ä¸ª
or e
åıĳ è¡Į
å®Į æķ´
æľ ±
è®¾ æľī
å¤ º
ç±» åĪ«
ç¼º ä¹ı
éĽĨ ä¸Ń
è¿Ļ æĺ¯ä¸Ģä¸ª
éĿ¢ åĮħ
Ġp ro
çĤ İ
åľ¨ äºİ
èĽĭçĻ½ è´¨
çº ·
è¿ĲåĬ¨ åĳĺ
ç¾İä¸½ çļĦ
ç»Ļ äºĪ
åĴĮ æĸĩåĮĸ
éĶĢåĶ® é¢Ŀ
è¯Ń éŁ³
âĦ ĥ
æ¸ħ åįķ
è¯Ń æ³ķ
é¡¾ å®¢
ä½ ©
åĲ« æľī
çļĦ æ°´
æķ´ ä½ĵ
é¼ ł
å¤ı å¤©
u re
ä¸į è¶³
ç¯ ®
åĨ² çªģ
æĢ» æĺ¯
å¼ķ åĬĽ
æľº åĪ¶
è½¨ éģĵ
éļĲ ç§ģ
ä» ¿
ï¼ļ "
ä¹ĭ å¤ĸ
çº ¹
èĸ Ħ
ä¸ĵ è¾ĳ
Ġ lo
3 6
æ´ ª
éĤ »
éļı æĹ¶
æĢ§ è´¨
201 5
åĢ į
å¢ ¨
çļĦ ä¸»
å¹³æĸ¹ åįĥç±³
æĹ ¨
èĬ ¬
çļĦ åĨħå®¹
äºĴ çĽ¸
æ¼Ķ è®²
è¢« è®¤ä¸º
çº ¯
èıľ åĵģ
å®¶ æĹı
å¾ Ĵ
æĽ´ æĸ°
ç¾İ å¥½çļĦ
äºĮ åįģ
è¯· è¾ĵåħ¥
åĪ° è¾¾
er e
å®Ĺ æķĻ
æĤ ¦
ç»ĵ è®º
æłĩ å¿Ĺ
åĩı è½»
å¤© ç©º
æĺİ æĺ¾
åº Ļ
è´ ´
èº« ä»½
) ;
éĿ¢ç§¯ ä¸º
æģ¢ å¤į
æ» ¤
ç¿»è¯ĳ æĪĲ
ç§ĳåŃ¦ å®¶
æ¶ µ
Ġ ---
è¯ ¸
åģ ¶
çĻ½ èī²
< /
å¤§ çº¦
åı¯ éĿł
çļĦ è¯Ŀ
å¤§ åŀĭ
201 2
z h
å¯Ĩ çłģ
é¢Ħ éĺ²
åįļçī© é¦Ĩ
æ° ¢
âĢĿ ãĢģ
ç¼ĸåĨĻ ä¸Ģä¸ª
è¯Ń åı¥
çľĭ èµ·æĿ¥
äºİ æĺ¯
éĿ© åĳ½
éļ¾ ä»¥
æº ª
t e
æĪĺ æĸĹ
çļĦ åŁºæľ¬
Ġ ãĢĬ
èģĶ èµĽ
é£Ł çĶ¨
åĽ½ æ°ĳ
åĮ» éĻ¢
åĬł ä¸Ĭ
æľĢ å¤§çļĦ
æĿ ľ
éĩį éĩı
å¤ª ç©º
ä¸Ģ å¹´
w ord
æĭ ľ
201 4
å£ ®
çļĦ ä¸»é¢ĺ
é¡º åºı
ç¬¬ åĽĽ
æĴ Ĵ
çī©çĲĨ åŃ¦
å¦Ĥ æŃ¤
çī¹ å®ļ
æĮĩ åĩº
æĽ´ æį¢
æĪ ª
æµĭ éĩı
èĭ ¹
åħħ è¶³
201 3
å¤ĸ è§Ĥ
åĮ Ļ
å¨ ľ
Ġ V
ç« ¹
åŃ¦ä¹ł åĴĮ
åĸ Ŀ
è¿ĺ éľĢè¦ģ
ç½Ĺ æĸ¯
çº¦ ç¿°
äºº åľ¨
ç¼ĸ çłģ
åĽŀçŃĶ éĹ®é¢ĺ
è®¤ çŁ¥
éĽĨ åĽ¢
åĿ ¡
è¿ ħ
è´ ¾
èĤ¡ ç¥¨
æĬ¥ éģĵ
éĿ¢ è¯ķ
åħ· å¤ĩ
çł´ åĿı
u d
å¤± åİ»
èī¯ å¥½
3 3
éĿ¢ ä¸Ĭ
çĶ· åŃĲ
æĭ ĵ
èĥ ģ
çĪ µ
èĭ¹ æŀľ
èĢĮ æĺ¯
åº¦ çļĦ
å¦ ĩ
å®ĥ æĺ¯
i ve
æĳ Ĩ
è£ Ĥ
åĪ© äºļ
èĪª ç©º
çĮ ª
çļĦ è¿ĩç¨ĭ
æŁ¥ è¯¢
èį¯ çī©
å·¨ å¤§çļĦ
åľ¨ å®¶
è¿ «
çļĦ åİĨåı²
èµĦ éĩĳ
ä¸Ģ å®ļçļĦ
åľ° çĤ¹
èĻļ æĭŁ
åĬ¨ åĬĽ
å·´ é»İ
ç»ı èĲ¥
åĨľ ä¸ļ
ç¥ŀ ç»ı
å¾ ¡
Ġ 20
åįı è®®
% ãĢĤ
å°ı çļĦ
o c
f t
èĤĮ èĤī
ct ion
ç´ ¯
ç¡® è®¤
æ´ ¥
ä¹¦ ç±į
åĴĮ è°
a re
èĢĮ è¨Ģ
è¡£ æľį
çīĪ æľ¬
åį± éĻ©
ä¸İ åħ¶ä»ĸ
è¯Ĭ æĸŃ
ç½Ĺ é©¬
æ¶ ¯
å» ·
ä»¥ä¸ĭ åĩłä¸ª
æĤ ¬
çļĦçŁ ¥
b er
çľŁ å®ŀ
åĴĮ ç¤¾ä¼ļ
ä½¿çĶ¨ çļĦ
æ¨¡ æĭŁ
" ï¼ī
èĬĤ å¥ı
çļĦ éĢīæĭ©
éĿŀå¸¸ éĩįè¦ģ
äºĨ ä¸ĢäºĽ
ä» Ļ
çļĦ æĥħåĨµ
æĮ Ĥ
æľº åľº
çļĦç Ĭ
æļ Ĥ
æ¸ ł
200 9
è¯¦ç»Ĩ çļĦ
æŃ» äº¡
ä¸ĭ è¾ĸ
è¢ Ń
åī ©
ä¼ Ł
ä¼ł æĴŃ
èĢģ å¸Ī
çļĦ æĸ°
ç¢ į
å¨ģ èĥģ
u st
éĩį çĤ¹
åĪ ·
èİ İ
çĪ± å¥½
Ġ éĿŀå¸¸
å¯¹ æīĭ
åįı è°ĥ
åĲ¸ æĶ¶
æ¡ Ĩ
æ ª
å°± ä¼ļ
åıĺå¾Ĺ æĽ´åĬł
in put
è¥¿ äºļ
200 8
Ġt r
âĢĿãĢģ âĢľ
ä»¥ æĿ¥
åıĳ è¡¨
Ġ K
åľŁ åľ°
æł ĸ
è§£åĨ³ éĹ®é¢ĺ
ä¼ĳ æģ¯
li st
è¿Ĳ çĶ¨
åİŁ åŃĲ
æīĢæľī çļĦ
å¿ Ļ
æĪĲ å°±
ä¸Ń åħ±
æĻ® éĢļ
éĩĮ çļĦ
åĶ¯ ä¸Ģ
éľ į
åŃ¤ çĭ¬
çļĦ å®īåħ¨
Ã ©
åĳ¨ æľŁ
Ġw e
æľĢ å¥½
é£ŀ æľº
Ġ ç»ĻæĪĳ
çĶµ è¯Ŀ
ä»Ģä¹Ī æĺ¯
A l
é»ĳ èī²
å¿ĥ åĴĮ
ç£ ģ
æĻļ ä¸Ĭ
ç¼ ĺ
ç£ ¨
å¹¶ æıĲä¾Ľ
åĨĽ äºĭ
åĨĻä¸Ģ ä»½
æ© Ļ
ä¿¡ ä»°
çļĦ ä½¿çĶ¨
çļĦ é¢ľèī²
Ġ ä½¿çĶ¨
çºª å¿µ
èĢ ¶
çļĦ è´¨éĩı
å· ¡
å¸¸ å¸¸
é¦ĸ æ¬¡
åĴĮ åıĳå±ķ
å¾Ģ å¾Ģ
æĻº æħ§
Ġe x
æ¢¦ æĥ³
æ°ĳ ä¸»
è°ĥ èĬĤ
ä½¿ åħ¶
çļĦç² ¾
7 5
è¸ ª
çĽ ¾
æķĻ æİĪ
çļĦ éŁ³ä¹Ĳ
åĵģ ç§į
ç®Ģ æ´ģ
å¹¶ æ²¡æľī
ä¿ Ĺ
éĺ Ĳ
æŀĦ æĪĲ
æī ®
å°± åı¯ä»¥
çĿ¡ çľł
å¯ Ĵ
åħ¬ è·¯
çĬ ¬
æľī æľº
è®¿ éĹ®
Ġ ä¸į
Ġa re
æĴ ¤
f f
Ġ1 00
å°½ éĩı
} -
éĶ ¦
éĩĬ æĶ¾
çİ »
çŁ¥ åĲį
éĺ¿ å°Ķ
å¾Ĺ åĪ°äºĨ
èĮ ¨
ac e
å¥ ĭ
x x
éĵ ľ
éĵ º
çŁ ©
ç§¯æŀģ çļĦ
æĽ´ ä¸º
im e
çļĦ ä½įç½®
éĹ ª
æ³ ¥
è¦ģ æ³¨æĦı
å»º éĢł
è¾ĥ ä¸º
æīĵ å¼Ģ
æµª æ¼«
æ£ ĭ
çļĦéĩįè¦ģ æĢ§
æĳ ĩ
åĪ¶ åº¦
åį³ ä½¿
at a
ä¼ĺ æĥł
åĲ¬ èµ·æĿ¥
è§Ħ èĮĥ
å¹ ¼
Ġ ä½ľä¸º
è ²
19 0
4 8
æİ¨ åĩº
çĶµ æ±ł
çĥ¹ é¥ª
å¤Ħ äºİ
éļ ¶
ä¸¾ åĬŀ
éĢ Ĭ
æ¯ ģ
en ce
æįŁ å¤±
æİĴ åĪĹ
ç¾ Ĭ
Ġc om
å±ħ ä½ı
ç¤º ä¾ĭ
ä¼ł éĢĴ
æĢ§ æł¼
é© ±
ä¼ į
éĶħ ä¸Ń
Ġw h
i ght
æĺ¯ä¸Ģ ä½į
çĶŁ ç´ł
æĦŁ åĴĮ
äººä»¬ çļĦ
æīĭ æ®µ
ä»¥ä¸ĭ æĺ¯ä¸Ģä¸ª
el l
è§Ħ å¾ĭ
çĽ Ĩ
æ¯į äº²
æĬķ åħ¥
ç½ ļ
çĥ¤ ç®±
åľ¨ æŃ¤
éĩį è§Ĩ
ç§ Ĵ
Ġm e
Â °
åħĭ æĸ¯
è¦Ĩ çĽĸ
åĵ º
åĽłä¸º å®ĥ
è½» è½»
ç ŀ
è½¬ åĮĸ
ç¢ Ĺ
å¥³ åŃĲ
çĶ³ è¯·
çĶŁ æ¶¯
æķ° ä¸º
èĩªçĦ¶ è¯Ńè¨Ģ
åįģ äºĮ
åľ¨ è¿Ļ
Ġ åĴĮ
è· ĥ
é«ĺ åħ´
æıĲ ç¤º
çĲĨè§£ åĴĮ
çļĦ äº§åĵģ
è§Ĩ ä¸º
æĶ¾ ç½®
m a
Ġ éĤ£
ä¸Ĭ è¿°
å® ¿
æ³ ī
æ°§ æ°Ķ
æ¥ ļ
åį §
èĥ¡ æ¤Ĵ
äººå·¥æĻºèĥ½ æĬĢæľ¯
èµ¢ å¾Ĺ
ä¸Ģä¸ª äºº
åİĺ ç±³
èĻ İ
ä¸Ģ æĿ¡
XX X
Ġ1 2
è´ ·
æ¬£ èµı
Ġa s
æº ¶
çĥŃ å¸¦
çļ Ĩ
æĴ ŀ
è¯į æ±ĩ
çļĦ åħ³ç³»
åĲĪ çī©
è®¾ ç«ĭ
Ġc an
èģĮ åľº
1 000
æ°ĳ æĹı
çļĦçľ Ł
ç¾ ½
èĲ Ŀ
äºļ æ´²
çļĦ åİŁåĽł
æĽ´ å®¹æĺĵ
Ġ an
ç© Ĩ
å®¶ éķ¿
çļĦ ç»ĵæŀľ
ä¸Ģ ç»Ħ
èŃ¦ å¯Ł
- {
æŁĲ ä¸ª
èĭ Ĺ
çļĦç¤¾ ä¼ļ
åĪ© çĽĬ
å®ŀ çĶ¨
æİ¥ è§¦
èĬ± åĽŃ
æĪ· å¤ĸ
åĸ ·
çīĽ èĤī
çĮ İ
å·¥ èīº
ä¸» å¸Ń
æ´ĭ èĳ±
æķ ¢
ä¸» æķĻ
æĸĩ åŃĹ
çļĦ è¡Įä¸º
n e
å¿ ½
å¹´ èĩ³
éŁ ¦
äºĨ è®¸å¤ļ
çļĦ æĢ»
çĶµ åĻ¨
åĴĮ æľįåĬ¡
åľº æīĢ
æł¼ åħ°
æľ¬ ä¹¦
åİŁ åĪĻ
æ¦ Ħ
è¾ Ĳ
ä¸Ģ å®¶
æ°´ ä¸Ń
éĹ ²
æĺ¯ æľĢ
ĠT he
åĴĮè° Ĳ
çĶ ĺ
éĤ Ģ
æĥ³ è±¡
æ¢ °
Ġ Y
åĸľ å¥½
æ¸ł éģĵ
åħ¨ éĿ¢
çĶ· æĢ§
æķĻ åŃ¦
æĬ ±
æī £
% ï¼Į
èĥ½åĬĽ åĴĮ
-------- --------
ï¼Į ï¼īï¼Į
æ°´ åĪĨ
éĽ ķ
æĦŁ æŁĵ
ï¼Į ãĢĬ
ä¹ĭ å¤Ħ
æĹ© æľŁ
æİĴ åĲį
è¿Ļ é¦ĸ
r om
å®¶ çļĦ
åıª èĥ½
åĵº ä¹³
t er
éĢĤ éĩıçļĦ
åĮĸ åĴĮ
t ext
è¿Ĳ èĲ¥
åľ° éľĩ
å¤± è´¥
æ® ¿
èĩªè¡Į è½¦
çļĦ çĽ®æłĩ
åĸ Ĥ
ä¼ļ åľ¨
éĥ İ
ä¸įæĸŃ åľ°
çķĻ ä¸ĭ
åı ¬
äº§ ä¸ļ
è² Į
è¿Ļæł· çļĦ
Ġ or
è¿ĩ äºİ
åĮº çļĦ
D NA
Ġ è¿Ļä¸ª
æ¤ ħ
å®Į åĸĦ
å±ķ å¼Ģ
æŁ ľ
çĴ ĥ
çº¦ ä¸º
æĪĳ è®¤ä¸º
çĪ± çļĦ
æĦŁ æĥħ
æĺ Į
åįı ä½ľ
äººåı£ å¯Ĩåº¦
çŃī æĸ¹å¼ı
æŀ Ŀ
Ġres ult
éĥ¨ çĶµå½±
æµ· åĨĽ
èµ µ
åģ¥åº· çļĦ
å¹² åĩĢ
å¸Ŀ åĽ½
Ġ al
ç¢ ĳ
åĲ Ľ
çĲĨ å¿µ
èİ·å¾Ĺ äºĨ
form ula
æĺ¯ å¤ļå°ĳ
æ® ĭ
} {
çĬ¯ ç½ª
æħ¢ æħ¢
çģµ æ´»
è° ĭ
200 7
è®° å¿Ĩ
è¡ĮæĶ¿ åĮº
Ċ ĉ
éļı åĲİ
3 00
è´ ¸
éĩĳ é¢Ŀ
è¿Ľè¡Į äºĨ
æľīæķĪ åľ°
çĽ¸ å½ĵ
æľį è£ħ
æ© Ħ
æī İ
æĸĩåĮĸ åĴĮ
çĶŁåĳ½ çļĦ
é¸ £
è¯ķ åĽ¾
å°º å¯¸
æĶ¹ ä¸º
æĺ Ĩ
ä¸ĭ éĻį
çĩ ¥
çļĦ çī¹çĤ¹
Ġm y
æ©Ħ æ¦Ħ
åıĳ åĬ¨
æ¸ħ æ´Ĺ
è¾ Ľ
åı¯æĮģç»Ń åıĳå±ķ
çľģ ä»½
a ve
å¹¿ ä¸ľ
ç¼ĸ è¾ĳ
èİ ĵ
è½¬æį¢ ä¸º
å¤įæĿĤ çļĦ
æ» ļ
çĮ ľ
é¸¡ èĤī
ç¾İ å¥½
èµĽ äºĭ
åĪº æ¿Ģ
æĳ ĺ
Ġh e
a st
çģ¾ å®³
è¿Ļ å°Ĩ
çļĦ è¿ĩç¨ĭä¸Ń
è§Ĩ é¢ĳ
åĨĴ éĻ©
æĸ ľ
åľ°çĲĥ çļĦ
éĻ ¶
è¾ ŀ
åī ²
éĢīæĭ© éĢĤåĲĪ
ç»´ çĶŁç´ł
è° ģ
éĥ¨ éĺŁ
çļĦçŁ¥ è¯Ĩ
æĺ Ĥ
åľº åĲĪ
è¿ħ éĢŁ
ä¸Ģ å¤©
èģĬ å¤©
A P
æıĲä¾Ľ ä¸ĢäºĽ
ä¾Ľ åºĶ
éģµ å®Ī
åŁİå¸Ĥ çļĦ
ĠÃ Ĺ
æµ ħ
æ³ķ è§Ħ
Ġ k
å¡ĳ æĸĻ
åİ¨ æĪ¿
çİ° åľº
éĥ ĳ
é¦ ¨
æ¨ ª
åŃ¦ å®¶
æ¯ı æ¬¡
æ· ĭ
ä½ĵ ç³»
è¿Ĳ è¾ĵ
ou nd
åį« æĺŁ
æĸ° åŀĭ
éĿ¢ ç²ī
äºĶ ä¸ª
çº ł
f rac
åĨĽ éĺŁ
åħį çĸ«
è¾ĥ é«ĺ
èĪ į
åıį æĺł
å¥ ī
çŃī é¢ĨåŁŁ
æķ°æį® åĪĨæŀĲ
å¤© ä½ĵ
èĤ ´
è¿Ļ æĺ¯ä¸Ģ
åħ Ķ
äºĭ ä¸ļ
n ame
èıľ åįķ
æĮĩ ç¤º
çĿ Ľ
èĩ³ åħ³
èĦ ¸
ä¸į åĨį
çİ¯å¢ĥ çļĦ
ä¸ĬéĿ¢ çļĦéĹ®é¢ĺ
ä¿¡ åı·
å£ ³
åĽŀçŃĶ ä¸ĬéĿ¢çļĦéĹ®é¢ĺ
å¤§ å¤ļæķ°
åĬł çĥŃ
ä¸» è§Ĵ
ä¸ĸçķĮ ä¸ĬæľĢ
çĽ Ĺ
æĻ ¶
æĪĸ åħ¶ä»ĸ
èĤ ª
èĦĤ èĤª
äºī è®®
æŁ ł
200 6
ä¸į å°ĳ
çĪ ½
åį ľ
p h
æĹ ģ
æĿĲ è´¨
åĮº ä¸º
è¡¨çİ° åĩº
çļĦç½ ĳ
æ£Ģ æµĭ
o g
Ġ é¦ĸåħĪ
æĭį æĳĦ
åľ°åĮº çļĦ
ä¸Ģ éģĵ
c l
åħ ģ
è¾£ æ¤Ĵ
èĥľ åĪ©
åĲĪ å¹¶
ä½Ĩ åľ¨
åĪĽå»º ä¸Ģä¸ª
èĨ ľ
çĹħ æ¯Ĵ
åľ° éĿ¢
æŁ¥ çľĭ
è®© ä½ł
æ½ľ åľ¨
åħ³éĶ® è¯į
ç ĺ
æĤ ī
ä¸ĭéĿ¢ æĺ¯
çŃī å¾ħ
èĩ £
äººéĻħ åħ³ç³»
å®ĥ åı¯ä»¥
åĽĽ ä¸ª
æµ Ļ
5 5
çİ» çĴĥ
æ¦ ľ
æ²³ æµģ
æĦ¿ æĦı
Ġ ä½ł
ä½ĵ éĩį
Ġ ----
Ġ en
è¢« åĳĬ
æħ Ī
åħħæ»¡ äºĨ
è¿Ļ æ¬¡
d u
æ¼ ı
ç¨ į
çļĦ æĥħåĨµä¸ĭ
èģ ª
ç¨ ¿
å¤§ èĩªçĦ¶
é«ĺ çº§
åħ¨ éĥ¨
é«ĺ éĢŁ
ç»ı çĲĨ
åıį å¯¹
çľŁ çļĦ
èĦ ı
ä¸» æĮģ
ç¿ ¼
æī® æ¼Ķ
ä¼łç»Ł çļĦ
åĲ ¹
æĺĵ äºİ
ä»¥ä¸ĭ æĺ¯ä¸Ģ
æľī è®¸å¤ļ
æª ¬
Ġyou r
çĹĩ çĬ¶
çĳ Ł
è±¡ å¾ģ
ä¸Ń åŃ¦
å¾Ĺ åĩº
éĢı æĺİ
J ava
S E
æ¯ı å¹´
æŁł æª¬
æĭ Ĩ
æķ°æį® éĽĨ
æī¹ è¯Ħ
åŁº éĩĳ
èµ ĭ
æĳĦ åħ¥
æ¼Ķ åĩº
æµ ´
a th
åĬĽ åŃ¦
ä¼ Ĳ
åħ Ħ
çļĦ åīį
ä¸» ä»»
Ġp l
æı Ń
æ®µ èĲ½
è¿Ļç¯ĩ æĸĩç«ł
åĴĮ å¹³
çĶ¨ éĢĶ
æ¬ ²
åľ° ä½į
é¸ Ń
å¤ļ æ¬¡
ç¬¬äºĮ ä¸ª
çĪ ¬
åĴĮ æĶ¯æĮģ
ä¼¦ æķ¦
å½¢ æĢģ
ä¸¥ æł¼
åĮº åĿĹ
b r
åĽº å®ļ
åıĳ æĺİ
äº§çĶŁ äºĨ
å¥³ åŃ©
æ³¨æĦı äºĭé¡¹
Ġ éĤ£ä¹Ī
æķ´ çĲĨ
ç¾İåĳ³ çļĦ
èĤĮ èĤ¤
åĪ° çļĦ
el lo
èĥ½ åĲ¦
çİ° éĩĳ
éľ ľ
Ġs e
æĹ¶ çļĦ
åĨ³ èµĽ
ä¸ĩ åħĥ
ä¸» äºº
éĤ£ éĩĮ
çŃī éĹ®é¢ĺ
èĥ ¸
ä¼¤ å®³
å¤ĩ çĶ¨
çļĦç¼ ĸ
æĸĩ çī©
r y
ĊĠĠĠĠĠĠĠĠ ĠĠĠĠĠĠĠ
æĢ ª
åĽŀ åĪ°
åĪ ¸
3 2
æĶ¶ çĽĬ
æľĢ åĪĿ
èģĮ ä½į
3 4
éĢĤ çĶ¨äºİ
3 8
æŁ ±
åĮĸ åĲĪçī©
å¼ ¦
çļĦ å¥½
æİ¢ éĻ©
æī© å¤§
ä¸Ńåįİ æ°ĳåĽ½
a ke
æ¯ı ä¸Ģä¸ª
å®ļ å¾ĭ
åı¯ä»¥ å°Ĩ
æł· çļĦ
èĥ ¶
åħĪ çĶŁ
å§¿ åĬ¿
å¸ĥ å±Ģ
å±ı å¹ķ
æŀ ļ
ä¸Ģ åľº
åħ¬ ä¼Ĺ
åĨ³ äºİ
è¡Ĺ éģĵ
æĢ§ åĪ«
äºº ä½ĵ
æ¡ ĥ
éĶ ģ
ä¹Ł éľĢè¦ģ
Ġi m
an ce
( '
æµ ĩ
çļĦçĬ ¶
éģµ å¾ª
Ľ çĽ¾
ĠC h
çĤ ®
è¡Į é©¶
çº ²
æıĲä¾Ľ çļĦ
å¹´ æĿ¥
ä¸¤ äºº
åģ¥åº· åĴĮ
çĪ¶ äº²
or ld
åıĸ åĨ³äºİ
ä»ĸä»¬ åľ¨
æĮĩ æĮ¥
ä½ĵ çİ°
æĻ® éģį
æĵ ¦
å¹² çĩ¥
çªģ çĦ¶
æ¬¡ æķ°
ä¼ĺç§Ģ çļĦ
å°ı åŀĭ
le s
é½ ¿
æĤ ²
æłĸ æģ¯
çļĦ åŁİå¸Ĥ
èĬ Ĵ
ä¸į çŁ¥éģĵ
200 5
èĳ £
ä¹¦ è®°
èĤ º
å¿ĥ æĢģ
Ġ un
çĶ¨ åĵģ
äºĭ çī©
å« Į
åı° åĮĹ
Ġ æĤ¨
å¤© çĦ¶
æĺ¯ ä½įäºİ
ä¸º æĪĳ
6 5
åģļ å¥½
æľī ä¸ĢäºĽ
æ¸© é¦¨
éŃĶ æ³ķ
åĮĸ å¦Ĩ
æĶ¾ å¼ĥ
æ¸¸ å®¢
åĲ¦ åĪĻ
6 7
æľ¬ èº«
Ġ3 0
å¹¿ å·ŀ
èĢ Ģ
Ġr ange
å§ĭ ç»Ī
çļĦ äºĭæĥħ
åħ¶ ä¸ŃçļĦ
è®¤ çľŁ
ç»Ļ ä½ł
Ġ us
ä¸Ģ å¼ł
æīĵ åį°
å®ĺ æĸ¹
æ°´ çļĦ
ro w
ar y
åħ¬ å¼Ģ
äºĭ æķħ
éħį åĲĪ
åĪ Ĭ
åľ¨ ä¸ŃåĽ½
æĮ ¯
åºĶçĶ¨ äºİ
çļĦ åıĺåĮĸ
åĪĿ åŃ¦èĢħ
ä½ľ å®¶
æİ ĺ
è¾ĵåĩº ç»ĵæŀľ
éĻ µ
æ¦Ĥ çİĩ
åĲ« ä¹ī
æĸ¯ åĿ¦
c on
åºı åĪĹ
èµ ¤
èº« å¿ĥ
åĩ Ŀ
Ġel se
éļľ ç¢į
å¹´ åº¦
çĽ¸ æ¯Ķ
çİ¯å¢ĥ ä¿ĿæĬ¤
å¾ĭ å¸Ī
æĭ Ĵ
éĻ ª
åıĳ åĩº
å¾ Ĳ
ï¼ į
éĺ Ķ
8 8
æ°¸ è¿ľ
éĢ Ŀ
202 3
çŃī åĽłç´ł
ä¹Ł åľ¨
å¤§ éĥ¨åĪĨ
æµª è´¹
çİ© åħ·
åŃĲ åĴĮ
çļĦç Ĺ
å´ ĩ
Ġ U
as e
çħ İ
å±± èĦī
åī§ æĥħ
çĶŁ æĹ¥
æľĢ éĩįè¦ģçļĦ
Ġ ä»İ
è¾¾ æĪĲ
å¢ ĵ
éľĢæ±Ĥ åĴĮ
ç¿» çĤĴ
u p
i es
at or
æĸĩ æĺİ
è±Ĩ èħĲ
åįı ä¼ļ
çļĦ çĶµå½±
Ġs elf
çĩ ķ
on g
è¿Ļ æ¬¾
3 7
ä¹Ł å¾Ī
æ¶Ī èĢĹ
æ¯ĶèµĽ ä¸Ń
åŃ©åŃĲ ä»¬
ä¼ Ļ
çļĦä¸Ģä¸ª å¸Ĥéķĩ
m y
åı¤ åħ¸
æľĢ å¥½çļĦ
åįı åĬ©
çº ¤
æµ· æ»©
èĬ ³
æĿ¥ çľĭ
éĥ½ åı¯ä»¥
åħ¬åħ± äº¤éĢļ
å¼º å¤§çļĦ
æľª çŁ¥
åĿ ĳ
ĠT h
ä¸ī å¹´
çĽ Ī
ä¿Ŀ åģ¥
i b
ac h
å» ī
çī¹ å®ļçļĦ
é¸Ł ç±»
æŁ ı
æıĲ éĨĴ
èĩªçĦ¶è¯Ńè¨Ģ å¤ĦçĲĨ
èħ Ĭ
éŃ ħ
å¼ķ åıĳ
è®® åĳĺ
æĹ¶ åĢĻ
åı Ļ
çļĦ æĦŁè§ī
åĲĮ æĦı
ĠS t
èĢĮ åľ¨
çļĦ èĥ½åĬĽ
åĬł æĭ¿
å® ª
ic k
éĨ ĭ
åĴĮ å»ºè®®
èı ĩ
æĬĢæľ¯ åĴĮ
ä¸ľ åĮĹ
æİ¥ è¿ĳ
æ¡ ĳ
ä¸ĭ åįĪ
æĦī å¿«
çĭ ®
åľ° éĵģ
æĭĽ èģĺ
ä¿® å¤į
æĿ¥ å®ŀçİ°
æĹ ¦
åĲĮ äºĭ
æ³ Ĭ
o de
çł ĸ
èĥ İ
çĸ ²
è½ ´
ä¼ĺ è´¨
ç¬¦ åı·
çļĦ é£İéĻ©
200 1
Ġ1 5
æĹ¨ åľ¨
å¥ĸ åĬ±
èıľ èĤ´
ä¼ļ å¯¼èĩ´
å¼ķ å¯¼
èĬĤ çĤ¹
å½ĵåľ° çļĦ
çļĦç Ŀ
åħ± äº§
ç´§ å¼ł
æķ° åĪĹ
s o
å®ŀéĻħ ä¸Ĭ
è®® ä¼ļ
æĺ¯ä¸Ģ åĲį
èĩª æ²»
ä¿Ħ ç½Ĺæĸ¯
æ» ¨
çĶ¨æĪ· çļĦ
æĦī æĤ¦
ä¸ĵ æ³¨
éħ ª
æīĵ éĢł
æĹł éĻĲ
è¿ Ī
ç¼ĸçłģ ä¸º
æ¤įçī© çļĦ
å¼Ĥ å¸¸
æŃĮ è¯į
è° Ĭ
æĮĩ æłĩ
è®¾ å®ļ
æ¼ Ĥ
æĺŁ çĲĥ
æµ ¸
æĲħæĭĮ åĿĩåĮĢ
åģļ æ³ķ
äºº æķ°
ac t
è¿Ľè¡Į åĪĨç±»
Â ¥
èĻ ¾
å°Ķ æĸ¯
æĢ» ä½ĵ
åľ¨ åĮ»çĸĹ
çļĦ ä»·æł¼
èµ· æºĲ
I N
è¢«è®¤ä¸º æĺ¯
é£İ æĻ¯
å° ĸ
å° ĺ
åĵºä¹³ åĬ¨çī©
è¿Ļ ä¸¤ä¸ª
æł¼ å¼ı
åı¯ä»¥ æıĲé«ĺ
ä¿Ŀ çķĻ
æĵ İ
æµĻ æ±Ł
ä¾Ŀ èµĸ
æĺİ çĻ½
å¾Ī å¤§çļĦ
åĮºåĿĹ éĵ¾
ä¹ĭéĹ´çļĦ åħ³ç³»
6 4
è´¢ äº§
æŃĮ æīĭ
éķ¿ æĹ¶éĹ´
ç¾İ æ´²
æĪĲ æŀľ
å¹´ éĹ´
å°Ĩ åĨĽ
éªĮ è¯ģ
ä¸Ģ ç³»åĪĹ
åħģ è®¸
åĽĽ å·Ŀ
çĽĳ æµĭ
ç¬¬ä¸Ģ æ¬¡
" :
æ¶īåıĬ åĪ°
æķ°æį® çļĦ
çī¹ æĢ§
è®¾è®¡ ä¸Ģä¸ª
äºĮ æ°§åĮĸ
é¢ĳ çİĩ
æīĢéľĢ çļĦ
æĴ ĳ
çļĦäºº åı£
çļĦç¥ ŀ
æĺ¯ æĪĳä»¬
æĺ¯åĲ¦ æľī
å¯¼ æ¼Ķ
åĭ ¤
å¼ ¯
èģĶ éĤ¦
èĩ Ĥ
åķĨ åĬ¡
r a
éĢīæĭ© åĲĪéĢĤçļĦ
åį° è±¡
å¼ķ æĵİ
æ²Ļ åıĳ
è·ĳ æŃ¥
å®ļ ä½į
é£İ æļ´
lo g
æĶ¯æĮģ åĴĮ
| --------
åĵª éĩĮ
e ct
æĿĥ åĪ©
åĪ¶ æĪĲ
åľ¨ è¿ĻéĩĮ
å¤ĸ çļĦ
éĤĢ è¯·
æ¯Ķ äºļ
æĲ º
èĤ ł
ä¸ª æľĪ
å¼º åº¦
å¿ĥ æĥħ
c om
éĿĴ å¹´
åĩ ¡
å±± ä¸ľ
å® ħ
Ġs h
å¤ª å¹³
åı ł
ä¾¿ åĪ©
ï¼Ł âĢĿ
å¥ ĳ
äºĭ åĬ¡
è´¸ æĺĵ
å¦ ¹
åħĭ æľį
åĭĩ æ°Ķ
æĩ Ĥ
å°Ĭ æķ¬
ä¸Ģ èĩ´
æĶ¿æ²» äººçī©
æľī åĵªäºĽ
e ar
çļĦç©º éĹ´
åģľ æŃ¢
å¿ĥ çģµ
ç§ĳ å¹»
æĢ ķ
æĪĸ æĺ¯
æĪĲåĬŁ çļĦ
åıĹæ¬¢è¿İ çļĦ
åī ĳ
åĴĮ æ°´
åį ĵ
å¼Ģ å±ķ
åĨ ¥
å¸¦ æľī
åĬł éĢŁ
ic h
åĵģ å°Ŀ
èŀ º
å¯ ĵ
å² Ĺ
åı¯èĥ½ çļĦ
ä½¿çĶ¨ äºĨ
åĬĽ äºİ
é¢Ħ æĬ¥
ç³ Ĭ
ar k
æĦŁ åħ´è¶£
e st
çĶµè§Ĩ åī§
éĢļå¸¸ æĺ¯
å¯¿ åĳ½
en s
è¯į è¯Ń
æŁ¥ æī¾
åł µ
èĬĤ æĹ¥
çļĦ æķ°éĩı
åįĹ æŀģ
B ob
Ġa d
èĸ ª
åħ± äº«
å¿ĥçĲĨ åŃ¦
èĲ¥ éĢł
çĤ ī
ï¼ļ ")
çºª å½ķ
åıĸ åĩº
æĪĳ å¾Ī
Ġ --------
æ¸ ¡
åĳ½ åĲį
åĪĨ æĪĲ
æŃ£ éĿ¢
æķĪçİĩ åĴĮ
il y
è¯· åĳĬè¯īæĪĳ
200 4
æĹ¶ åĪ»
Ġ â
åľº åľ°
æī¿ æĭħ
æİ¥ å£¤
æĪ Ī
èī ĩ
çľŁæŃ£ çļĦ
3 9
Ġ/ /
çĶµ åĬ¨
èģª æĺİ
äº¤ äºĴ
çĶŁæ´» æĸ¹å¼ı
åı¯ä»¥å¸®åĬ© ä½ł
æĽ´ æľī
éĿŀ æ´²
é£Ł è°±
å½± çīĩ
ä¼¼ ä¹İ
æĹĭ è½¬
å¤ªéĺ³ èĥ½
Ġ åı¯ä»¥
æĹ¥ åľ¨
å¾Ĺ åĪĨ
è£ħ å¤ĩ
èīºæľ¯ å®¶
è¿ŀ ç»Ń
åĦ¿ åŃĲ
ç¾¤ ä½ĵ
æĬ ĳ
æľĢ ä½İ
å¹¶ ä¸įæĺ¯
è´· æ¬¾
éĢī æīĭ
æīĢ å±ŀ
å®¶åºŃ æĪĲåĳĺ
ç³»ç»Ł çļĦ
çº¿ è·¯
æľĪ çĲĥ
ç»´ ä¿®
æŃ¦ åĻ¨
ä¸Ĭ åįĩ
éľĢè¦ģ åľ¨
i p
å¯¹ æ¯Ķ
çļĦ å¤©æ°Ķ
æī© å±ķ
è®¢ åįķ
åĩł ä¹İ
é£ ĺ
çĶ¨æĪ· è¾ĵåħ¥
å¯¹æĸ¹ çļĦ
å° ¿
ä¸Ĭ ä¸ĭ
çªģ åĩº
çļĦçĿ ¡
æŃ¤ æĹ¶
æ¢ ¯
çŃ ¹
æĻ ´
çĲĨ è´¢
åŃ¦ æľ¯
Ġæĺ¯ çļĦ
åĬłæĭ¿ å¤§
èĮĥåĽ´ åĨħ
âĢ ĵ
âĢĿ ï¼Ī
å¹³æĸ¹ ç±³
åĩº è¡Į
åİ» ä¸ĸ
éĢı è¿ĩ
åıª è¦ģ
æĺİ äº®
å¥¥ è¿Ĳ
æĬ ¹
èĿ ¶
éĺĲ è¿°
æ©Ħæ¦Ħ æ²¹
and om
æ¿Ģ åĬ±
å¢ĥ åĨħ
çļĦçĭ ¬
åĿ Ľ
ä¹ī è¯į
è¯Ŀ é¢ĺ
ç¤¾ä¼ļ çļĦ
åĪĨå¸ĥ äºİ
åĽ¾ ä¹¦
ä¼ł è¾¾
i de
èĩª ä¸»
çº¿ çļĦ
è§£ æĶ¾
ä¸ĵ å®¶
åĲ¬ è¯´
æ°´ åĴĮ
4 00
èĢĥ è¯ķ
é» Ľ
éĥ¨ éķ¿
è¯Ńè¨Ģ æ¨¡åŀĭ
èħ ¹
å¼º çļĦ
Ġ åĬłåħ¥
æĸ ĳ
åĲĪ æ³ķ
ä¸ī ç§į
an a
åı¯èĥ½ å¯¼èĩ´
å¹¿ åľº
ç´§ æĢ¥
äºº åĴĮ
æĪĺ çķ¥
æ¼Ķ åĶ±
æľŁ æľĽ
åħ ½
æĦıå¤§åĪ© éĿ¢
åĵģçīĮ çļĦ
Ġ 50
åĴĮ ä¸į
Ġb y
èŀį åĲĪ
åģ ¿
éģį åİĨ
äº§çĶŁ çļĦ
å°ĳ å¹´
æıı ç»ĺ
åĴĮ æĮĳæĪĺ
Ġ ä»¥ä¸ĭæĺ¯
oo k
åºĶè¯¥ æĺ¯
æĻ Ĵ
è´ «
çĶŁæĪĲ ä¸Ģä»½
åĴ ª
è¢ ĸ
è¿Ľ æĶ»
æĿ¥ çļĦ
åİŁ å§ĭ
åĮº åĪ«
æĬĢèĥ½ åĴĮ
Ġ è°¢è°¢
ä¸įä»ħ ä»ħ
èĬĿ å£«
æĤ ł
æ¼ ł
ab le
åĪ ł
è¿Ļ æĦıåĳ³çĿĢ
æľīéĻĲ åħ¬åı¸
æĽ´å¥½åľ° çĲĨè§£
ä¸Ģ é¡¹
æ¶Ī æģ¯
åĪĽ ä¸ļ
å¿Ĺ æĦ¿
æĺ¯ åĽłä¸º
åĽ½ åĨħ
å·² çŁ¥
o od
åŀ Ĥ
éľĢè¦ģæ³¨æĦı çļĦæĺ¯
åĩ ¤
ä¸ľ åįĹ
ç¿ ħ
åįĹ äº¬
è®© äººä»¬
èĦ Ĩ
èĭ± éĽĦ
éŃ ı
çĽ¸ åıį
ä¸º ä½ł
ç¬¬ äºĶ
4 4
æĮĩ å®ļ
ç¯® çĲĥ
æĬ ļ
ä¹Ł å°±æĺ¯
ç¼ĸ åĨĻä¸Ģä»½
e p
ç®¡ è¾ĸ
éħį æĸĻ
æµĵ éĥģ
æ» ´
è¿ĲåĬ¨ ä¼ļ
ãĢ Ģ
çĵ £
å¤§ åĮº
èº«ä½ĵ çļĦ
ç»ĦæĪĲ çļĦ
åľ° ä¸ĭ
åŁºæľ¬ çļĦ
éľĢè¦ģ è¿Ľè¡Į
å°ı ç»Ħ
$ $
ä»ª å¼ı
åĴĮ æĥħæĦŁ
ç® Ń
æľŁ å¾ħ
åı¯ä»¥ è¢«
è£ ¤
çļĦ åĢ¼
ä¸Ń æľī
åħ¬ æŃ£
åĲĪçĲĨ çļĦ
çļĦçĬ¶ æĢģ
å¤§ ä¼ļ
åŀ «
é¢ĨåŁŁ çļĦ
å¹³åĿĩ åĢ¼
çļĦçĪ± æĥħ
n g
ç§ ¦
ç»ĦæĪĲ éĥ¨åĪĨ
æľº æ¢°
æĭī æĸ¯
ä¸ľ éĥ¨
çº¤ ç»´
ĠĠĠĠĠĠĠĠ ĠĠĠ
äºĮæ°§åĮĸ ç¢³
èĽ ĩ
æľ¬ è´¨
ä»¥ åħį
åĽ¢éĺŁ æĪĲåĳĺ
ä¸Ģ åĪĩ
å¹¶ äºİ
çļĦçĿ¡ çľł
è¾ĥ ä½İ
ä¿Ŀ åħ»
çļĦç¨ ĭ
Ġ >
è¿Ļ åı¥è¯Ŀ
æĿ¥ åĪ°
æ²Ļ æĭī
åĢ¾ åĲ¬
åħ³ éĹŃ
è° ĵ
æĻºèĥ½ å®¶å±ħ
èº«ä½ĵ åģ¥åº·
å·´ å£«
ä½ĵ ç§¯
åı ¹
èĲĿ åįľ
å¿ §
çĽ Ĵ
) ï¼Į
ç¡® å®ŀ
åıĭ è°Ĭ
æ¼Ķ å¥ı
çĬ ¹
çĭĹ çĭĹ
y st
çĽĲ åĴĮ
çİĽ ä¸½
ä¸º äºº
çļĦå¤§ å°ı
æł¹æį® èĩªå·±çļĦ
è ĺ
æĽ´å¥½åľ° äºĨè§£
çĶ» éĿ¢
g r
æľĢ æĸ°
åıĸ ä»£
åŁİ åĮº
ä»Ķ ç»Ĩ
åľ° ä¸Ĭ
æĻ® æŁ¥
æµģ åĬ¨
ç¥ŀç§ĺ çļĦ
lo at
é¼ »
çĽ® çļĦåľ°
éŁ© åĽ½
ä½Ľ æķĻ
åĽŀ å¿Ĩ
æķĻ åłĤ
çļĦçŁ Ń
L E
æ°Ķ æģ¯
èµĽ åŃ£
çļĦ ä¸ĢäºĽ
èŃ¦ æĸ¹
æıĲä¾Ľ ä¸Ģä¸ª
é«ĺ è´¨éĩı
Ġn e
g et
è¯¢ éĹ®
å½ »
èĥ½å¤Ł åľ¨
] ,
æŀĦ å»º
ç¬¬ åįģ
å¹¶ ä¸º
ç©¿ çĿĢ
åı¯ä»¥ çĶ¨
Ġst r
æĢ» äººåı£
c ri
å¹¿ æĴŃ
çļĦ é¦ĸ
æŁĶ è½¯
é¢ ģ
å§ĵ åĲį
ï¼ļ ãĢĮ
è¯¥ åĽ½
Ġ ä¸Ń
å¾ ½
åı« åģļ
å±ŀ æĢ§
å¹¶ å°Ĩåħ¶
åİ ¦
åįĩ çº§
ãĢĤ "
Ġ è®¡ç®Ĺ
é ¬
è° ¨
åĽ½ çİĭ
çģ« å±±
èĩªåĬ¨ åĮĸ
åı¤ èĢģ
æħ İ
è¥¿ éĥ¨
Ġ2 5
ä¸ §
6 6
i al
ĠĠĠĠĠĠĠĠĠĠĠĠĠĠĠĠ ĠĠĠĠĠĠĠĠĠĠĠĠĠĠĠĠ
åĽ¢ ä½ĵ
å½ĵ ä¸Ń
åı ī
çķĮ éĿ¢
åĳĪçİ° åĩº
åĩ» è´¥
èĪĴéĢĤ çļĦ
è®² è§£
im port
15 0
çĪĨ åıĳ
æ· Ģ
æłĩ é¢ĺ
æĸĩæľ¬ åĨħå®¹
åĽ¾ æ¡Ī
ä»ĸ äººçļĦ
åĽŀ æĶ¶
l l
åĬŀåħ¬ å®¤
æĬ ĵ
èµ ł
å¥¶ æ²¹
è¾ ©
æĭĴ ç»Ŀ
æĴŃ æĶ¾
å°ı çº¢
çģ« æĺŁ
ri ght
å¯Į æľī
åĨ¬ åŃ£
ä¼ ı
lo w
c m
æĻ ¨
å¤ĸ éĥ¨
éĴ ®
å®īåħ¨ æĢ§
èĬ± è´¹
çŃī åľ°
ç®Ģ çº¦
çŃ Ľ
æ¯ıä¸ªäºº éĥ½
å¸Ĥ æ°ĳ
å¹¶ ç»Ļåĩº
å»ºçŃĳ çī©
âĢĭâĢĭ âĢĭâĢĭ
å¦Ĥä½ķ åľ¨
èĭ± å°º
Ġ arr
ç»Ł ä¸Ģ
è¶ħ çº§
çİ¯å¢ĥ åĴĮ
Ġ å¯¹äºİ
æĳĦ æ°ı
å°Ĩ ä»¥ä¸ĭ
å¸Į èħĬ
çº µ
8 5
æ¿Ģ åıĳ
éĢ Ĩ
æľĢ å°ı
å¤ľ æĻļ
éĻĪ è¿°
çļĦ é£Łçī©
éļ¾ åº¦
çļĦç ³
ä¿¡ çĶ¨
æ» ĭ
è¡ĮæĶ¿åĮº åĪĴ
æĻ¯ è§Ĥ
å¹ ½
éĶ ĭ
å°¤åħ¶ æĺ¯
å¤« å¦»
ä¸į å¾Ĺ
è§Ĥ æµĭ
a h
åħ¬ åħĥ
ä¿ ±ä¹Ĳ
ä¼ĺ åħĪ
åĭĩ æķ¢
è¿ĩ æ»¤
æµģ éĩı
çŁ ĽçĽ¾
å®Į ç¾İ
ä¼ļ å¯¹
æĦıè¯Ĩ åĪ°
æĶ¹ éĿ©
åºĶ å½ĵ
åı¯èĥ½ä¼ļ å¯¼èĩ´
éĿŀå¸¸ éĩįè¦ģçļĦ
" ï¼Į
é³ į
ĠĠĠĠĠĠĠĠ Ġ
åľ° åĽ¾
éħį ç½®
ä¸ĵä¸ļ çļĦ
ä¿±ä¹Ĳ éĥ¨
åįģ å¹´
è¡¨è¾¾ äºĨ
è´§ å¸ģ
ç¢ ±
æĢĿ è·¯
éģĹ ä¼ł
ou s
å±Ĥ æ¬¡
åľĨ å½¢
æķĻ å¸Ī
v al
ĠP ro
éĶ ¡
é¹ ¿
è½¬åĮĸ ä¸º
éĩĮ æĸ¯
å·¨ å¤§
çļĦ åĬŁèĥ½
q ue
4 9
èĢĥèĻĳ åĪ°
åı· çº¿
å¤ļæł· æĢ§
æµ·æĭĶ é«ĺåº¦
åł Ĩ
åħĪ è¿Ľ
è¾Ĳ å°Ħ
$ ï¼Į
å¹¶ å¯¹
ä¸īè§Ĵ å½¢
è¥¿ åĮĹ
è¿Ľ å±ķ
çłĶ åıĳ
è´ŁéĿ¢ å½±åĵį
è´ ¯
çĵ ·
çļĦç Ļ
éĿ¢ åĽ¢
æ¼Ķ åĮĸ
è¥¿ åįĹ
P h
äº² åŃĲ
t on
çļĦç ´
åı¯ä»¥ ä¸º
é¢ Ī
æĺİ å¤©
èĭ± å¯¸
æĪĳ éľĢè¦ģ
åı¯ä»¥å¸®åĬ© æĪĳä»¬
çħ§ é¡¾
o st
æĺ¯ æ³ķåĽ½
èī² è°ĥ
çĶŁæĪĲ ä¸Ģé¦ĸ
ä¸ª ä½ĵ
ä¼ł è¯´
éģĹ äº§
æĺ¯ä¸Ģ æ¬¾
' )
æİ¥ çĿĢ
åĮ¹ éħį
çĽ¸äºĴ ä½ľçĶ¨
æ¯« ç±³
ç½ ©
æ¡Ī ä¾ĭ
äº ķ
çļĦ æµ·
æĺ¯ çļĦ
çī §
å°ı è¡ĮæĺŁ
å°Ķ çľģ
æİ¨ è¿Ľ
èī ³
å»º äºİ
èİ ²
l ic
çº¿ ä¸Ĭ
çĭ ±
ä½ł åľ¨
èįī èİĵ
ä¸ ĺ
æĦı å¿Ĺ
200 3
8 9
ä¸į èī¯
éĤ£ ä¸ª
å¤§ æĪĺ
ä¸į éľĢè¦ģ
åħ¬ å¸ĥ
åıĺ æļĸ
Ġh ave
çļĦ ä½ľçĶ¨
è° ľ
æĥ ľ
æľ¬ æĸĩ
çī¹åĪ« æĺ¯
è¾ ī
yst em
å¸¦æĿ¥ çļĦ
æĽ´ é«ĺçļĦ
åı¯ä»¥ æĺ¯
æ¸ħ æĸ°
æ·± è¿ľ
ä¸Ģ ä»¶
çľĭ çľĭ
æī «
æĹĭ å¾ĭ
o ice
ç«ĭ åį³
æĻ® åıĬ
åĩº èī²
åĲĦ èĩª
åŀĭ åı·
ĠĠĠĠĠĠĠĠ ĠĠ
å¾Ī å¥½çļĦ
4 7
æĹł çº¿
çļĦ é«ĺ
æĺ¯ä¸Ģ éĥ¨
åı¯ä»¥ èĢĥèĻĳ
æĽ´ å¿«
æĿĤ å¿Ĺ
Ġn ew
è¿Ľ å£«
o v
åĩĨå¤ĩ å¥½
å¤ļ åħĥ
é©¬ æĿ¥
éĢĤ å®ľ
åĨĻä¸Ģ é¦ĸ
Ġ ä½łå¥½
ä¸Ń éĹ´
ä»¥ä¸ĭåĩłä¸ª æĸ¹éĿ¢
is h
or k
ç¼ĸç¨ĭ è¯Ńè¨Ģ
ç¾İ è§Ĥ
æ³¨æĦı åĬĽ
th er
å°Ĭæķ¬ çļĦ
æķ£ æĸĩ
hi le
æĸ¹ çļĦ
çļĦ åĲĮæĹ¶
çļĦ ä¸ĸçķĮ
æĪĳ å°Ĩ
äº¤ å¾Ģ
çĳ °
æ³ Ħ
æŀģ ç«¯
çĽĳ ç®¡
å°ı åĿĹ
åº¦ è¿ĩ
åģľ è½¦
çļĦ æľįåĬ¡
ä¸Ģ éĥ¨
æŃ §
éĩį åĬĽ
æıĲ åīį
å±± å³°
éŃ Ĥ
èĥ½å¤Ł å¸®åĬ©
ç» ³
çĥŃ æĥħ
æķĻ ç»ĥ
æĮī éĴ®
å·¥ç¨ĭ å¸Ī
çļĦçľ ĭ
é»ĳ æļĹ
æĹłè®º æĺ¯
. ãĢĬ
çĻ Į
ç¦ı åĪ©
å®ļ åĪ¶
G B
åĭ ĥ
ä»£çłģ å®ŀçİ°
æ¶µ çĽĸ
ï¼Į ï¼ī
æ¡ ¶
r t
è®© ä»ĸä»¬
çĲ ³
èį Ĵ
an n
èĢĮ æĪĲ
è°ĥ çĶ¨
ç¦» åŃĲ
çĶŁæ´» çļĦ
å¤ĸ äº¤
åĮĸåŃ¦ åıįåºĶ
æĥ §
å½ĵ éĢī
æī¾ åĩº
Al ice
è¯· æ±Ĥ
éĩĩçĶ¨ äºĨ
æ¡ Ĥ
åħ±äº§ åħļ
ä¸ľ äº¬
ä¸į å¤ª
Ġw ord
åĬ £
ä½ł æĺ¯
æµģ çķħ
åĬ¨ çĶ»
åıĹ ä¼¤
æĺŁ ç³»
çļĦ è¯Ńè¨Ģ
ä¿Ŀ åŃĺ
ä¸ĭ åĪĹ
çļĦ éĢŁåº¦
çļĦ æĬĢæľ¯
ol or
Ġ :
æĳĺ è¦ģ
åħ¶ å®ĥ
åĽĽ å¹´
åĨ¥ æĥ³
Ġ å¤§
èķ ī
ä¸į ä¹ħ
å³ ¡
éģĩ åĪ°äºĨ
æ¾³ å¤§åĪ©
æ¸¸æĪı çļĦ
éĺŁ ä¼į
æĺ¾ èĳĹ
å¤Ħ çļĦ
å¼º å¤§
é±¼ ç±»
åĪ¤ åĨ³
å§ Ĳ
æ §
å« ©
s ort
æĪĳ æĺ¯
æ¾³å¤§åĪ© äºļ
èĩªçĦ¶ çģ¾å®³
ä¸ªäºº çļĦ
éĢļå¸¸ ä¼ļ
Ġ ï¼Ī
åĪĨæŀĲ åĴĮ
æ¡Ĩ æŀ¶
è§£ çŃĶ
éĩį å¤§
è´Ŀ å°Ķ
S t
æĺ¯ä¸Ģ é¡¹
æĪĳä»¬åı¯ä»¥ ä½¿çĶ¨
åŃĺåľ¨ çļĦ
å¦Ĥä½ķ åĪ¶ä½ľ
æĿĥ çĽĬ
8 00
æ¸ħ çĲĨ
åı¯èĥ½ éľĢè¦ģ
å¦ ®
çŃī äºº
cri pt
åıĳçİ° äºĨ
æģĭ çĪ±
å¾Ī æľī
æıı åĨĻ
åĳĺå·¥ çļĦ
åĺ ´
è®¤ åı¯
çĸ ı
åĬł å¯Ĩ
åĴĮ åĪĨæŀĲ
ä¸ªæĢ§ åĮĸ
Ġ æĬĬ
æľī æ²¡æľī
åĴĮ è¡Įä¸º
c k
ä¸º ä¸Ģä¸ª
å½ĵ ä»£
åºĨ ç¥Ŀ
ä¹ĭ ä¸Ń
Ġs o
åĨį çĶŁ
è¢« å¹¿æ³Ľ
ä¸ºæĤ¨ æıĲä¾Ľ
æ²³ åįĹ
ä½ Ĳ
åĲĮ ä¸Ģ
å¥ Ī
åįļ å£«
äº¤ æį¢
è´¨éĩı åĴĮ
çļĦçľ ¼
è¶Ĭ åįĹ
åŃ¦ ç§ĳ
æ¸¸æĪı ä¸Ń
ĠT r
æµĩ æ°´
åĪł éĻ¤
æ°Ķ è±¡
i re
å· ¾
ç»Ł æ²»
åĩº åıĳ
res s
æĸĻ éħĴ
s elf
çº¢ æ¥¼
çļĦç¾İ å¥½
æĪĲ çĨŁ
éĥ½ åľ¨
æĸĩåĮĸ çļĦ
æķ° åĢ¼
Ġ ç¡®å®ļ
I n
çļĦçĪ ¶
çł Ĥ
T h
æĸĩ çĮ®
Ġ X
åıĤ èµĽ
ig n
éĺ ģ
æ¸© å®¤
æĽ ¹
ä¸ŃåĽ½ å¤§éĻĨ
éª Ĺ
çĩĥ æĸĻ
âĢ Ļ
æĮ ĸ
çĽ¸åĲĮ çļĦ
æĪĺ å½¹
èµĦ æł¼
ç»Ī äºİ
ç² ®
è¾¹ çļĦ
åĪ« äºº
èĢĲ å¿ĥ
æ¯ı åĳ¨
7 7
+ +
åľ¨ æľªæĿ¥
å¤§ èĦĳ
å¾Ī å¿«
æµ Ĩ
Ġa b
c ount
èĺ ĳ
çļĦ æľºä¼ļ
æĬ¤ çĲĨ
çĥ Ĥ
å¥ Ķ
äººåı£ æĻ®æŁ¥
åħ¶ä¸Ń åĮħæĭ¬
ä»ĭç»į ä¸Ģä¸ĭ
åĴĮ ç®¡çĲĨ
æĪ Ĵ
T C
å°± ä¸ļ
éĢīæĭ© ä¸Ģä¸ª
çĭ Ĥ
6 8
éħ µ
éŃħ åĬĽ
çľ¼ çĿĽ
èį· åħ°
200 2
ä»¥ä¸ĭ åĩł
èīºæľ¯ åĵģ
åľ° äº§
åĳ½ ä»¤
è¿Ļä¸ª è¡¨æł¼
çļĦç Į
æł ½
p le
èĦ Ĭ
å¤© æĸĩåŃ¦
ä¸Ģ æĿ¯
æĿ Ĩ
è¿Ļ éĥ¨çĶµå½±
åħ¶ åĲİ
ç®Ģ ç§°
çļĦç¾İ é£Ł
ä¸Ģ åº§
ç»§ æī¿
éĻ¤ æŃ¤
åĪĨåĪ« ä¸º
Ġin put
æĹł äºº
èĺĳ èıĩ
åĲĳ éĩı
åĲĦ åľ°
æ¾³ éĹ¨
åĸĤ åħ»
èĩ³ ä»Ĭ
è¿Ļæĺ¯ åĽłä¸º
èĵ Ħ
ä»¥ åĲİ
ç»ĵæŀĦ åĴĮ
èī ĺ
æĽ¿ ä»£
çļĦçģ µ
ä»¿ ä½Ľ
æ³¨ åĨĮ
Ġ äººå·¥æĻºèĥ½
æĪĳä»¬ ä¼ļ
äºĶ å¹´
m e
çļĦ è¯ĹæŃĮ
åĨ° ç®±
çĲĨ æĥ³
çļĦçľĭ æ³ķ
çŃī å¤ļç§į
æĿĲæĸĻ åĴĮ
å¹³ çŃī
èĥ¡ èĲĿåįľ
e b
æ²Ļ æ»©
æ£ ķ
ä»¥ä¸Ĭ è¿Ļæ®µ
Ġn ot
åı¯ä»¥ ä½¿
éŁ µ
åİĭ åĬĽåĴĮ
æµ ¦
åīį æĻ¯
æĹ¶éĹ´ çļĦ
ç§ĭ å¤©
éĽ ¾
åĽ¢éĺŁ åĲĪä½ľ
åı£ è¯Ń
å¾Ī å¤§
4 2
èĤ ©
èħ ¾
9 5
è´¦ æĪ·
æĭħ å¿ĥ
èį ¡
æº ¯
å®¢ åİħ
o k
å¿ł è¯ļ
åĽŀçŃĶ è¿Ļä¸ªéĹ®é¢ĺ
æĬĢå·§ åĴĮ
199 0
ä¼ĳ éĹ²
æĹ© é¤Ĳ
åıĳåĬ¨ æľº
çİ¯ èĬĤ
Ġ å°ı
åħ¶ä»ĸ çļĦ
èĨ Ģ
æĺ¯ ç¾İåĽ½
éħ± æ²¹
çĨŁ æĤī
æĺ¯éĿŀå¸¸ éĩįè¦ģçļĦ
æľĢ æĸ°çļĦ
ä¾ ¯
éľĢè¦ģ çļĦ
æį Ĳ
å¤ı æĹ¥
æ³ķ è¯Ń
çº¢æ¥¼ æ¢¦
Ġ å¯¹
ä»¥ä¸Ĭ æĺ¯
æĸĩç«ł ä¸Ń
é² ¸
è´¢ å¯Į
æĹ© ä¸Ĭ
è® ¼
ä¹Ł ä¸į
åĬ³ åĬ¨
ä¼ģä¸ļ çļĦ
âĢ¦ âĢ¦
åĽŀ å½Ĵ
åİĨåı² ä¸Ĭ
ç¥ Ń
åĻ ª
ä» ĵ
äº« çĶ¨
å¥¶ éħª
åĵª ç§į
åķĨ åºĹ
è®¾è®¡ å¸Ī
åģ ·
æµģ è¡ĮçļĦ
å¹´ åľ¨
ä¼ļ æľī
æŀĦ éĢł
Ġ å»ºç«ĭ
æĽ¿ æį¢
ow n
æĺİ æľĿ
è£ Ķ
é¡º åĪ©
æĿ¥ è®¡ç®Ĺ
å¥¥ æŀĹ
æĢİä¹Ī æł·
ãĢĤ ãĢį
æĿ¡ æ¬¾
Ġ çº¢
ä¸»è¦ģ æĺ¯
æĢ» éĿ¢ç§¯
åĴĮ çĲĨè§£
æĸĩ èīº
é¦Ļ èķī
ä¸Ģ æľ¬
æĭ ĸ
æŃ£ æĸ¹
åĩº çİ°åľ¨
çļĦç ĸ
æ±Ł èĭı
Ġf loat
è¾ħ åĬ©
å¤ı å¤©çļĦ
en g
ä¼Ĺ å¤ļ
åĩºçİ° çļĦ
æĸĩ æ¡£
æķ£ æŃ¥
s um
æ¿Ģ çĥĪ
éĵ ĥ
E R
4 6
æķ°æį® åºĵ
å¤§ äºİ
éĢĲ æŃ¥
. "
é¬ ¼
æ± Ĺ
é»ĳ èĥ¡æ¤Ĵ
æİ¥ æĶ¶
ç«ĭ æ³ķ
åŃ¦ ä½į
ç¦ı å»º
å¹¶ è¿Ľè¡Į
è¿ĺ èĥ½
çĮ« åĴª
du ct
æĽ´ é«ĺ
åŃ ķ
æľĪ åı°
æµ· å²¸
æ··åĲĪ çī©
åħĶ åŃĲ
å·´ è¥¿
åĩ Ń
èĴĻ åı¤
èĲ §
æľĢ æĹ©
åĩºçİ° äºĨ
åıĳ å°Ħ
Ġ1 8
èĩ´ åĬĽäºİ
ä¸į å¤Ł
åį ī
ä»İ äºĭ
æ¬ º
åĲ ķ
ĠæĪĳ æĥ³
å°ı åŃ¦
çİĭ æĺŁ
é¢Ħ çĥŃ
è°ĥ æĸĻ
çļĦç Ĥ
çĶ· åŃ©
ä¾Ŀ æį®
éĻ¤æŃ¤ ä¹ĭå¤ĸ
æłĩ çŃ¾
åĴĮ ä½¿çĶ¨
é¡µ éĿ¢
å¹´è½» äºº
æ² ¸
E m
åĩ Į
åĩº èī²çļĦ
æŁ ¯
ç¼ĸ åı·
å¡ ĺ
åŀĭ çļĦ
å® ı
éĴ »
æľĪ çļĦ
åħį è´¹
è£ Ļ
è¯Ħ åĪĨ
èĬ± åįī
å¹´ ä»½
æľī äºº
er t
æł¹æį® ä»¥ä¸ĭ
çİ «
éĹ´ çļĦ
ç»ıéªĮ åĴĮ
AP P
it e
æĦı å¤ĸ
åĪĨ è§£
é¢Ħ è®¡
æĶ¯ æĴĳ
éĢĤ çĶ¨
åĨ· éĿĻ
éĴ¢ çĲ´
ä¼ ª
æĦ Ī
çĶŁ åĬ¨
è¯ī è®¼
è¾ ½
çĥ¤ çĽĺ
ä¸ĩ ç¾İåħĥ
å·¥ èµĦ
ä¹Ł éĿŀå¸¸
å¦Ĥæŀľ æĪĳä»¬
æ·±åĪ» çļĦ
æľº åħ³
) ãĢĤ
çļĦ æŃ¥éª¤
" >
åĪĨ æķ°
éĢĶ å¾Ħ
åģı å¥½
åŁº çĿ£
æĽ´ å¤§çļĦ
çĩĥ çĥ§
ç»ĺ çĶ»
æł· æľ¬
æĮĩ çļĦæĺ¯
æķı æĦŁ
åŁİ éķĩ
åĲĪ æĪĲ
èħ »
æ¸ħ æ¥ļ
ä¼Ļ ä¼´
æħ ķ
9 8
å¤©çļĦ å¤©æ°Ķ
ä¸ŃåĽ½ çļĦ
ç´ł è´¨
ä»¥ éģ¿åħį
æ¹¿ åº¦
å®ŀéĻħ æĥħåĨµ
å¥¥æŀĹ åĮ¹
çļĦç¼ĸ ç¨ĭ
åŃĲ éĩĮ
åĪĿ æľŁ
S T
ä¸ĵ éĹ¨
ç±³ é¥Ń
åĴĮ å®īåħ¨
Ġ Â¥
çļĦ æķĪæŀľ
åľ¨ ä½¿çĶ¨
åıĤ è§Ĥ
åĮħ è£ħ
åľ° æĿ¿
éĻ¤ ä»¥
ç¨³ å®ļçļĦ
æģ °
çĶ¨æĪ· ä½ĵéªĮ
åīį çļĦ
7 8
Ċĉ ĉ
åĪĿ å§ĭ
æĮ «
çĽĳ çĿ£
çļĦ å½¢å¼ı
èĬĤ çº¦
å·ŀ å¸Ĥ
è®° èĢħ
åħĦ å¼Ł
ä¸» åĬ¨
ç¹ģ æ®ĸ
18 0
è´Ł åĢº
éĥ Ń
å² Ń
çŃī ä¿¡æģ¯
åı¯èĥ½ æĢ§
åĢ¾ åĲĳ
éĥ½ èĥ½
çļĦ ä»£è¡¨
åĭ º
ä¾ £
åĵ ¦
æ¨¡ åĿĹ
å¤ªå¹³ æ´ĭ
ãĢį ï¼Ī
çİ« çĳ°
åı¸ ä»¤
èĬ± æľµ
å±ķ è§Ī
] [
çħ® çĨŁ
åĪĹ ä¸¾
ãĢĤ ãĢĬ
åŃ¦çĶŁ çļĦ
å¦Ī å¦Ī
åĪĨåĪ« æĺ¯
è¥¿ åĵ¥
Ġth is
ç©º è°ĥ
ä¸Ń éĥ¨
è¢« è§Ĩä¸º
çİ°åľ¨ è¯·ä½ł
ä»£ è°¢
èµ Ķ
åıĳ çĶµ
çŁ© éĺµ
æ¦Ĥ æĭ¬
Ġ our
å«Į çĸĳ
æĮĩ ä»¤
åĽ¾ä¹¦ é¦Ĩ
è§Ĥ çľĭ
çĽ´ èĩ³
æľĪ ä»½
Ã Ĺ
Ġ+ =
å¨ ĺ
åĪĨç±» ä¸º
å®Ŀ çİī
å¹² æī°
å¥³ åĦ¿
ç§ģ äºº
åıĳå±ķ çļĦ
å¿ĥçĲĨ åģ¥åº·
æŁĶ åĴĮ
èĭı èģĶ
åĩºçĶŁ äºİ
åħĪ åĲİ
è¯ ŀ
è®¾è®¡ åĴĮ
Ġ å®ļä¹ī
ä½Ĩ æĪĳ
å¤ı ä»¤
Ċ ĠĠĠĠ
æ»¡æĦı åº¦
åĨ· åį´
æĹ¶ åħī
å²© çŁ³
æ½ľ åĬĽ
äº ¨
çĸ« æĥħ
199 9
éĶ¦ æłĩ
å¤§ æ¥¼
åŃ Ł
éĩıåŃĲ åĬĽåŃ¦
" ãĢĤ
Ċ ĠĠĠĠĠ
åĲ Ĭ
e e
ç¥ ¥
çļĦç ¡
éĢļ ä¿¡
èĲ¥éĶĢ çŃĸçķ¥
é¹ ħ
èº«ä½ĵ åĴĮ
è¿ĻäºĽ éĹ®é¢ĺ
èĢĮ ä¸į
æģĲ é¾Ļ
æıĲåĩº äºĨ
çģµ æĦŁ
å¢¨ è¥¿åĵ¥
ä¼ļ å½±åĵį
Ġ at
è¿Ļæł· åı¯ä»¥
åħħ çĶµ
ç§į åŃĲ
åħ¶ å®ŀ
å¤§æ°Ķ å±Ĥ
æ¯ı ä¸Ģ
èĶ ¡
èħ °
ç¾¤ å²Ľ
ä¸Ģ æĹ¦
èĪŀ åı°
åĲ¬ åĪ°
æ¹ĸ åįĹ
æĬķ ç¥¨
ä»¥ æŃ¤
199 8
it ion
èĭ± æł¼åħ°
æĬ ¢
åħĭ çļĦ
åĲ¯ åĬ¨
è¿ĳ å¹´æĿ¥
ç©º ä¸Ń
æĳĦæ°ı åº¦
æĹ¥ èĩ³
æī¾ åĪ°äºĨ
æĬķèµĦ èĢħ
ä¸Ģä¸ª éĹ®é¢ĺ
åĮĸå¦Ĩ åĵģ
å®¢æĪ· çļĦ
çľĭ åĪ°äºĨ
B C
äºĳ åįĹ
éĤ® æĶ¿
è¯·éĹ® æĤ¨
åĪĹè¡¨ ä¸Ń
æ¶ Į
å¼ł ä¸ī
ä¸ĸçķĮ çļĦ
çĽ¸ çŃī
æĸ Ĳ
æĭĵ å±ķ
åĴĮ éľĢæ±Ĥ
å¾Ĺ ä»¥
è§£éĩĬ ä¸Ģä¸ĭ
ç¬¬äºĮ æ¬¡
å¤§ åľ°
è ©
å¤ ¹
æıĲ åĪ°
çļĦçľ ģ
æľīæĹ¶ åĢĻ
æłĳ æľ¨
åħ¨çĲĥ åıĺæļĸ
ç© ·
ç«ŀäºī åĬĽ
åĬ¨ æĢģ
æĺ¯ éĢļè¿ĩ
ç®Ģ åİĨ
è½¬ ç§»
æĢ Ĵ
å¹³ éĿ¢
A T
ç¢ °
çĽ´ å¾Ħ
çļĦç¤¾ äº¤
ä¹Ĳ è¶£
æĵ ħ
ä¾¿ æį·
å¥¥æŀĹåĮ¹ åħĭ
å®ī éĿĻ
æ°´ åŁŁ
æ³¨ éĩĬ
å¤© æ´¥
åĲ ¨
ä»¥ä¸ĭ æŃ¥éª¤
å¹¿æ³Ľ çļĦ
åı Ľ
i o
äºº ç¾¤
ç®¡çĲĨ åĴĮ
èĤī ç±»
èĢ į
æĺ¾ å¾Ĺ
æŁĲ ç§į
.. .
ä½ł ä¼ļ
çĽĳ æİ§
è§Ĥ å¿µ
ä¹Ĳ åĻ¨
è¾ĥ å¤§
ç§ĺ å¯Ĩ
æĽ¾ ä»»
è¿Ļ ä¹Ł
å½¢æĪĲ äºĨ
çĤ¹ çļĦ
| ----
ä¼¦ çĲĨ
èģĮ è´£
æĴŃ åĩº
æī¿ è®¤
æĮĳæĪĺ åĴĮ
æĪĳä»¬ åľ¨
çļĦçģ «
æĦŁ çŁ¥
æĬ¥ è¡¨
é£İæł¼ çļĦ
æ²Ļ æ¼ł
Ġ åĪ¶ä½ľ
å®¹ åĻ¨
éĢī çĶ¨
åĳ½ è¿Ĳ
é»Ħ æ²¹
ä¸ĩ äºº
è¾ ¨
åĲĳ ä¸Ĭ
éĺ¿ æĭī
çİ¯å¢ĥ ä¸Ń
è®¡ç®Ĺ åĩº
åĮĹ æŀģ
éĽĨ åĲĪ
ç»ĵ å©ļ
çļĦ æ´»åĬ¨
å®¶ çĶµ
åľŁ è±Ĩ
åĬ© æīĭ
çļĦ æ¤įçī©
å¹´ èµ·
å¸ĥ ç½®
Ġd o
æĪĳ åľ¨
åı¯ä»¥ æıĲä¾Ľ
å¼ºçĥĪ çļĦ
åº ŀ
ä¹ĺ å®¢
æīĢ å¾Ĺ
ç¿ ł
å¯¹ åħ¶
æ¸ħ æľĿ
ä¹Ķ æ²»
B A
æīĭ æľ¯
ç»ĵæĿŁ åĲİ
ou ld
è®¡ç®Ĺ åĻ¨
åĴĮ ä¸Ģä¸ª
çģ° èī²
çļĦ æ°ĽåĽ´
è£ħ ç½®
åĲĳ åīį
éľĢè¦ģ æł¹æį®
éĨ ī
æĹ º
æīĭ è¡¨
åľ¨ è¿Ļç§į
å®ļ çĲĨ
å¹¶ ä¸İ
åĲį åįķ
ä¸į ç¡®å®ļ
éĻĨ åľ°
æįŁ åĿı
å®¢ äºº
I I
åĴĮ çĽ®æłĩ
Ġel if
7 6
ä¸Ģå®ļ è¦ģ
' t
æĴĴ ä¸Ĭ
æīĭ å·¥
on t
o x
åıį å°Ħ
åĮĹäº¬ å¸Ĥ
ç»Ŀ å¯¹
å°± åĥı
èĬĤ èĥ½
å± ¿
åĽ´ ç»ķ
çļĦ ä¸įåĲĮ
èľĤ èľľ
' ]
åĪ© çİĩ
æıŃ ç¤º
æĿ ī
æ´Ĺ è¡£
ä¸ī åįģ
åıĳ éĢģ
I D
éĿ¢ æĿ¡
æķ°åŃĹ åĮĸ
èº« é«ĺ
æľĿ é²ľ
åĩĢ åĮĸ
å¹´ ç¾İåĽ½
å°Ķ å¾·
å®ĥ åľ¨
åĸ »
åĤ¨ åŃĺ
éĻ ķ
åĶ® åĲİ
é£İæł¼ åĴĮ
å¹´ åĲİ
b le
çĥ ĺ
å® ´
åı¯ä»¥ ä»İ
é»Ľ çİī
åħ¬ æ°ĳ
ç«ŀäºī å¯¹æīĭ
ĠÃ ·
å®¹ éĩı
éĽ ĩ
éĻª ä¼´
ä¹Ł è¦ģ
éĨ ĩ
éĿŀå¸¸ æľī
å¯ Ħ
AI è¯Ńè¨Ģæ¨¡åŀĭ
çĶµ æºĲ
o ve
éħį å¤ĩ
ers on
åĨĻ ä¸Ģä¸ª
åĽłä¸º å®ĥä»¬
åıĭ å¥½
éĿł è¿ĳ
198 0
æĪ¿ äº§
çļĦ åĬĽéĩı
ver s
çļĦ è¿ĲåĬ¨
ä¸Ģ çīĩ
åĮĸ çŁ³
æĪĲä¸º ä¸Ģä¸ª
çļĦ æ¦Ĥå¿µ
è© ¹
å¨ģ å»ī
çĶŁ äºİ
çı Ĭ
æ¬¾ å¼ı
é»Ħ éĩĳ
é¦Ļ èįī
çĨ Ļ
a u
ä½ľ åĩº
åŃĹ çļĦ
5 6
æ²ŁéĢļ åĴĮ
åĲ« éĩı
çĦ¶åĲİ å°Ĩ
Ġb re
æĸĩæľ¬ ä¸Ń
ï¼ļ ãĢĬ
éĢļ çŁ¥
1 20
åĴ ¸
æ¢ ³
æĻºèĥ½ åĮĸ
åľ¨ ç¾İåĽ½
æĤ Ł
çļĦ æł¸å¿ĥ
çī µ
è¿Ļ åº§
è¿ĺ è¦ģ
æĢ ĸ
4 3
éĹ °
æĭ¥ åłµ
d ata
æĻļ é¤Ĳ
ç¼ Ŀ
è¡¥ åħħ
çļĦç¨ ³
èĤ ĸ
çİ© èĢį
æĪª èĩ³
è·¯ ä¸Ĭ
åħ¬ å¹³
æķħ éļľ
çĽ® çļĦæĺ¯
æıĴ åħ¥
å¼ķ åħ¥
ç½ĳ ä¸Ĭ
è¿½ æº¯
ĠP ython
è Ł
iz e
çļĩ å¸Ŀ
æīĭ æ³ķ
çĸ² åĬ³
æ² Ī
L uc
ç²¾ åĬĽ
0 1
å®īåħ¨ åĴĮ
èĳ ¬
çļĦ åħ·ä½ĵ
æģĲ æĥ§
æĸ½ å·¥
å®¢ æľį
å¯Į åĲ«
Ġs u
æľĢ å¤ļ
èģļ ä¼ļ
åĬł åĿ¡
æľª èĥ½
éĺŁ çļĦ
äºĨ å¾Īå¤ļ
ä½ı å®ħ
åĨ Ī
æģĲ æĢĸ
Ġ qu
æĭ Ĥ
å¸ ½
ä¸įæĸŃ åıĳå±ķ
ç´§ å¯Ĩ
Ġs um
æľ¨ æĺŁ
l ass
b ers
åįĬ å¾Ħ
çŁŃ è¯Ń
ç¾½ æ¯Ľ
äºº æĢ§
çĶµåŃĲ éĤ®ä»¶
æŁ ³
Ġ &
çļĦç¨ĭ åºı
è® ·
ç»Ĩ èıĮ
å¤§ è§Ħæ¨¡
ä¹Ł èĥ½
æĸ ¤
åĩº ä»»
ç¬ ¼
åħĥç´ł çļĦ
d er
çĸ« èĭĹ
èµ° åĲĳ
èĸ ¯
æ¶Ī å¤±
èĳ¡èĲĦ éħĴ
ub lic
åİ» éĻ¤
S S
è¿Ļ é¡¹
Ġde f
å°½ å¿«
èĤ ¢
çŃī çº§
ä»¥ ä¸ĬçļĦ
å¾Ī é«ĺåħ´
é«ĺ ä¸Ń
éĢļ é£İ
åĢĻ éĢī
ä»¥ å¸®åĬ©
ä½ľ æĪĺ
7 9
çŁ³ å¤´
æĥ ĳ
è§£ è¯»
éģ ¥
åİŁ æľ¬
è¿Ļ åľº
çĥ ¦
ä¼ĺ ç¼ºçĤ¹
å¸Ĥ ä¸Ńå¿ĥ
è¿Ĳç®Ĺ ç¬¦
i an
æł ı
res ult
å¥¥ æĸ¯
èµ ´
çļĩ å®¶
e g
å®Įæķ´ çļĦ
éħį æĸ¹
å¤© ä¸»æķĻ
ãĢ ī
ãĢ Ī
ke y
åĴĮ å·¥ä½ľ
åı¶ åŃĲ
Ġ åĩĨå¤ĩ
èĤ¥ æĸĻ
é«ĺ æ¸©
æĹ¥ èµ·
ç»Ļ æĤ¨
åħ´ å¥ĭ
) ,
ic t
ä¸ŃåĽ½ åı¤ä»£
Ġw as
åĳ¨ è¾¹
æ¶ ħ
Â ²
ç¢Ĺ ä¸Ń
ç»ıåħ¸ çļĦ
æ³¢ åħ°
åĸľ çĪ±
or us
çľģ çļĦä¸Ģä¸ªå¸Ĥéķĩ
å§Ĩ æĸ¯
ä¹ ĥ
æ· ĺ
åĬł å·¥
çī¹æ®Ĭ çļĦ
æŁ ¿
ç¿ Ķ
ç» µ
çĶŁæĪĲ ä¸Ģæ®µ
åı¯ è¾¾
æĸ° åĬłåĿ¡
åĴĮ æĬĢæľ¯
æŃ¤ åĲİ
çļĦçĥ ¤
çļĦç²¾ ç¥ŀ
å½ĵ ä»Ĭ
å¸¸ çĶ¨çļĦ
èĥ ĥ
éĥ½ éľĢè¦ģ
èĭ± éĩĮ
èĻ ¹
è¿ Ł
é¦Ļ æ°Ķ
ä»ĸ æĺ¯
å½¢ å®¹
åĴĮ å¯¹
èĤ¯ å®ļ
æ´» åĬĽ
åĩı èĤ¥
é¹ °
ad d
æĭ ³
199 7
ä¸Ĭ æĺł
åħ¬ äº¤
è¿Ļ æľ¬ä¹¦
éģŃ åĪ°
æĹ ±
çļĦæĹ¶ åĮºä¸º
åĲį çļĦ
çĭ ¼
åį± æľº
é¾ Ł
________________ ________________
å®ĥä»¬ åľ¨
ç² Ĺ
åıĸ æ¶Ī
çİ¯å¢ĥ æ±¡æŁĵ
æľī ä»»ä½ķ
çŃĽ éĢī
å¼ ¥
ç¦ģ æŃ¢
éģ ®
è®¾è®¡ çļĦ
æĪĳä»¬åı¯ä»¥ éĢļè¿ĩ
Ph one
éĻĨ åĨĽ
è®° è½½
ä»¥ æıĲé«ĺ
åľ° åĿĢ
åıĪ ç§°
é¤Ĳ é¥®
ç©¿ è¿ĩ
Ġ å¹´
éĩĮ éĿ¢
Ġ1 1
çļĦ ä»»åĬ¡
å¿ĥ èĦı
Ġo per
æĺİ æ²»
æīĵ åĩ»
å¯Ĩ åĪĩ
çķªèĮĦ éħ±
çŃĸ åĪĴ
XX XX
çļĦç¾İ ä¸½
èĿ ´
æĿ° åħĭ
åĴĮ å°ı
ï¼ļ ",
èĿ´ èĿ¶
çļĦ åħī
å¾Ī éļ¾
é¥® åĵģ
ä» ²
åĪ© äºİ
åħ³ å¿ĥ
çļĦ å¤ĸ
çª ĥ
åħ» çĶŁ
æļ´ åĬĽ
çİĭ åĽ½
ç«ĭ æĸ¹
è´µ çļĦ
åİĨ ç¨ĭ
æĹ¶éĹ´ åĨħ
åĩº ä¸Ģä¸ª
é©¬ åħĭ
æ£ ī
æŁ ´
éĶ¦æłĩ èµĽ
ç®Ģ çŁŃ
åħĥ å¹´
å¤© æĸĩ
Ġ è¦ģ
å½¢æĪĲ çļĦ
an k
ĠI n
è¿Ŀ åıį
æĪ¿ åľ°äº§
èħ Ķ
éŁ §
er n
202 4
çĽ®æłĩ åĴĮ
æĻ¯ èī²
çļĦç©º æ°Ķ
æ±¤ åĮĻ
æīĭ åĨĮ
re at
éĻĦè¿ĳ çļĦ
ç²Ĵ åŃĲ
è·¯ å¾Ħ
æĢĿèĢĥ åĴĮ
çĥŃ éĹ¨
é¦Ļ åĳ³
A nd
ä»» åĳ½
çļĦçĶŁæ´» æĸ¹å¼ı
èµ ¶
ä»¥ åħ¶
è´ º
é¢Ĩ è¢ĸ
Ġ1 6
æķĪ åºĶ
ä¾ ¦
è®² ä¸Ģä¸ª
æĺ¥ å¤©
åĢ ¡
æıĲ äº¤
æĢİ æł·
è®© åŃ©åŃĲ
æ±¤ å§Ĩ
æł¹æį® ç»Ļå®ļçļĦ
åŁİ åł¡
æłĩ è®°
è¿Ĳ ä½ľ
å¹¶ ç¡®ä¿Ŀ
å°Ķ çļĦ
èĥ Ĩ
åıĹ åĪ°äºĨ
æĿ¥ è§£åĨ³
å¹¶ ä½¿çĶ¨
æľī çĤ¹
ï¼ ħ
æĪĳ ä¹Ł
è¡ °
çļĦ æĸĩæľ¬
å¯ Ĥ
Ġn ame
è¯´ æ³ķ
çī© æµģ
æ¼ Ĩ
å¸ ĺ
åľ ³
è¯Ĺ äºº
o y
é©¬æĿ¥ è¥¿äºļ
é¥° æ¼Ķ
æ³¢ åĬ¨
çļĦ åĬ¨çī©
çļĦç¨³ å®ļ
ç®Ģ ä»ĭ
éĿŀå¸¸ éĢĤåĲĪ
äºĮ å¹´
åŁº åľ°
æĦŁ æ¿Ģ
äºº å¿ĥ
å¸Ĥ åĮº
å¦» åŃĲ
åĪĽéĢł åĬĽ
é¢Ħ è®¢
ä¸ĢçĽ´ åľ¨
å¤ ķ
éĿŀ æ³ķ
ä»İ å°ı
è¯¥ åľ°
å¡ĳ éĢł
è¾¹ çķĮ
æľº è½¦
ä¼ł æī¿
Ġ å°Ĭæķ¬çļĦ
åįķ æĽ²
å¡« åĨĻ
ä¸ĸçķĮ ä¸Ĭ
è¿ĺæľī åħ¶ä»ĸ
æĺĨ èĻ«
èĳ£ äºĭ
çļĦ åħĥç´ł
str ing
ãĢį ãĢģ
p x
åį§ å®¤
5 8
åĽ¾ åĥı
çŁ¥è¯Ĩ åĴĮ
g le
æµ ı
æĳĩ æ»ļ
é¥ ±
i ke
æĪı åī§
æĸĩçī© ä¿ĿæĬ¤
æ¸ ´
åĪĩæĪĲ å°ıåĿĹ
åº¦ åģĩ
è¿Ľ åĮĸ
æľī å®³
ä¸´ æĹ¶
æĿ¥ æıĲé«ĺ
åŃ Ŀ
æĽ¾ åľ¨
èĳĹ ä½ľ
p ro
å½Ĵ ç±»
æľīæīĢ ä¸įåĲĮ
åħ¥ åı£
Ġ éĢīæĭ©
æĪĳä»¬çļĦ äº§åĵģ
å½ °
çĶŁ çĲĨ
ä¾ į
Ġli ke
å·²ç»ı æĪĲä¸º
åĽŀ åºĶ
åĳ¨ æľ«
æ·±åº¦ åŃ¦ä¹ł
s q
åı¯ åĨįçĶŁ
å¹´è½» çļĦ
s on
å°½ åĬĽ
() `
ç§į æĹı
åıĸå¾Ĺ äºĨ
ç¬¬ åħŃ
è¡¨è¾¾ å¼ı
çĪĨ çĤ¸
æĬ ¼
é¢ĳ éģĵ
éĩį å»º
çļĦ è¡¨çİ°
æľĢ åĸľæ¬¢çļĦ
æī ĩ
æľĢ é«ĺçļĦ
åħ» æĬ¤
åĴĮ åºĶçĶ¨
è¥¿ æĸ¹
å¥ĸ é¡¹
çģ¯ åħī
æĺ¯ äººç±»
æ¯« åįĩ
çļĦ æīĢæľī
e c
çģ« è½¦
d ay
æī¹ åĩĨ
çģ Į
èĩª è½¬
æĳĦ å½±
Ġ æľĢåĲİ
çĤ¹ åĩ»
H ello
éĺ² å¾¡
åıį æĢĿ
ä¸ĭ çļĦä¸Ģä¸ª
æ³ķ å®ĺ
çĹħ äºº
C T
çĶµ åĬĽ
èĩ³åħ³ éĩįè¦ģ
è¥¿ çľģ
å¢ŀåĬł äºĨ
å·ŀ çļĦ
æĸĩåŃ¦ ä½ľåĵģ
åĽŀ æĬ¥
re e
åįł é¢Ĩ
åĪĽéĢł ä¸Ģä¸ª
åĪ¶ åĵģ
å²ģ çļĦ
åĴĮ é«ĺ
è¥¿ åħ°
ä¸º ä¸»é¢ĺ
4 1
æĹ¥å¸¸ çĶŁæ´»ä¸Ń
ä¸ĭè¾ĸ çļĦä¸Ģä¸ª
æĺİçĻ½ äºĨ
æĿ¥ è¿Ľè¡Į
è¿Ľ èĢĮ
äº² å¯Ĩ
çīĽ é¡¿
çº¿ æĿ¡
ic al
è¾¹ ç¼ĺ
éĤ ĵ
çĶŁ æĬ½
ç¤¼ çī©
è¡ Ķ
å®ŀ ä½ĵ
åı¯ä»¥å¸®åĬ© æĤ¨
çĶľ çĤ¹
le x
çĥŃ éĩı
è®¸å¤ļ äºº
åħ¬åı¸ åľ¨
å®ĺ åĳĺ
199 6
ä¸į åĪ°
ç²¾ ç¡®
å½ĵ æĪĳä»¬
çĶŁæ´» ä¸ŃçļĦ
æī ¶
ä¸ĭ ä¸Ģä¸ª
èĮ Ĥ
p r
åħ¬ å°º
æĲ ¬
æĺ Ń
æĬ¤ èĤ¤
æµ· é²ľ
æŃ¥ è¡Į
åĿĲ æłĩ
é¢Ħ æľŁ
å¿ĥ ä¸Ń
æ· ĩ
è¡¨è¾¾ èĩªå·±çļĦ
åľ°çĲĥ ä¸Ĭ
s c
éĢļè¿ĩ å¯¹
çĽ¸ åĬł
æĶ Ģ
Ġ %
è¯Ħ æµĭ
åĩĨç¡® åľ°
æ¶ ¨
æĽ´ æĺ¯
èĤ² åĦ¿
éĩİ çĶŁ
Ġlo ve
å¿ į
è¿Ļ ä»½
çķ Ķ
åĪĽ ç«ĭ
åŁ Ķ
çıį æĥľ
åīį è¿Ľ
ow s
æĿ Ń
ä¸ Ľ
æĪĸ ç¼º
æĶ¹ ç¼ĸ
éī´ åĪ«
éĢĴ å½Ĵ
ä¸º ä¸Ģ
è¿ Ń
çļĦ æĦıä¹ī
è¯ Ī
èĳ Ľ
èĢģ æĿ¿
æ¯ ħ
æĺ¯ä½įäºİ ç¾İåĽ½
æľ¬ åľ°
åį¡ å°Ķ
åĩº åı£
çªĹ æĪ·
éģ £
çİ°ä»£ ç¤¾ä¼ļ
199 4
å·¥ åİĤ
æĪĺ æľ¯
æľī äºĨ
ä¸į å¿ħè¦ģçļĦ
çĭ® åŃĲ
9 6
çļĦç ħ
å¥¹ åľ¨
åįı åķĨ
å®Ŀ èĹı
Ġ ãĢĤ
ä¹ĺ ä»¥
çļĦ åŃĺåľ¨
A R
åıĳçĶŁ äºĨ
å µ
å±ķç¤º äºĨ
æĪĳä»¬ è¦ģ
äººå·¥æĻºèĥ½ çļĦ
ä¹ī åĬ¡
ä¾Ŀ çĦ¶
ä¼ł è¾ĵ
åħī åĲĪ
å¸Ĥ çļĦ
è¿Ļ å®¶
ç§ĭ å¤©çļĦ
æĥ ©
çĲĥ åľº
åı¯ä»¥ çĶ¨äºİ
å¿ĹæĦ¿ èĢħ
ç»Ļ äºĨ
æľĢ ä¸º
å¹´ åīį
å£« åħµ
ç¼ĵ æħ¢
ä¸Ģç¯ĩ åħ³äºİ
çļĦ ä½ľåĵģ
éĿ¢ åĲĳ
al se
å¸®åĬ© ä½ł
æĸĩçī©ä¿ĿæĬ¤ åįķä½į
è´Ł æĭħ
è§£æĶ¾ åĨĽ
å§Ķ ä¼ļ
æµı è§Ī
è´¢ æĶ¿
åĨħ åŃĺ
çĭ Ĳ
å®Į ç¾İçļĦ
çļĦ åıĳçĶŁ
æľĪ äº®
æ°Ķ æ°Ľ
Ġad d
ä¸Ĭ äºĨ
çħ ¸
å»ºè®® æĤ¨
ä½įäºİ æ³ķåĽ½
ä¼ĺ ç¾İ
æĸ° çĶŁ
å© Ĩ
ĠI t
çļĦçĭ Ĺ
8 6
èį£ èªī
åĹ ¯
ç¨ Ģ
çĨĬ çĮ«
ä¼ĺ éĽħ
æĥħæĦŁ åĴĮ
çĶ º
å¯¹ äººç±»
åĿĩ è¡¡
åħ¬ å¯ĵ
7 2
å®ŀéªĮ å®¤
å°Ĩ åľ¨
æĵįä½ľ ç³»ç»Ł
æĹ¥ çļĦ
æĹħ ç¨ĭ
ä¸» æ¼Ķ
è¿ĩ çļĦ
ç§ĳæĬĢ çļĦ
å¹¶ éĿŀ
åľ¨ éĢīæĭ©
å®ĩå®Ļ çļĦ
æī¿ åıĹ
ä¸ĸçķĮ æĿ¯
è¥¿ æ´ĭ
æŃ ī
å®¶ ä¸Ń
çĶŁçī© åŃ¦
æİ¨èįĲ ä¸ĢäºĽ
å¤ļ å½©
åĽ½ ä¼ļ
199 5
è¶ħ è¶Ĭ
åı¸ æ³ķ
Ġl en
Ch orus
åħĭ åħ°
è¿ĩ å¤ļ
Ġ æ¸¸æĪı
èĩ³åħ³ éĩįè¦ģçļĦ
éĢļ è®¯
åĲ ŀ
è±ª åįİ
èĤ Ŀ
ä¹Ĳ éĺŁ
å®ŀ æĹ¶
èĤ ĥ
å®Ŀ çŁ³
é¢ĨåŁŁ ä¸Ń
äº¿ ç¾İåħĥ
Ġ å®ļæľŁ
æħĪ åĸĦ
éĿŀå¸¸ æĦŁè°¢
æ¶² ä½ĵ
å®ĮæĪĲ ä»»åĬ¡
ä¼¯ çī¹
in k
æķĻ ä¼ļ
èħ Į
ä¹ĭ ä¸ĭ
æĪĳ å¯¹
e v
æĺ¯ ä¸į
åŃĹ åħ¸
åĵį åºĶ
åĶ®åĲİ æľįåĬ¡
] )
ç»Ļ äºº
åī© ä½Ļ
çŃī å¤ļä¸ª
ä¸ŃåĽ½ ä¼łç»Ł
çļĦ åģ¥åº·
ä¸Ģ çĤ¹
æİ¢ æµĭ
åŃĹ ä½ĵ
çº ¬
ä½Ĩ ä»ĸ
åħ´ å»º
ä¸įåĲĮ ç±»åŀĭçļĦ
è¾ĥ é«ĺçļĦ
å¥ ´
è¡Ģ åİĭ
åħ¬ çĽĬ
æĸ° å¢ŀ
è¸ ı
ol d
äº¿ åħĥ
ç±»ä¼¼ äºİ
åĤ¨ èĵĦ
åĴĮ ç»´æĬ¤
èĴ ĭ
çªģ çł´
çļĦ å¼Ģ
Ġ å¦Ĥæŀľä½ł
èįī åİŁ
æķĳ æı´
Į çĶŁ
åĿ Ĭ
æĮ« æĬĺ
æĸĩ ä»¶
çĽ¸ åºĶ
æ®ĸ æ°ĳ
æĪĳä»¬ å¿ħé¡»
éĩĳ é»Ħèī²
ä½ł å¯¹
çļĦ æ¸¸æĪı
ion s
éļ §
ar n
å¼¯ æĽ²
d iv
ç¨³å®ļ æĢ§
åıª éľĢè¦ģ
æĺ¯ ä¸ºäºĨ
ä¸» å¼ł
å¸® æĪĳæĥ³
Ġl a
é©¬ æĭī
ï¼ļ") )
åĲİ æŀľ
é¤Ĳ é¦Ĩ
Ġw orld
Ġ çĥ¤
è¿Ļ ä½¿å¾Ĺ
ç»´ å°Ķ
ä½įäºİ è¯¥åĽ½
æĲº å¸¦
æ¸ħ æ°´
æĸ¹ç¨ĭ å¼ı
èº« è¾¹
å¤´ åıĳ
Ġ éĢĤéĩı
æİ¢ ç©¶
å®¡ æŁ¥
éĴ ł
å¾· éĩĮ
ç °
çļĦ è¯¦ç»Ĩ
å¯¹ çİ¯å¢ĥ
ä¸º æ¯ı
ä¸įåı¯ æĪĸç¼º
ä¸ĵæ³¨ äºİ
æī ĳ
å¯¼èĩ´ äºĨ
åĳ¨åĽ´ çļĦ
Ġ æıĲä¾Ľ
æ·± åľ³
å¯¹è¯Ŀ ä¸Ń
IN SE
æ´Ĺ åĩĢ
æĪĳä»¬çļĦ çĶŁæ´»
Ġf e
s h
åĲ Ĳ
æĴ° åĨĻ
èĻļæĭŁ çİ°å®ŀ
éĢī è´Ń
å®ģ éĿĻ
æ¹ĸ æ³Ĭ
åĻ¨ æĿĲ
ä¸º æŃ¢
ç§ĺ ä¹¦
Ġ ä¿ĿæĮģ
äºº ä¸İ
oo gle
æħ °
æ·ĩ æ·ĭ
åĴĸåķ¡ è±Ĩ
ar g
ä¸Ģ å±Ĥ
åĴĮ åģ¥åº·
å²Ĺ ä½į
åĴĮ æ²»çĸĹ
è¿Ļ ä¹Łæĺ¯
çļĦç ¿
é«ĺ åĵģè´¨
æĻ ĵ
çļĦ æĦıæĢĿ
æº¶ æ¶²
ä»İ ä¸Ń
çļĦ åĲįåŃĹ
åİ¿ çļĦä¸Ģä¸ª
èĮ¶ åĮĻ
åħ¥ ä¾µ
æī¿ è¯º
å±± åĮº
ç² ĺ
æĺ¯ å¦Ĥä½ķ
èĬĤ çľģ
çļĦ æĸĩåĮĸ
åĨ° æ·ĩæ·ĭ
é£İ åĲ¹
è´ ¤
åĶ± çīĩ
åİ Ħ
æĪĳ åĸľæ¬¢
åĲ¯ ç¤º
é¥® çĶ¨
æĮī æĳ©
æĸ¹æ³ķ åĴĮ
å°¼ æĸ¯
åħī çħ§
ç§¯ ç´¯
åĨ ¯
åĪĨ æķ£
æľĢè¿ĳ çļĦ
çļĦ éķ¿åº¦
ä¸ŃåĽ½ äººæ°ĳ
è¡ į
å£° æĺİ
çĸ Ĩ
æ¶Ī éĻ¤
6 00
å¼ºè°ĥ äºĨ
ä»¥ åīį
æııè¿° ä¸Ģä¸ĭ
çļĦäºº çī©
å°ı äºİ
Ġ çĶ¨
é¡¹çĽ® çļĦ
é¥ ²
å¹¶ éĢļè¿ĩ
åįĵ è¶Ĭ
çĪµ å£«
Ġf rom
å»¶ éķ¿
éĺ² æĻĴ
æ¶Īè´¹ èĢħçļĦ
f er
çİī ç±³
ä¸»äºº åħ¬
æĪĸ æľįåĬ¡
r ou
èĥ Ģ
ä¿ĥ éĶĢ
æ¼« çĶ»
çĶµ åķĨ
åĴĮ å¤§
en c
çĳŀ å£«
è¿Ľ ç¨ĭ
al c
çļĦ åŃ£èĬĤ
ä¸Ĭ åįĪ
æ·± åĳ¼åĲ¸
çŁ ¶
Ġa m
å¥¥æŀĹåĮ¹åħĭ è¿ĲåĬ¨ä¼ļ
åĪļ åĪļ
Â ł
å¢Ļ å£ģ
çĽ¸å¯¹ è®º
å°ı çĭĹ
åĪĨ ç¦»
Ġ æ°´
æĪĳ è§īå¾Ĺ
ä¸ªäºº ä¿¡æģ¯
éĿĴ å°ĳå¹´
äºº æīį
è¯» ä¹¦
åıĺ éĿ©
éĶ Ĳ
å±ķçİ° äºĨ
åħ¶ä¸Ń ä¸Ģä¸ª
èģĮä¸ļ çĶŁæ¶¯
æ¸ Ķ
çļĦç¬ ĳ
èĳ± å§ľ
å¼º åĮĸ
çļĦ å¸Ĥéķĩ
æĪĳä»¬ ä¹Ł
Ġ ä»·æł¼
å¸¦ é¢Ĩ
åĪĽéĢł åĩº
æ°ĳ éĹ´
åĩł ä½ķ
Ġs c
æ¯ ¯
Ġ åĪ¶å®ļ
åĴĮ æĹ¶éĹ´
æĪĳ ä¸ºæĤ¨
æĬĺ æī£
å¤į åħ´
åĶ ĩ
åºķ éĥ¨
é¢ ĸ
æĪĲ å¹´
199 2
Ġ å¥½
å½ Ń
èŀį åħ¥
åį ĳ
æīĵ çł´
ĠS ystem
Ġim port
éĻ ĮçĶŁ
çľĭ åĩº
èļ ģ
æĢ» éĥ¨
çļĦäººåı£ æķ°éĩı
äººä»¬ å¯¹
Ġ up
é»ĳæ´ŀ çļĦ
im es
é«ĺ äºİ
åĵĪ åĪ©
éĿ ĸ
çļĦ åı¯
9 7
w e
è°Ī åĪ¤
åį¢ çĵ¦
çŃīæĸ¹éĿ¢ çļĦ
æ´ Ĵ
æĺİ äºĨ
å½ĵ ä½ł
ä¸º æĪĳä»¬
ä½ı å®¿
åįł æį®
19 50
å¤§ å¤§
éĢł åŀĭ
ä¸¤ äººçļĦ
Ġr andom
O S
ä» ĳ
çĸĳ éĹ®
åĭ ĭ
u g
èªī ä¸º
åĽ½æ°ĳ åħļ
å»º æĪĲ
æľīæīĢ å¸®åĬ©
åĴĮ çİ¯å¢ĥ
åĻ¨ çļĦ
æ·± æ·±
è·¯ æĺĵ
ç¡ ķ
æĮĸ æİĺ
Ġ åĩ½æķ°
çļĦ å»ºçŃĳ
ä»ĺ åĩº
è°¨ æħİ
ä»£ æĽ¿
ç²¾ åĩĨ
æľ¬ æ¬¡
åĲ¯ åıĳ
æľ ´
å¤´ éĥ¨
è¶ħ å¸Ĥ
ä¸įä»ħ åı¯ä»¥
8 7
Ġ4 0
æĪĲç«ĭ äºİ
çļĦäºº çĶŁ
åĽ½ åĬ¡
e ch
èķ ¾
ä¸ĢèĪ¬ æĿ¥è¯´
çļĦ å°ıè¯´
çŃ¾ ç½²
åĩł ç§į
æķ°æį® åĴĮ
èº« ä¸Ĭ
çĮ Ľ
Ġg o
ç¢ §
æĴ° åĨĻä¸Ģç¯ĩ
ut ton
ä¸ĢäºĽ åħ³äºİ
ä½ł è®¤ä¸º
å¥½ å¤Ħ
æİ¨ æĸŃ
å¤į åĪ¶
Ġ 200
åŀĥåľ¾ åĪĨç±»
p s
åĲį åı«
ver y
å»ºç«ĭ ä¸Ģä¸ª
éģĹ åĿĢ
ĠW h
çļĦ ä¸į
åĨħ æ¶µ
åĮħåĲ« äºĨ
é«ĺæķĪ çļĦ
çļĦ å£°éŁ³
ä¸º æ³ķåĽ½
åıĹ ä¼Ĺ
å¸Ĥåľº ä¸Ĭ
çº¿ æĢ§
åĽ¾ å½¢
å¹³ éĿĻ
æĸ° äº§åĵģ
é©± åĬ¨
a il
å¤©æ°Ķ é¢ĦæĬ¥
åĪĩ ç¢İ
ä»» æĦı
Ġ äº§åĵģ
Ġh as
å¼ķ çĶ¨
åıĳ èĤ²
è®¡ç®Ĺæľº ç§ĳåŃ¦
é¢ĳ ç¹ģ
åĿ İ
æŃ ĩ
çļĦ æĹ¥
èī °
å¢Ļ éĿ¢
æ¶Ī åĮĸ
åĬŁ æķĪ
æ½ ĺ
å·¥ äºº
çļĦ åĳ³éģĵ
å°Ĩ å®ĥä»¬
æ¸Ĳ æ¸Ĳ
Ġ1 3
æ²³ åĮĹ
åĮ Ī
éĻ· åħ¥
æ¼Ķè®² ç¨¿
éĢĢ åĩº
æııè¿° ä¸Ģä¸ª
æīĭ èĩĤ
å¯Ĵ åĨ·
æł· å¼ı
åŁĥ åıĬ
ç§¯ åĪĨ
å¯¹ åºĶçļĦ
ç¡ «
å°± èĥ½
åĩº èº«
åįģ åħŃ
è´¾ å®Ŀçİī
è·Ł è¸ª
ç©¿ è¶Ĭ
' m
åı¦ä¸Ģ æĸ¹éĿ¢
æīĵ ç®Ĺ
çĲĨ çĶ±
$ ãĢĤ
U TC
åĽ½ ç«ĭ
çħ¸ çĤĴ
ä¸Ģ åĲĮ
éĥ¨ ä»½
åħ³æ³¨ åĴĮ
å·¥ä½ľ åĴĮ
Ġbre ak
Ġ ä¸ª
å¦ ¥
åı£ ç½©
çļĦ æĢģåº¦
èī¾ ç±³
æ²¡æľī ä»»ä½ķ
æĸ¯ ç§ĳ
Ġt ext
è¿ĺ ä¼ļ
INSE E
Ġt ime
ä¹¡ éķĩ
æĪĳ å¸ĮæľĽ
ä»£ åħ¥
åľ¨ è¯¥
éĥ Ĭ
åı¯ åı£
æĹ§ å¸Ĥéķĩ
æĺ¯ ä¸ª
èµĶ åģ¿
A pp
5 2
èľľ èľĤ
æĤ¨ å¥½
æ¯Ķ åĪ©
éļ¾ å¿ĺ
å·¥ä½ľ ä¸Ń
A C
çļĦç¤ ¼
æĸ°é²ľ çļĦ
å¡ŀ å°Ķ
æľī çĽĬ
è·³ è·ĥ
ä¹Ł åı¯èĥ½
p an
æĭ¼ åĨĻ
is e
æ´»åĬ¨ çļĦ
éļ¶ å±ŀäºİ
éļ¾ é¢ĺ
çİ° æĹ¶
æĺ¯ä¸Ģ å®¶
æľī ä¸įåĲĮçļĦ
Ġ è¾ĵåĩº
ç©º åĨĽ
æ¹¿ æ¶¦
çļĦ éĥ¨åĪĨ
èıľ è°±
åħīåĲĪ ä½ľçĶ¨
æľī æ°§
å°ļ æľª
è¯Ħ å®ļ
åĳ¨ éķ¿
éĩį åºĨ
æ³ķ åºŃ
å¥¥è¿Ĳ ä¼ļ
Ġ5 00
åį³ å°Ĩ
æľĢ éĢĤåĲĪ
éħ ·
5 7
éļ§ éģĵ
çĪ ¸
m l
ç¼ ´
5 4
è¿ľ ç¨ĭ
åį± å®³
ä¾ ł
æįŁ å®³
æ¼Ĥ äº®
Ġs ome
æ³ķ åħ°
æĪ¿ åŃĲ
è®²è¿° äºĨ
å°ĳ æķ°
ä¹Ł è¢«
æĿİ æĺİ
Ġ6 0
æ° ¯
ä¹Ĳ åĽ¢
çº§ åĪ«
ç¬ĳ è¯Ŀ
æł¡ åĽŃ
æ°ĳ ä¼Ĺ
èĩªçĦ¶ çļĦ
çİĩ ä¸º
S cript
æĪĳ çĽ¸ä¿¡
ä¼ ŀ
å¤ ·
ä½ł æľīä»Ģä¹Ī
ä¸ Ļ
ãĢįãĢģ ãĢĮ
è¥¿ çº¢
å± ¥
ä¸ĭè¾ĸ ä»¥ä¸ĭ
Ġcon t
å°Ķ çī¹
çļĦ å®¶åºŃ
ç½ ķ
çļĦçģ ¯
åįĩ é«ĺ
6 9
æľ¨ æĿĲ
å¸Ĥ éķ¿
çĶµè§Ĩ åı°
è®® éĻ¢
èħ º
åĩĨç¡® æĢ§
å¹´ è¢«
åĲĮ åŃ¦
çī¹çĤ¹ åĴĮ
è¯´ è¯Ŀ
çłĶç©¶ æīĢ
éĥ¨ ä½į
æ¸© åĴĮ
ä¼ļ è¢«
å¿½ è§Ĩ
åĢ¼å¾Ĺ ä¸Ģ
ä¼° è®¡
ä»ĭç»į äºĨ
ä¸ļ ç»©
å¹´ å¤ıåŃ£
è½® èĥİ
çļĦ éķ¿
æĿ¡ çº¦
at ch
f e
å¼Ģ æĶ¯
æµ ©
ä»ĸ æĽ¾
åħ¬ ä¸»
ä¿¡ å¿ĥ
ä¸Ń å¼ı
è¥¿çº¢ æŁ¿
æķ´ éĻ¤
æŀ «
è¶ĬæĿ¥è¶Ĭ å¤ļ
èĩªå·± åĴĮ
éĤ®æĶ¿ ç¼ĸçłģä¸º
è¿Ļ å°±æĺ¯
ä½Ĩ å®ĥ
çº¢ éħĴ
æĮĩ æķ°
åįĹæŀģ æ´²
çĭ ¸
é¡¾ éĹ®
åĪĽ åĬŀ
åı£ åı·
çļĦ æķ°åŃĹ
æĺİ æĺŁ
ç¬¬ ä¸ĥ
ç®Ģ è¦ģ
åĿ ª
åľ° åĪ©
å¸®åĬ© æĤ¨
äºº åĬĽ
ind ows
åĸĦ äºİ
èĩªåĬ¨ é©¾é©¶
I T
å½Ĵ çº³
æ¶Ĥ æĬ¹
å¼Ģ å¿ĥ
ç¥ŀ è¯Ŀ
ord er
æĺ¯ ä»¥
or y
æĥ³æ³ķ åĴĮ
Ġa pp
ä¸İ ä»ĸäºº
5 9
é©¬ å°Ķ
è¿ĺ åİŁ
åĽ° å¢ĥ
è¡Ģ æ¶²
ation s
å¤ªéĺ³ çļĦ
æĹ¶æľŁ çļĦ
å®³ æĢķ
äººæ°ĳ å¸ģ
ä»·åĢ¼ åĴĮ
word s
æĿĥ åĬĽ
199 3
èĩªçĦ¶ çķĮ
çħ§ æĺİ
çĶŁæĢģ çİ¯å¢ĥ
æİĪ æĿĥ
ç¥ŀ å¥ĩ
ãĢģ ï¼Ī
ä¸¤ ä¸ªäºº
è®©äºº æĦŁåĪ°
å¹¶ä¸Ķ åľ¨
å½» åºķ
åį ¸
éķĩ åĮº
æĸ¯ çļĦ
æ¯ķä¸ļ äºİ
ä¹ĭ æĹħ
ç»Ĩ èħ»
ç© ´
å¯¼ èĪª
T r
æľįåĬ¡ åĳĺ
æĪĳ è¦ģ
èĨ ı
æıĲåıĸ åĩº
ä»ĸä»¬çļĦ å¯¹è¯ĿåĨħå®¹
æµĵ åº¦
es e
æıĲé«ĺ äºĨ
æııè¿° äºĨ
ä¸ĭ å±ŀ
åĪĽ æĸ°çļĦ
è½¦ åŀĭ
å¹½ é»ĺ
å¦Ĥ ä»Ĭ
çĸ ¼
æľº éģĩ
å² ³
åįķ åħĥ
å°ĳ çļĦ
å°ĳ éĩı
èĢģ å¹´
ä¸¤ ä¾§
åĴĮ ä¸ªäºº
æĪĲåĬŁ åľ°
éĢĢ ä¼ĳ
æķĮ äºº
æĶ¶ èİ·
åįİ çĽĽ
ç² ¹
ä½į æķ°
æĽ´ æĶ¹
è¯ķ è¯ķ
re d
Ġ è¯¥
é¢ľèī² çļĦ
åĪĽä½ľ ä¸Ģé¦ĸ
å´ ©
çļĦç ¦
ï¼ļ ãĢĤ
ç±³ çļĦ
æĸ°éĹ» æĬ¥éģĵ
æİ¥å£¤ çļĦå¸Ĥéķĩ
å» Ĭ
ç¾İ å¦Ļ
ä¸¥éĩį çļĦ
èģĶåĲĪ åĽ½
ĠéĿŀå¸¸ æĦŁè°¢
çºł çº·
Ġ æĪĳä»¬
w ay
Ġ all
197 0
ä¸ĸçķĮ å¤§æĪĺ
æĸ¹å¼ı åĴĮ
çİ° æľī
çļĦéĩįè¦ģ ç»ĦæĪĲéĥ¨åĪĨ
m er
194 9
ä»¬ çļĦ
çİ Ħ
æĮ ¤
åħ¬ è½¬
èĹ ¤
éľĢè¦ģ ä½¿çĶ¨
è± ¹
æķ° çĻ¾
äººæ°ĳ æĶ¿åºľ
åģ¶ æķ°
åĤ ¬
åįĹ åĮĹ
å¨ģ å°Ķ
D P
å¤§ ä¼Ĺ
éĢĶ ä¸Ń
çĮ ´
ç§» æ°ĳ
å¸¦ çĿĢ
æ±Ĥ è§£
r and
åĸľ åī§
æĮ ¡
é¥¼ å¹²
å¢ŀ æ·»
åĬ¨çī© çļĦ
åįİçĽĽ é¡¿
çļĦç ı
å¹´ å¼Ģå§ĭ
åıĳ èµ·
å¾® ç¬ĳ
åĿļ å®ļ
åĢ¼ ä¸º
æĵħ éķ¿
éľ ¸
" "
Ġ ï¼Į
Ġ John
å°¼ åħĭ
éĽ Ģ
åĩĨç¡® çļĦ
æ¸©å®¤ æ°Ķä½ĵ
rac t
æĺİæĺ¾ çļĦ
éģ Ĥ
c ess
åĸĦ èī¯
å¯¹ åºĶ
æĺİç¡® çļĦ
è®¤è¯Ĩ åĪ°
æłĳ åı¶
åĨ° å·Ŀ
ç¼ Ģ
å¹¶ æł¹æį®
äº§ æĿĥ
åľ¨ è¿Ľè¡Į
ri d
éĹ®é¢ĺ åĴĮ
æĹ¥ çĽĬ
è¦ģ ç´ł
æī Ń
æ´Ľ æĿī
ä¹Ł å°Ĩ
åĭ ¾
å®ŀ è¡Į
å¸ĥ é²ģ
å¾Ī å®¹æĺĵ
æķ°æį® è¿Ľè¡Į
å«Įçĸĳ äºº
å¤§ åİ¦
sq rt
åľ° è´¨
å¥¥ åľ°åĪ©
æıĲé«ĺ èĩªå·±çļĦ
æİªæĸ½ æĿ¥
éĢłæĪĲ äºĨ
æĬĳ éĥģ
æ´ĽæĿī çŁ¶
åħ¶ä»ĸ äºº
æĥħ å¢ĥ
ä¸īè§Ĵ å½¢çļĦ
èĽ Ľ
ä¸ľ æĸ¹
çħ ¤
é»Ħ çĵľ
çļĦç ª
Ġab out
--- |
çļĦçĭ¬ çī¹
å¥½ äºĨ
åħħè¶³ çļĦ
ä¸ĭ åİ»
èĥ½ ä¸įèĥ½
çĹĽ èĭ¦
¬ éĹ´
åĪĨ æĶ¯
198 4
y pe
æŀ ¢
çļĦçĤ ¹
çļĦçľģ çº§
[ '
æ¤ İ
é£ ĵ
an c
çļĦ æĶ¯æĮģ
èĳ¡èĲĦ çīĻ
åı¯åĨįçĶŁ èĥ½æºĲ
çļĦç ķ
è£ħé¥° åĵģ
æĻ¯ è±¡
åĲİ ç»Ń
çĳŀ åħ¸
äºİ æĹ¶
å¤ıä»¤ æĹ¶
å¹´ç¾İåĽ½ äººåı£æĻ®æŁ¥
è¡ «
è½ °
æį ī
s s
éĢī åĮº
å¤ĩ åıĹ
éĹ» åĲį
æ·±è¿ľ çļĦå½±åĵį
åħ´è¶£ çĪ±å¥½
C l
æĭī ä¸ģ
é£ĵ é£İ
éĥ¨ ä»¶
ç§ĳ æĻ®
çļĦ åı£æĦŁ
æ¯Ķå¦Ĥ è¯´
éĹ° å¹´
æį ŀ
Ġ å¾Īå¥½
è´¨ æķ°
èµĦ è®¯
æıĲ åĪ°äºĨ
èµĦ æľ¬
åıĻ è¿°
çļĦ æ¸©åº¦
èĩªæ²» åĮº
æĬµ è¾¾
å®½ åº¦
çļĦçħ §
åıĳ éŁ³
é«ĺ çŃī
ä¸ªæĢ§ åĮĸçļĦ
ä¿® åīª
æĺŁ æĺŁ
åĲ¬ ä¼Ĺ
ĠĠĠĠĠĠĠĠ ĠĠĠĠ
é² į
å¤ļ å¹´
å¹¶ çĶ¨
çĻ» å½ķ
å²Ľ å±¿
æķĻ åĮº
ä¸Ń ä½¿çĶ¨
åľ¨ æŁĲäºĽ
ä¸ŃåĽ½ åħ±äº§åħļ
Ġè¿Ļ æĺ¯ä¸Ģä¸ª
è°ĥ çłĶ
ä¸İ åħ¶
ä» ĩ
ä½ľ æĽ²
å¸Ĥéķĩ ç¼ĸçłģä¸º
åĽŀ å¤į
ä¿¡æģ¯ åĴĮ
INSEE å¸Ĥéķĩç¼ĸçłģä¸º
æ´Ĺè¡£ æľº
åľĨ çļĦ
è¾ĥ å°ı
èĸ Ľ
æĶ¶ èĹı
æŀĹ é»Ľçİī
ä¸į éĢĤ
æľīäºĽ äºº
éĵ ħ
åĻ¨ å®ĺ
æ³¢ çī¹
Ġ< <
æ© ¡
èĬ ¯
å¿½ çķ¥
éĿĴ æ¤Ĵ
åĬŀ æ³ķ
çļĦ æĿĲæĸĻ
è¿½æº¯ åĪ°
æľī æĦıä¹ī
198 8
åĪĨ è£Ĥ
ä¿ Ĭ
åĬł éĢŁåº¦
æĺ¯ä¸Ģ åº§
ç¨İ åĬ¡
çļĦç³ »
æĬ½ è±¡
è¿Ļ éģĵ
å£ ¶
è¾¾ åĪ°äºĨ
åı¯ä»¥ çĶ¨æĿ¥
ä¸¤ æ¬¡
/ /
è¢« èªīä¸º
5 000
6 2
åı¯ä»¥ å°Ŀè¯ķ
199 1
çļĦäººåı£æķ°éĩı ä¸ºäºº
æľīä¸Ģ å¤©
åľ¨è¿Ļç§į æĥħåĨµä¸ĭ
19 60
æĪĲ äºĨ
ing s
å¯¹ å¾ħ
è®© æĤ¨
çļĦç½ĳ ç«Ļ
è¿Ļä¸ª åı¥åŃĲ
äºİæĹ¶ çļĦäººåı£æķ°éĩıä¸ºäºº
åĵģçīĮ å½¢è±¡
å¹¶ ä»¥
éĢī åĮºä¸º
å®ī å¾½
æĥħ åĴĮ
åİ» äºĨ
å¹¿ éĺĶ
ç®Ģåįķ æĺĵ
ä¸»æĮģ äºº
é¢ľèī² åĴĮ
è¿Ļ æľīåĬ©äºİ
çĪ±å¥½ èĢħ
å°ı é¸Ł
å»¶ ä¼¸
åĢĻéĢī äºº
æķ´ æ´ģ
è¯¥ çľģä»½
æ·Ģ ç²ī
Ġ ro
åıĳçĶŁ åľ¨
æĪĸ æĹ§å¸Ĥéķĩ
çļĦ æŃĮæĽ²
Ġ è¯·éĹ®
a i
åĮºåĿĹéĵ¾ æĬĢæľ¯
åı· çłģ
å®īåħ¨ çļĦ
åľ¨å®¶ éĩĮ
çĽ ²
æīĢå±ŀ çļĦçľģçº§
æīĢå±ŀçļĦçľģçº§ éĢīåĮºä¸º
Ġ ä¸Ģä¸ª
åı° é£İ
ĠTr ue
æĽ´ æ·±åħ¥
éļĲ èĹı
å¤§ ä½¿
Ġ end
å°ı å¿ĥ
åı¯ çĪ±
åķĨ å®¶
æĪĳä»¬ å¯¹
ï¼ļ ï¼Ī
åĦ Ĵ
ay er
Ġfor m
åķĨ åľº
åı£ ç¢ĳ
ä¸¤ ä½į
èĲ¥ ä¸ļ
åĻª éŁ³
äº Ń
èį¯ åĵģ
èĢģ é¼ł
çļĦ åĪ¶ä½ľ
ä¸Ĭ æľī
ä¸ĭ ä¸Ģ
èĩªçĦ¶ çİ¯å¢ĥ
çĹħ ä¾ĭ
un ction
åĽ½ éĺ²
é«ĺéĢŁ åħ¬è·¯
è®© ä»ĸ
çļĦ è§Ĵèī²
çº¿ ç´¢
ä¹ĺ åĿĲ
è¯¥çľģä»½ ä¸ºæ³ķåĽ½
åħ¬ åĪĨ
çģ« ç®Ń
ç¿»è¯ĳæĪĲ ä¸Ńæĸĩ
èĩ³ äºİ
æľ¯ è¯Ń
åĪ ¹
åĪĽæĸ° åĴĮ
å®ĮæĪĲ äºĨ
app end
éĥ½ è¢«
å¾Ī ä¸įéĶĻ
æĸ½ èĤ¥
å¹¶ æıĲåĩº
ä¸ĭè¾ĸä»¥ä¸ĭ åľ°åĮº
åĪĨ åī²
è¯· æ³¨æĦı
éĩĳ çīĮ
ä½Ĩ ä¹Ł
ç«Ļ åľ¨
è®° å¾Ĺ
è®¤ åĲĮ
R O
æĮĳ éĢī
éĹ ¹
194 5
ç»Ļ æĪĳä»¬
od y
æĹħ å®¢
ä¹Ĳ è§Ĥ
çĮª èĤī
C O
5 3
ç Ģ
åıįæĺł äºĨ
çļĦ ä¸Ń
æĺ ¨
åİ¿ äºº
ä»½ é¢Ŀ
çŁŃ æļĤ
çĳ ļ
ç« Ł
tr ing
èĬ ½
åĲĦ ç±»
éħ ¶
æ¢³ çĲĨ
å®ī å¾·
æ°Ķ åİĭ
åľ¨ åħ¶
åŀĤ çĽ´
ä¹ł æĢ§
å»ºç«ĭ èī¯å¥½çļĦ
.. ..
6 3
åı¦ ä¸Ģç§į
åĻ¨ åĴĮ
å¼ķ äºº
éģŃ åıĹ
çļĦç¬¬ äºĮ
åĪ¶ä½ľ ä¸Ģä»½
çļĦçĻ ½
ä¸İ æŃ¤
å¥½ å¥ĩ
ä¼ļ åĳĺ
æĬ Ľ
p i
æŀģ åħ¶
S A
é¦ĸ éĥ½
å¼Ģ åĲ¯
åįĹ æĸ¹
äºĳ è®¡ç®Ĺ
èŀį åĮĸ
ä¼ł æĦŁ
çļĦè¯Ŀ é¢ĺ
åŀ Ĵ
åıĳ æİĺ
è¡£ çī©
æŀ¶ æŀĦ
ä¸ĭ éĿ¢çļĦ
åī Ĭ
åĬĽ åº¦
é¢Ĩå¯¼ èĢħ
èħĮ åĪ¶
å¹¶ æľª
å®ª æ³ķ
éĴ ¥
æıĲä¾Ľ ä¸Ģä»½
çİĭ åŃĲ
åħ¨ æĸ°çļĦ
æ±ī åł¡
çļĦç ĳ
çļĦä¸Ģ åº§
è¿Ľè¡Į æİĴåºı
æĺ¯åĲ¦ ä¸º
ä½Ĩ ä¸į
å½± åĥı
9 2
åĽ½ çļĦ
æł¡ éķ¿
ä¸ĭ è½½
æ¯ı æľĪ
ç¥ŀç»ı ç½ĳç»ľ
Ġ æıĲé«ĺ
ä¸Ĭä¸ĭ æĸĩ
æĪĳä»¬ è¿ĺ
u al
åİŁ æĿ¥
åĲĮ ä¹īè¯į
éĩĳ æĺŁ
çļĦçĪ¶ äº²
å®¢ æ°Ķ
èĨ ¨
è¿Ļ åıª
å¼ķèµ· çļĦ
M L
çļĦçľŁ å®ŀ
éĢĿ ä¸ĸ
æ¹ĸ åĮĹ
æĪĳ æ²¡æľī
æķħäºĭ æĥħèĬĤ
æĸ¹æ³ķ æĿ¥
æĴ¤ éĶĢ
åĲİ æľŁ
åħįçĸ« åĬĽ
alc ul
ãĢĭï¼Ī "
çĽ¸ä¼¼ åº¦
å®ŀ çĶ¨çļĦ
in a
Ġ8 0
æīĭ çİ¯
éĻį éĽ¨
ä¸ Ī
å± ¯
èİ· èĥľ
ä»ĺ æ¬¾
æ Ĩ
å¼ı çļĦ
é¢Ĩ åħĪ
çļĦç ¢
ï¼ģ âĢĿ
æľī çĶ¨çļĦ
åıĳçĶŁ çļĦ
åĵ¥ ä¼¦
æ½® æµģ
ä»£çłģ ä¸Ń
ç²¾ èĩ´
æī§ å¯¼
ä¸ĩ çī©
åĨľ æ°ĳ
å¸Ĥåľº èĲ¥éĶĢ
æĽ´ åħ·
åı Ķ
åĴĮ æµ·
çĶ» ä½ľ
çļĦçł ´
åŃĺåľ¨ çĿĢ
è¡Ģ ç®¡
5 1
ä»¥ä¸ĭæĺ¯ä¸Ģ æ®µ
æĶ¯ æı´
åħ¶ ä½Ļ
å¤§ è±¡
æĹł å°½
åĮ»çĸĹ ä¿Ŀåģ¥
ä»ĸ å¯¹
ä½ľ ä¸ļ
éĢļ éģĵ
åı¯éĿł æĢ§
i us
ç¾İ æľ¯
æĬ ¬
Ġ ä»¥ä¸ĭæĺ¯ä¸Ģä¸ª
åįĬ å²Ľ
ä»¥ä¸ĭåĩł çĤ¹
å± Ī
æ° ®
äºĮ ä¸ĸ
æıĲ åĲį
æ²¿ çĿĢ
çĤ¹ åĴĮ
å®¢æĪ· æľįåĬ¡
å°Ķ åħ°
çĶ¨ ä½ľ
æĿ¿ åĿĹ
æĺ¯ å°Ĩ
çĶŁæ´» åľ¨
ä¸½ èİİ
è¿Ļ ä½į
ç¡® è¯Ĭ
çŃ¾ è®¢
ä¿Ŀ æ¹¿
ä¸Ģ å¸¦
å®¶åºŃ çļĦ
è¿ĻäºĽ ä¿¡æģ¯
çĶµ åı°
çī©è´¨ çļĦ
é²ľ èī³
éĩı åĴĮ
å¦Ĥ åĲĮ
èµ Ĳ
ä¿¡çĶ¨ åį¡
é¦Ļ æĸĻ
æ¯ı ç§į
çĥŃ æ°´
å®¶ éĩĮ
å½±åĵį åĬĽ
èĪ° éĺŁ
è¡ ¬
åį ¿
èģĮ åĬ¡
åĪĳ äºĭ
å¤ļ é¡¹
è°ĥåĳ³ æĸĻ
é² ¨
åŁİå¸Ĥ è§ĦåĪĴ
è¿ľ ç¦»
ç«ĭ åľº
è¡Į èµ°
ä¸º åŁºç¡Ģ
Ġc lass
æĺ¯ æĪĳ
è§£ é¢ĺ
åħ¨ éĿ¢çļĦ
i er
åĲī ä»ĸ
æ¶Ī æŀģ
éĢ ¼
ï¼Į ãĢĮ
åĿĲ åľ¨
è¢Ń åĩ»
æŃ§ è§Ĩ
åİŁ æĸĻ
çĽĪ åĪ©
Ġ out
ç²¾ å½©
éĵ¶ æ²³
ci al
Ġ ä¸º
åĮħæĭ¬ ä»¥ä¸ĭ
æºĲ äºİ
åĪ¶ çļĦ
åĨħ åľ¨
å°± è¯»
è§Ĵ èĲ½
ä¸Ģ éĥ¨åĪĨ
é«ĺ ç«¯
åŃĲ å¥³
å¯¹ æŃ¤
èµ ģ
l n
å· ¢
çģ« çģ¾
å®¢ è§Ĥ
æĿ¥èĩª äºİ
æĶ¹ éĢł
æĹ¥ åĨĽ
éĿ¢ä¸´ çĿĢ
åıĺ ä¸º
åĴĮ æķ°æį®
å¹´ åĴĮ
å¤§ èĩ´
ä»ĸ è¿ĺ
çī© ä¸ļ
åħ³ çĪ±
ç§Ł èµģ
ä¸Ģä¸ª å°ı
å¾® æ³¢
éļı èĳĹ
ä½ł è§īå¾Ĺ
éĢłæĪĲ çļĦ
åİŁ åĳĬ
Ġv al
éĥ½ éĿŀå¸¸
åº§ ä½į
Ġè¯· ç»ĻæĪĳ
åºŁ å¼ĥ
æľĢ èĳĹåĲįçļĦ
åĲ ģ
æĺ¯ ä¸ĭè¾ĸçļĦä¸Ģä¸ª
æĶ¶ åĪ°
æĢ» çĲĨ
çĶµåŃĲ åķĨåĬ¡
ç¾İ å®¹
ç»ıæµİ åıĳå±ķ
ĠY ou
is s
ä¿ĿæĬ¤ çİ¯å¢ĥ
èµ¢å¾Ĺ äºĨ
å±Ĭ åħ¨åĽ½
# #
æ¦Ĥ è¿°
çĤ ĸ
çİĩ åĴĮ
ä¹ĺ æ³ķ
è¥¿çıŃçīĻ è¯Ń
åľ° å½¢
è· Į
Ġoper ator
ä¸Ń å±±
é¢ĺ æĿĲ
éĿ¢ éĥ¨
æĸ° æīĭ
æĭī åħĭ
i gh
çļĦ éĤ®æĶ¿ç¼ĸçłģä¸º
å¤ ¸
å·¥ä½ľ æķĪçİĩ
æĦı ä¸º
è½¬ åĲĳ
æ£ķ èī²
A r
è¯ķ éªĮ
è¿ĺæľī ä¸ĢäºĽ
æ´» è·ĥ
å»º åĪ¶
èĢĮ éĿŀ
åĽł èĢĮ
äºļ é©¬
èķ ´
æ¯ĶèµĽ çļĦ
åĨħ ç½®
åıĤä¸İ èĢħ
198 9
ä¸»è¦ģ çļĦ
çĶ» å®¶
åºĶ æĢ¥
åħ¬ æĸ¤
ç´« èī²
æ² «
ä¹ĭ æĥħ
Ġ åŃ¦ä¹ł
åĨ »
èĵĿ èī²çļĦ
æ¡¥ æ¢ģ
å¹² æĹ±
èµŀ æī¬
äººä»¬ åľ¨
æīį åįİ
ä¸ĥ å¹´
æĹ¶ ä»»
çļĦ è¦ģæ±Ĥ
ä¹ ¾
åĬŁèĥ½ åĴĮ
Ġ èĥ½åĲ¦
ä¼´ ä¾£
èļ Ģ
åıĳ éħµ
ä¿® æŃ£
å¤§ è¥¿æ´ĭ
ä¿¡ å¿µ
ä»¥ ä¿ĿæĮģ
æŀģ å¤§çļĦ
D I
åı¬ å¼Ģ
å®¶ åĽŃ
å®ŀ åĬĽ
è¡Įä¸º åĴĮ
çļĦ èīºæľ¯
ç¬Ķ è®°
åĪĹ ä¸º
çļĦ ä»£çłģ
åĪ« äººçļĦ
è´¢åĬ¡ çĬ¶åĨµ
å¼ ĺ
çģŃ ç»Ŀ
è¯ŃéŁ³ è¯ĨåĪ«
æ©Ļ èī²
æĺ¯ä¸Ģç§į éĿŀå¸¸
æľĪ èĩ³
å¥½ çľĭ
c olor
er v
Ġ ä¸Ģ
æŃ£æĸ¹ å½¢
ä½ĵ åŀĭ
() ;
J ack
ä»¥ä¸ĭ éĹ®é¢ĺ
éĢĥ èĦ±
æ¯Ľ åıĳ
åĲ¸å¼ķ åĬĽ
èĨ¨ èĥĢ
åĲ¬ åıĸ
çĽ¸ éģĩ
å¤§ éģĵ
éĢļå¸¸ åľ¨
Ġch oice
8 4
æµģè¡Į éŁ³ä¹Ĳ
çļĦ å¸®åĬ©
æĪĳä»¬åı¯ä»¥ å°Ĩ
å°½åı¯èĥ½ åľ°
åħ¨ éķ¿
è¯´æĺİ ä¹¦
æº ¢
n o
ç»© æķĪ
æ¬¢ ä¹Ĳ
æĺ¯ä¸Ģä¸ª éĿŀå¸¸
èĩªèº« çļĦ
èĪ Į
è®© èĩªå·±
è§Ĩ éĩİ
æĤł ä¹ħ
Ġ 2021
å®ĥ å°Ĩ
å¤ª å¤ļ
ĠéĿŀå¸¸ å¥½
åĬ ²
è¦ģ ä¿ĿæĮģ
ä¸į åıĺ
ç¯ĩ æĸĩç«ł
7 1
æķĻ ç¨ĭ
ç§ĳ çļĦ
i Phone
éĿ¢ èĨľ
Ġa c
è½»æĿ¾ åľ°
çļĦçĹ ħ
äº¤æµģ åĴĮ
èģļ éĽĨ
é£İ åĳ³
Ġ1 4
åĩº åĶ®
çĶŁ çļĦ
am es
åįķ ä¸Ģ
æĪĲ éĥ½
æĪĲ ä¸Ģä¸ª
æĻºèĥ½ æīĭæľº
en er
ä¸ŃçļĦ ä¸Ģä¸ª
å½Ĵç±» ä¸º
Ġ Q
v el
åħī çļĦ
åı¯ä»¥ å¢ŀåĬł
åľ¨å®¶ ä¸Ń
çĽ´ çº¿
æĸ° åħ´
7 3
å¸¸ çĶ¨
Ġw ill
éĵģ éģĵ
éĺ² å®Ī
æł ª
åı¤èĢģ çļĦ
éĴ ĵ
ç¨İ æĶ¶
å¸Ĥåľº çļĦ
ä½ł æĥ³
åľ¨ è¿ĩåİ»
çº§ è¡ĮæĶ¿
ç¤ ģ
å¾® é£İ
åįģ ä¸Ģ
çĶ¨æĪ· åı¯ä»¥
å¿ĺ è®°
ä½ĵ éķ¿
å¹¿ä¸ľ çľģ
äº¤ åıī
åĨĻä¸Ģ æ®µ
ä»¥ ä¿Ŀè¯ģ
å®¡ åĪ¤
çº³ ç¨İ
t o
ï¼ī .
æĮ º
è®© å®ĥ
æĿ¥ ç¡®å®ļ
åķ ¤
æ´ª æ°´
èĤ¡ ä»½
Ġ éļıçĿĢ
ä»¥ æ»¡è¶³
ä¹Ł æ²¡æľī
ä¹Į åħĭåħ°
æľī åı¯èĥ½
å¹¿æ³Ľ çļĦåºĶçĶ¨
çĲĨ æĢ§
ä¹Ļ æĸ¹
an ana
8 3
è£ ¹
åħ± é¸£
èĢĲ å¿ĥåĴĮ
æĳ ¸
å®¢ è¿Ĳ
æĢĢ çĸĳ
åı¯ä»¥ åĩıå°ĳ
åįģ åħ«
å¥½ åıĭ
éĹ® åį·
è± «
åħ¬åħĥ åīį
çķĻ åľ¨
198 5
Ġ åħ¶ä»ĸ
er se
æĳ© å°Ķ
ç»´ äºļ
è°¢è°¢ ä½łçļĦ
å¯¹ æĬĹ
6 1
Q L
èĮ¶ åı¶
éĢ ¢
åģļ åĪ°
å¦Ĥä½ķ ä½¿çĶ¨
åįİ ä¸½
çļĦ çī¹å¾ģ
æŀģ ä¸º
åł ª
çŁ¿ çī©è´¨
å¸® å¿Ļ
æ¬§ åħĥ
æĺ¯ å¤ªéĺ³ç³»
Ġm ax
åĶ ¤
åĲ¯ çĶ¨
åĳ¼ åĲģ
äº¤éĢļ æĭ¥åłµ
èµĦæºĲ çļĦ
çļĦç¬¬ ä¸Ģ
éģĵ åħ·
ç¡¬ ä»¶
çļĦ ç»ĵæŀĦ
æ¾ ¡
åĢº åĬ¡
ä»ħ ä»ħ
Luc y
äºº å¤§
è·Ł éļı
å½±åĵį äºĨ
å¹¶ è¿ĶåĽŀ
äºļé©¬ éĢĬ
å¸ Ĳ
éŁ³ä¹Ĳ ä¼ļ
ä¸Ĭæµ· å¸Ĥ
æĤ¬ æĮĤ
et er
æķ ŀ
è¾¹ éķ¿
å¾· è¯Ń
ç¨ĭåº¦ ä¸Ĭ
æ³¢ éĤ£
9 3
åİļ çļĦ
éħ¸ å¥¶
çŁ ®
Ġc ount
çļĦ çĽ®çļĦ
çº¢ èī²çļĦ
= =
è¯ ±
èĬ± çĶŁ
æ·± å¤Ħ
æĺ¥ èĬĤ
åĬ «
è¿Ľ åº¦
éĻĲ äºİ
Python ä»£çłģ
æĽ´ å¤§
æľº çļĦ
åı¯ä»¥ å¾ĹåĪ°
å±ŀ ä¸ĭçļĦä¸Ģä¸ª
éĵ Ń
7 4
Ġc ol
ç»Ļåĩº ä¸Ģä¸ª
çīĻ é½¿
a w
if ic
åĩº ç§Ł
il d
ï¼Ī "
éŀĭ åŃĲ
æİĴ æ°´
æµ· åŁŁ
å½¼ å¾Ĺ
num bers
æº ĥ
ä¼Ĭ æĸ¯
æľ¬ åľŁ
åĮº åĪĨ
ä¸į æ»¡
å®Ŀå®Ŀ çļĦ
çĶŁæĪĲ ä¸Ģç¯ĩ
æľŁ éĻĲ
æ¯ıä¸ªäºº çļĦ
Ġ ä¸ºäºĨ
Ġd is
âĢĭâĢĭâĢĭâĢĭ âĢĭâĢĭâĢĭâĢĭ
åıį è½¬
æĮĩ æİ§
d ate
Ġ éĢļè¿ĩ
ä¸¤ èĢħ
å¾® ä¿¡
åħ´è¶£ åĴĮ
èı Ĭ
æĪĳ æĹłæ³ķ
æ³¢éĤ£ å¥ĳ
oc k
æ²ī æµ¸
çļĦ åĲįç§°
å¦Ĥæŀľ æľī
åĬł åĪ©
ä»İ æŃ¤
Ġb ut
â Ķ
åĽ½åĬ¡ éĻ¢
è®° ä½ı
a de
åı° ä¸Ń
æıĲä¾Ľ æĽ´
åı¯æĮģç»Ń æĢ§
æĸĲ æ³¢éĤ£å¥ĳ
æīĭ å·¥èīº
çī ¢
eng th
ent s
å®ĥ ä¼ļ
p lo
ä»İ æľª
app le
æĹ¥å¸¸ çĶŁæ´»
ĠA l
å·¥åħ· åĴĮ
å ļ
è¿ĻäºĽ éĥ½æĺ¯
ï¼ļ $
è¿Ļ ä¹Ī
åĭ Ł
ä»·åĢ¼ çļĦ
ä»£ çĲĨ
Ġ å¤ļ
æĳĦ åĥı
n ow
é«ĺ éĽĦ
å½¼æŃ¤ çļĦ
èĢĮ è¢«
ä¸»è¦ģ åĨħå®¹
éľĢè¦ģ å¯¹
Ġd es
åĬłå¼º å¯¹
ä»£è¡¨ çĿĢ
åį µ
ç»Ī çĤ¹
èĲ¥åħ» æĪĲåĪĨ
æł ĭ
å° ¸
éº¦ åħĭ
ä¸Ģ åº¦
åı¯ä»¥ çľĭåĩº
å¦Ĥæŀľ æĺ¯
c ur
ç¼ ł
ç§ĭ åŃ£
ä¸Ģ ä¸ĸ
çº§è¡ĮæĶ¿ åįķä½į
éľĢè¦ģ å°Ĩ
å°ı æĿİ
åıĹ å®³
çī¹åĪ« æĺ¯åľ¨
æĶ¹åıĺ äºĨ
Ã ¡
ç¼ĸ åĨĻä¸Ģç¯ĩ
åħ±åĲĮ åĬªåĬĽ
æĦ ¤
å·¥ä½ľ çļĦ
Ġi d
è´ ª
Ġ æľĢè¿ĳ
åħ³ èģĶ
j ect
è¿Ļ éĥ¨
ä¸ĭ éĽ¨
æī ģ
ä¸Ń æĢ§
èģĮä¸ļ åıĳå±ķ
éķ¿åº¦ ä¸º
ĠA I
å¤§ èĩ£
æł¹æį® ä»¥ä¸Ĭè¿Ļæ®µ
_ {
å¡ Į
ä¸į æĺİ
åıĤåĬł äºĨ
å¸ĥ æĭī
æĪĳ å·²ç»ı
æ²¿ æµ·
å¸® æĤ¨
æ¸´ æľĽ
G oogle
å¼ķèµ· äºĨ
åı¯ åı¯
è¯¥ åħ¬åı¸
å½ĵæĹ¶ çļĦ
çĭĹ çļĦ
éĻ ¨
é«ĺ è¾¾
ä¼Ł å¤§çļĦ
æīĭ æĮĩ
åįķ çĭ¬
æĪĳ è¿ĺ
åı° åįĹ
ç½ Ĳ
Ġthe ir
æĿĳ åºĦ
ä¸įä»ħä»ħ æĺ¯
it s
åĮĹ ç¾İ
åķ¤ éħĴ
æĪĺ åĲİ
åī§ æľ¬
S h
åĶ® ä»·
åıĪ åĲį
f ul
è®¾è®¡ æĸ¹æ¡Ī
è´µ æĹı
æµģ åŁŁ
ç¦ Ħ
å¤§ å¤ļ
è®¤ è¯ģ
ä¸ ĳ
çļĦ é«ĺåº¦
Ġ æķ°æį®
è¶ĬæĿ¥è¶Ĭ å¤ļçļĦ
åģı è§ģ
è´Łè´£ ç®¡è¾ĸ
åľ¨åĮ»çĸĹ é¢ĨåŁŁ
åĪ¶å®ļ ä¸Ģä¸ª
å¤ĦçĲĨ åĻ¨
çĤİ çĥŃ
æĿ¥ å¸®åĬ©
è¯¯ è§£
ç¥ĸ çĪ¶
o id
çĽ¸ å¤Ħ
åŃĺåľ¨ ä¸ĢäºĽ
å½ĵ äºĭ
æľĢå¤§ åĢ¼
çīĽ æİĴ
äºĭå®ŀ ä¸Ĭ
è¡¨æł¼ ä¿¡æģ¯
å°¤åħ¶ æĺ¯åľ¨
Python ç¨ĭåºı
çĪ± å°Ķåħ°
åĪ© æģ¯
ç«ŀ æĬĢ
åŃ£ åº¦
çĶ± æŃ¤
æŀ ¯
æĥ© ç½ļ
å°¼äºļ å·ŀ
çľģ åĴĮ
é Ħ
ç² ¤
åį° åĪ·
Ġm ore
æ³Ħ éľ²
Ġw hile
è´§ çī©
å¤§ æķ°æį®
æıĲä¾Ľ æĽ´å¥½çļĦ
æ³ ª
èĳ µ
äºĨ èĩªå·±çļĦ
éĽķ å¡ĳ
ãĢģ ãĢģ
å±ķçİ° åĩº
åľ¨ ä¸įåĲĮ
éĿĴ æĺ¥
è¿Ľè¡Į è°ĥæķ´
èº ²
èĩªçĶ± æĦıå¿Ĺ
æ··åĲĪ åľ¨ä¸Ģèµ·
åĽŀ å®¶
è¿Ľè¡Į çļĦ
åı¯ è§ģ
un g
æĺ¯ çĶ±äºİ
çĥŃ çĪ±
åħ» æĪĲ
èĢĲ çĶ¨
ä»£çłģ è§£éĩĬ
éĩĩ è®¿
å®ĮæĪĲ åĲİ
åĲĪ çº¦
c o
åĩº å¸Ń
èĬ ¦
8 2
çİ¯ä¿Ŀ æĦıè¯Ĩ
8 1
éĢīæĭ©éĢĤåĲĪ èĩªå·±çļĦ
è®¡åĪĴ åĴĮ
å¾Ĺ çŁ¥
æ° ¨
ä½Ĩ çĶ±äºİ
çļĩ åĲİ
Ġ æĢ»
ä¹¡éķĩ çº§è¡ĮæĶ¿åįķä½į
åľŁ æĺŁ
çº¸ å¼ł
è§Ĩè§ī æķĪæŀľ
' ll
o ard
æ¾³ æ´²
åĴĮ åĪĽæĸ°
è¿Ļä¸ª è¿ĩç¨ĭ
198 6
ä¸Ń çŃī
åįĥ åħĭ
Y ou
å²ģ æľĪ
æĿİ åĽĽ
çĥ¤ åĪ¶
i x
æľīæ°§ è¿ĲåĬ¨
éĩįè¦ģ æĢ§
åĬłåħ¥ éĢĤéĩıçļĦ
çĶ² æĸ¹
çļĦ åı¥åŃĲ
l en
æĽ´ åĲįä¸º
åĪĽ å§ĭ
æ¯Ķ çī¹
çĭ¬ èĩª
å¹¶ è§£éĩĬ
è¯· ç»ĻæĪĳ
åıĮ æīĭ
çĶµ ç£ģ
C D
çļĦ è·Ŀç¦»
è£ ķ
æ³° åĽ½
å¦Ĥæŀľä½ł æĥ³
åı¯ä»¥ è¿½æº¯åĪ°
å¸¸ è§Ħ
æĶ¿ åħļ
éĺ» æŃ¢
it em
åħ³ åį¡
ä¸ĭ äºĨ
æĳ© æĵ¦
æŃ¦ è£ħ
å¹´ åºķ
çļĦéľĢæ±Ĥ åĴĮ
èļ Ĥ
åĨį åº¦
æ±ī è¯Ń
é¢Ŀ å¤ĸçļĦ
** **
ç¿ ģ
åĥ §
` ï¼Į
çļĦ åįķè¯į
åŃĲ ä¸Ĭ
æ°´ åĮĸåĲĪçī©
çİ° ä»»
åĬª åĬĽåĴĮ
æ¯į ä¹³
åľ° äºĨè§£
ĠH e
æŃ¤ æ¬¡
éĩİçĶŁ åĬ¨çī©
t imes
åģ¥åº· é¥®é£Ł
ä½Ĩ å®ĥä»¬
åı¯ çĶ¨äºİ
od el
h t
å»ºè®® åĴĮ
åĨľ æĿĳ
ç§¯æŀģ åıĤä¸İ
at ed
çļĦ ä¸ī
åĨ° åĿĹ
è§£ æŀĲ
æĺŁ éĻħ
æİ¥ ç§į
I nt
ä½ı æĪ¿
æĦŁåıĹ åĪ°äºĨ
å¹³ éĿ¢ä¸Ĭ
ä¸¤äººçļĦ å¯¹è¯ĿåĨħå®¹
ar ch
å¹´ äººåı£
ĠĠĠĠĠĠĠĠ ĠĠĠĠĠ
çļĦ åķĨåĵģ
åħī ç»ª
åĩı åİ»
èı² å¾ĭ
æľīä¸Ģ å®ļçļĦ
å®ĩå®Ļ ä¸Ń
è¾ °
æĴŀ åĩ»
åħī æ»ĳ
çĭĲ çĭ¸
de x
æ·»åĬł åĪ°
çĺ ¦
âĦĥ ï¼Į
èĳ±å§ľ èĴľ
æķĪ çĽĬ
èı²å¾ĭ å®¾
ä¸ĵä¸ļ äººå£«
W indows
çİ© æ³ķ
ä»¥ä¸ĭæĺ¯ä¸Ģæ®µ ä¸¤äººçļĦå¯¹è¯ĿåĨħå®¹
èĲ½ åı¶
æĢ» çĿ£
éĥ½ è¦ģ
çļĦç¼ĸç¨ĭ è¯Ńè¨Ģ
le t
ä»¥ä¸ĭæĺ¯ä¸Ģä¸ª è¡¨æł¼ä¿¡æģ¯
æĺ¯ å¯¹
çĶµ è·¯
æŀľ æ±ģ
è¢ ģ
çĲĥ çļĦ
è¿Ń ä»£
æĹ© å¹´
éħĴ ç²¾
ï¼ī ï¼Ľ
ï ¿
æłĸæģ¯ åľ°
å¤§ å¹ħ
ä¹ĭ åĴĮ
N BA
æķ´ åĲĪ
èĥ½å¤Ł æĽ´å¥½åľ°
ä¹Ŀ é¾Ļ
æİ¢è®¨ äºĨ
æ± ª
è·³ èĪŀ
æĪ·å¤ĸ æ´»åĬ¨
198 7
å¼¹ æĢ§
æ´¾ å¯¹
è©¹ å§Ĩæĸ¯
åĴĮ åŃ¦ä¹ł
éĴ ¦
åĬł åī§
ç§ĳåŃ¦ çłĶç©¶
ar s
è§Ĥ èµı
èĢģ äºº
å¤º å¾Ĺ
m m
èĮ µ
ç¾İ æĻ¯
å¸Ĥ æĶ¿åºľ
çĽ¸ éĤ»
åĬłåħ¥ ä¸ĢäºĽ
æľī ä¸¤ä¸ª
çŃ ĭ
éŁ³ä¹Ĳ çļĦ
H T
åįĪ é¤Ĳ
çļĦåŁºç¡Ģ ä¸Ĭ
åı¯ è¡ĮçļĦ
åĵģçīĮ åĴĮ
n a
äºº ä¸º
æľī å¤ļ
æĺ¯ä¸ĭè¾ĸçļĦä¸Ģä¸ª ä¹¡éķĩçº§è¡ĮæĶ¿åįķä½į
çĥ ·
ä¸Ńåħ± ä¸Ńå¤®
åĲĮæĹ¶ ä¹Łåı¯ä»¥
æľī åĪ©äºİ
Ġ1 000
æ¢ µ
è¯ļ å®ŀ
çļĦ èĩªçĦ¶
æ¯ı æĹ¥
å¹¶ ä¿ĿæĮģ
ä¸ ¢
åĨ² åĩ»
æ²³ çķĶ
å¿ħ éľĢ
æĪĳä»¬ ä½¿çĶ¨
çªĹ å¸ĺ
ä¹Ŀ å¹´
åĩºæĿ¥ çļĦ
æ±ī åŃĹ
åĲİ èĢħ
æĬµ æĬĹ
å¼Ģ è®¾
ä¸Ģ æĶ¯
é£İ åħī
çļĦçŁ ³
åı¥åŃĲ ä¸Ń
åŁºçĿ£ æķĻ
I P
å· «
æ³¨ åħ¥
ä¸įåĲĮ ç§įç±»
ä½İ äºİ
ï¿ ¥
ä¸ĢäºĽ äºº
ä¸ŃçļĦ åºĶçĶ¨
è½¦ çļĦ
çİĭ æľĿ
é¸ ¿
ä¿¡ä»» åĴĮ
åĲĦ é¡¹
çĮľ æµĭ
åĬŀ çĲĨ
çĶµåŃĲ äº§åĵģ
å£° ç§°
ver se
99 9
æł¹ æľ¬
æĮ ª
æĶ¶ è´Ń
çļĦ åĲ«ä¹ī
æĻĭ åįĩ
ç¦» å©ļ
æŃ£ ä¹ī
æĤ² ä¼¤
èµ· çĤ¹
ç¼ ħ
åģľè½¦ åľº
Ġ é«ĺ
åıĭ æĥħ
è¯ģ å®ŀ
ä»ĸ ä¹Ł
ä¼ĺçĤ¹ åĴĮ
Ġle t
çļĦ åĴĮ
è¡Į ç¨ĭ
æ¸ħ çĪ½
åĽ¢ ç»ĵ
ä¸º æŃ¤
åģ¥èº« æĪ¿
èĭı æł¼åħ°
å¤ĸ åĽ½
åľ¨ æµ·
éĤ ª
èĨ Ŀ
å·² æľī
èļĤ èļģ
9 4
è¿ĩ æķı
æĿ¡ä»¶ ä¸ĭ
çī ł
æĪĳä»¬ åħ¬åı¸
al e
åĪ¶ä½ľ çļĦ
å½ĵ å±Ģ
æĺ¯ è°ģ
ä¼ĺ ç¾İçļĦ
åľ¨ è´Ńä¹°
ä¸Ģ è¾Ĩ
çļĦç¼ º
æĺ¥ åŃ£
åİĭ ç¼©
ä¸įæĸŃ çļĦ
åħ±æľī äººåı£
æ·¡ æ°´
æĢ» é¢Ŀ
èĢĮ å¼Ĥ
åĬł å¤§
çĶ¨ é¤Ĳ
ç»Ļå®ļ ä¸Ģä¸ª
__ _
Ġ ä¸İ
æ¹ Ľ
çĤ Ń
Ġ2 4
å¯¹ ç§°
çĪ ·
as k
ç¨ĭåºı åĳĺ
æŀľ å®ŀ
åĿĩ ä¸º
å½±åĵį åĪ°
éľĢè¦ģ æĪĳä»¬
è¿Ļ æĹ¶
å¤ĸ çķĮ
åĴĮ å¤ĦçĲĨ
åĪ° æĿ¥
åĲĦ åĽ½
ç§ ©
Ġw ork
åĲį è¨Ģ
ä¼ģä¸ļ å®¶
çļĦ ä¸¤ä¸ª
è¾ĥ å¤§çļĦ
å¸Ĥåľº ä»½é¢Ŀ
l st
çĩķ éº¦
è¿ĳ æľŁ
çļĦç¬¬ ä¸Ģä¸ª
åª ļ
Ġ 19
æĿĢ æŃ»
åħ¶ä¸Ń ä¸Ģç§į
æŃ¦ æ±ī
hi p
Ġd ay
éĩĮ ç¨ĭ
çļĦç½ĳ ç»ľ
å° ī
åķĨ äºº
2 50
is a
çļĦçł´ åĿı
æ³ķ æ¡Ī
éĥ½æľī çĿĢ
è¡¨æł¼ ä¸Ń
å½¢æĪĲ ä¸Ģä¸ª
éļĶ ç¦»
çĶµå½± çļĦ
m in
æĪĳæĥ³ çŁ¥éģĵ
äºļ åİĨ
æŁłæª¬ æ±ģ
åľ¨ å¤§
æĦŁåĪ° éĿŀå¸¸
çĸ¼ çĹĽ
å¯¿ åı¸
çļĦç¬ĳ è¯Ŀ
æĥĬ åĸľ
ä¸»è¦ģ åĮħæĭ¬
çıĬ çĳļ
ä¹Ł åºĶè¯¥
é©¬ æĸ¯
ç©ºæ°Ķ ä¸Ń
é¤Ĳ æ¡Į
å¹¶ è¾ĵåĩº
A n
æ°ĳä¸» åħļ
çĦ Ļ
åĪ¹ è½¦
èŁ ¹
éħ ¥
åīį æĿ¥
ĠæĤ¨ å¥½
æķ£ å°Ħ
åĵ¥ä¼¦ æ¯Ķäºļ
ä¸»é¢ĺ æĺ¯
198 2
èµ· äºĨ
æŁı æŀĹ
u de
æ·± åıĹ
æħ¢æħ¢ åľ°
çļĦç¾İ åĽ½
åľ¨ æ°´
ç±» çļĦ
ç®Ģ åĮĸ
å¥ĩ æĢª
åĴĮ æĹł
åĨħéĥ¨ çļĦ
æľ¬ ç§ĳ
çī© èģĶç½ĳ
æĢĿ å¿µ
åĶĲ ä»£
åı¯ä»¥å¸®åĬ© äººä»¬
Ġ æ£ĢæŁ¥
è¡¨ éĿ¢çļĦ
åħħåĪĨ çļĦ
ass word
æĸĲæ³¢éĤ£å¥ĳ æķ°åĪĹ
æĸ¯ æĭī
åı¯ è§Ĩ
è¿Ļ æĺ¯ä¸Ģç§į
æ°Ķ æĹĭ
çĶ ¸
ç» ĳ
9 1
å¤ĸ æĺŁ
ic s
åµ Į
ç¡¬ å¸ģ
å¥ĩ æķ°
åħĭ éĩĮæĸ¯
ä»Ļ äºº
è®¨è®º äºĨ
åľ¨ æĪĳ
ä¼¸ å±ķ
åĴĮ èĪĴéĢĤ
0 5
çļĦ åĩºçİ°
çĥ§ èĤī
Ġ åķĨåĵģ
äºº æĸĩ
åĶĲ æľĿ
åħ¥ éĢī
æī© å¼ł
æĢ ¡
åįģ åŃĹ
ri x
åĪĩ çīĩ
æĭ ¨
çŁŃ æľŁ
é«ĺè´¨éĩı çļĦ
åģļ çļĦ
æľī å¤ļå°ĳ
éģŃ éģĩ
å¦ ĥ
å¸ĥ å°Ķ
èĥ¡æ¤Ĵ ç²ī
çļĦç¨ İ
å¤ľ éĹ´
æĶ¾ç½® åľ¨
ä¸įéĶĻ çļĦéĢīæĭ©
æ¶Ĥ ä¸Ĭ
è ¤
çī¹ çļĦ
æ¹ ĺ
åľ°çĲĥ ä¸ĬçļĦ
å·² æĪĲä¸º
å§Ķ ä¹¦è®°
a us
Ġh el
æİĪ äºĪ
å¹¿ è¥¿
æľº åĴĮ
ä¸į åıĹ
éľĢè¦ģ å¸®åĬ©
é¸Ł åĦ¿
åŁĥ å°Ķ
è¥¿ èĹı
äº¤éĢļ å·¥åħ·
ç¢° æĴŀ
åĩ ¸
çļĦ è§Ĵåº¦
çĻ» éĻĨ
è´¢åĬ¡ æĬ¥è¡¨
æľ¬ ç«Ļ
æ½® æ¹¿
Ġ æ³¨æĦı
é²ľ èĬ±
m an
æĶ¾æĿ¾ èº«å¿ĥ
ä¸Ģä¸ª ç®ĢåįķçļĦ
a z
çļĦæĹ¶ å°ļ
æĬķ è¯ī
Java Script
æ¼ĶåĶ± ä¼ļ
am s
æĪĳ å»ºè®®
çļĦ æľĢ
çļĦ å®ļä¹ī
æĸ¯ å¡Ķ
le ft
éĩĳ éĴ±
Ġ åħĥ
éĩĩ è´Ń
ç¾½æ¯Ľ çĲĥ
åĴĮ æľĭåıĭ
çļĦ æĢ§èĥ½
åħ¶ åľ¨
ç¥ Ģ
åĤ ħ
æĬĺ åıł
è¿Ļ å¹ħ
Ġ[ ]
ç¦ ħ
åİŁ æĿĲæĸĻ
ç§ĳåŃ¦å®¶ ä»¬
ä¹Ł æĺ¯ä¸Ģä¸ª
å¦ĩ å¥³
è¯¥ æĢİä¹Ī
éĴ Ļ
åħŃ å¹´
r it
åıĺå¾Ĺ è¶ĬæĿ¥è¶Ĭ
é© ³
éľ ŀ
åĬł å·ŀ
è¢« è¿«
ä¾Ŀ éĿł
èĴ¸ æ±½
é¤Ĳ åħ·
çĪ ª
æ¶ ¤
è®© è¯»èĢħ
ĠS h
Ġg et
ap e
è½¬ åŀĭ
é±¼ çº²
èĪ ±
çķ ı
an e
åĩł å¹´
æ¸© æŁĶ
é©¬ éĩĮ
ä¾¿ å®ľ
éħį ä»¶
éĥ¨ ç½²
å¸® ä½ł
ä¼ļ äº§çĶŁ
èĪ Ł
åĪ© çļĦ
è°· æŃĮ
çĶŁçī© å¤ļæł·æĢ§
ar i
å»ºç«ĭ äºĨ
çİ©å®¶ éľĢè¦ģ
æİ¨ ç§»
v en
åŃĺåľ¨ äºİ
çİ¯ä¿Ŀ çļĦ
åįİ ä¸º
è¿Ŀ æ³ķ
èĹ ©
ç±»åŀĭ åĴĮ
è´¨ çĸĳ
ä¿® å»º
ä½ľä¸º ä¸Ģä¸ª
å®¶ ä¹¡
åħ¶ä¸Ń æľĢ
å¾Īå¤ļ äºº
on d
æ¨¡ æĿ¿
çİ°åľ¨ è¯·
æĮģ ä¹ħ
åĮħæĭ¬ äºĨ
æīĵ ç²ī
äºī åıĸ
Ġ åħ¬åı¸
ä¸Ģå®ļ ä¼ļ
èĲ¨ æĸ¯
éĩĩåıĸ è¡ĮåĬ¨
å¤±åİ» äºĨ
çĶ· å¥³
èĮ «
198 3
çļĦçĮ «
at er
æĬĢæľ¯ çļĦåıĳå±ķ
è¿Ļ ä¸¤
çĲĥ ä¼ļ
éĩį çļĦ
Ġ å¸®æĪĳ
çĭ¬ç«ĭ çļĦ
ä¿¡æģ¯ çļĦ
æĪ¿ ä»·
æīĢæľī äºº
å¯¼èĩ´ çļĦ
å°ģ éĹŃ
t w
å¹¶ æıĲé«ĺ
å®ŀ ä¾ĭ
æ· ®
ãĢĢ ãĢĢ
å¸Ī èĮĥ
æ¤ Ń
è¿Ļä¸ª æķħäºĭ
åĽłæŃ¤ åľ¨
Ġc ur
åįģ äºĶ
å¤ļ äºº
å¥ĩ å¦Ļ
èĻļ åģĩ
ç¡ķ å£«
è§Ĵèī² ä¿¡æģ¯
éĻ¢ éķ¿
å®ŀçİ° äºĨ
av id
r u
éĺ² æĬ¤
y le
åĬł å¿«
å¤± èĲ½
å¤© æķ°
èĻļ æŀĦ
num s
éģ¿åħį ä½¿çĶ¨
åĳ½ åĲįä¸º
ä¼łæĦŁ åĻ¨
ä¸º çĶ¨æĪ·
è¿Ľ åĪ¶
æĿ ı
ĊĠĠĠĠ ĊĠĠĠ
æīĢå¾Ĺ ç¨İ
Ġpro duct
æĺ¯ä¸Ģ é¢Ĺ
çĲĨ äºĭ
åŃĺ æ¬¾
éĥ½ åºĶè¯¥
ä½ĵ åĨħ
åıį å¤į
re nt
åĴĮ ä½ł
é¤Ĳåİħ çļĦ
éĿ¢è¯ķ å®ĺ
åıĺæĪĲ äºĨ
è´« åĽ°
A M
çĭ Ń
äººåı£å¯Ĩåº¦ ä¸ºæ¯ı
ä¹¾ éļĨ
äºĨä¸Ģ ç³»åĪĹ
print ln
åĩ ¶
åľ¨ éĤ£éĩĮ
æľĢéĩįè¦ģçļĦ æĺ¯
å¥ ł
èĽ Ļ
æĪĳ æĿ¥
çĦ¶åĲİ åĨį
æĿ¯ åŃĲ
b utton
éĢī åĩº
æĤ¨ åı¯ä»¥åľ¨
çļĦç¤ º
æµģ æ´¾
é¥®é£Ł ä¹łæĥ¯
èĲ¥ è¿Ĳ
æĸ°çĶŁ åĦ¿
ent ence
æīĢ è°ĵ
çļĦ ä¸¤
è¯Ń æ°Ķ
æĢ» åħ±
èĤ ¿
ä»¥ è¾¾åĪ°
åŁºç¡Ģ è®¾æĸ½
Ġm an
éĢ ¸
ç´ł é£Ł
) ^
ä»Ĭ å¤©çļĦ
åĨĻ åŃĹæ¯į
ç»ĺ åĪ¶
) ãĢģ
å¤§ æ¡¥
ä¹¡ æĿĳ
Ġ Z
Ġp e
èµ· åĪ°
æĦŁ æģ©
éľĢè¦ģ æĽ´å¤ļçļĦ
") ;
Ġp ublic
å¸ ħ
æĸ¯ åŁº
çĬ¹ å¤ª
æ´Ĺ æ¾¡
æ²» çĲĨ
ç»ıæµİ åŃ¦
æľĪ åĪĿ
äº¤ åĵį
k g
è´¨ åľ°
éĢī åıĸ
éĶĻè¯¯ çļĦ
ä¸»ä¹ī èĢħ
è®© çĶ¨æĪ·
ç»¼åĲĪ èĢĥèĻĳ
P l
éĴ» çŁ³
è¯¥ åľ°çļĦ
åĮĹ èµ·
å¹¼ åĦ¿
çĿ¡ è§ī
ç½ĳç»ľ å®īåħ¨
æİ ©
éħ± æ±ģ
e le
S ar
p os
æ¯ı å°ıæĹ¶
æĪĳ æľĢè¿ĳ
è¾Ĳ é³į
ans l
sort ed
äºĨè§£ èĩªå·±çļĦ
å¾Ī éĩįè¦ģ
æ¤ °
æĳ §
Ġm ain
çŃĶæ¡Ī æĺ¯
o ol
ĠW orld
æľĹ çİĽ
æ¯Ķ èĲ¨
å°¾ å·´
åĨħ éĻĨ
æĪĳ çŁ¥éģĵ
æĶ¶ å½ķ
å¦Ĥæŀľä½ł åĸľæ¬¢
å®¹ çº³
ä¸Ń åĮ»
æ¼ı æ´ŀ
' re
éķ¿ åŁİ
è¡Įä¸ļ çļĦ
ç©Ĩ æľĹçİĽ
s et
æ¢ ¨
æľįåĬ¡ åĻ¨
å®ĥä»¬ ä¹ĭéĹ´çļĦ
åħĪè¿Ľ çļĦ
å¢ ħ
é¥² åħ»
} $
åĮĪ çīĻ
è¡¨ æĥħ
éĵ Ŀ
æ°¸ æģĴ
éĺ¿æĭī ä¼¯
çļĦ èĬ±
B M
çĽ¸ å¯¹äºİ
åľ° å¸¦
çľ ī
åľŁ èĢ³
Ġ åĮĹäº¬
èįī åľ°
è¾Ĳé³į é±¼çº²
åı¯ ä¹Ĳ
å½ĵ å¤©
æİĮ æİ§
çī© èµĦ
å¯ ¨
åĢ¾åĲĳ äºİ
éĶĢ éĩı
å¾ħ éģĩ
åĴĮ äººç±»
æĶ¿ æĿĥ
åĳĬè¯ī æĪĳä»¬
ç®¡ éģĵ
æĮģ æľī
æııè¿° ä¸Ģç§į
çİ°åľ¨ çļĦ
å±Ģ éķ¿
çī© åĴĮ
äººä»¬ åı¯ä»¥
å¤« äºº
åĲ¸å¼ķ äºĨ
çĦ °
ä¾Ŀ æ¬¡
èĤ¡ ä¸ľ
åĪĩ åī²
éĤ ¨
å¹¸ç¦ı æĦŁ
æĺ¯ ä»İ
åĬł ä»¥
å¼Ģ å¤´
åĽ¢éĺŁ çļĦ
æĦŁ åĬ¨
åĮĸåŃ¦ çī©è´¨
å¼Ģå§ĭ äºĨ
el y
æĪĺ èĥľ
éĿŀå¸¸ å¥½
æĪĸ ä¸į
æģ ¤
æ¼« æŃ¥
å½© èĻ¹
ä»¥åıĬ å¦Ĥä½ķ
è¿Ļé¦ĸ æŃĮ
åľ¨ ä¸įåĲĮçļĦ
Ġs p
é¢ ĩ
å¤ļ äºĳ
ç»Ĩ èĩ´
æĬ¥ å¯¼
åĪ¶ä½ľ æĸ¹æ³ķ
çİ° çĬ¶
å¹´ çĶ±
æĦı åĽ¾
n er
åį«çĶŁ éĹ´
ä¸Ģ é¢Ĺ
èĮ İ
èĢĮ åıĪ
çĻĮ çĹĩ
çŀ ¬éĹ´
æļ´ éľ²
Ġm ake
åĬ¿ åĬĽ
or m
åĪĹè¡¨ ä¸ŃçļĦ
å°Ĭéĩį åĴĮ
éķ¿ æ±Ł
éķ¿ è¾¾
äºĨè§£ ä¸Ģä¸ĭ
æ¸ħæĻ° çļĦ
èĲ½ åľ¨
ä¸İæŃ¤ åĲĮæĹ¶
ç©ĨæľĹçİĽ å³°
éĥ¨ åĴĮ
ãĢĬ ãĢĭ
æķĻèĤ² åĴĮ
å¼Ģ åħ³
æİĴ éĻ¤
èı ł
éľĢè¦ģ æľī
å±¥ è¡Į
ä¸º åħ¶
çŁ³ æ²¹
âĢĿï¼Į âĢľ
el se
w hile
ç»ıåİĨ äºĨ
æ´»åĬ¨ åĴĮ
çİĩ é¢Ĩ
ä¿ĿæĮģ èī¯å¥½çļĦ
å¨ ĥ
çī¹åĪ« çļĦ
è®¾å¤ĩ çļĦ
åľŁèĢ³ åħ¶
ä¿ ¯
èĪª çıŃ
Ġ å¦ĤæŀľæĤ¨
åĮħ å®¹
æĺ ı
åı² ä¸Ĭ
æİĴ éª¨
å°ı éķĩ
é² Ī
ä¸¹ éº¦
èµ· è¯ī
èĥ ĸ
çļĦçľ¼ çĿĽ
åħ¥ æīĭ
æ¯ıä¸ª åįķè¯į
Ġal so
ä¸º ä¸»è¦ģ
èĢģ èĻİ
è¶£ åĳ³
è¥¿ å®ī
åı¯ ä¾Ľ
éĢĤåĲĪ èĩªå·±çļĦ
é³ ŀ
Ĩ Ĵ
å¹³åı° ä¸Ĭ
åĿ Ŀ
å°Ĩ è¿ĻäºĽ
éĥ¨ çļĦ
äººçĶŁ çļĦ
åĲĦ ä½į
çļĦ åľºæĻ¯
å²ģ æĹ¶
a ut
äºĶ ç§į
è§ĤçĤ¹ åĴĮ
çº½çº¦ å¸Ĥ
åĵ ĳ
éª¨ éª
çļĦ åĽłç´ł
Ġ æµ·
ä¸Ĭ å¸Ĥ
ç¢³ æ°´åĮĸåĲĪçī©
ä»İèĢĮ æıĲé«ĺ
åı¯ä»¥ è¿Ľè¡Į
è°¢è°¢ ä½ł
èĵ ¬
åħ·ä½ĵ æĿ¥è¯´
åĴĮ æĬĢå·§
è¿½ éĢĲ
ä»¥ å¤ĸ
åĬł æ³ķ
æĹħ è¡ĮçļĦ
Ġ åĬłå¼º
è¯· éļıæĹ¶
ä½Ĩæĺ¯ åľ¨
åĮº éĹ´
åĬŀ äºĭ
æ³ ¼
" ï¼īï¼Į
æ¸ Ĺ
å°ı çģ«
æģ Ń
å¸®åĬ© ä»ĸä»¬
in s
å¤ļæł· åĮĸ
çŁ¥ åİ¿
æĳĨ æĶ¾
as h
çľĭ æ³ķ
çº¿ åĴĮ
æĢ§ ä»·
ä¹Ł ä¸º
é¢ ł
Ġs k
è¡Į äºº
åĵģ åĳ³
ä»Ģä¹Ī æł·çļĦ
Ġo ver
u x
éŁ³ä¹Ĳ å®¶
æĹł ç©·
ä¸ľ åĮĹéĥ¨
æĭ ĺ
è¿½ è¸ª
åŁ ĭ
èĲ¥éĢł åĩº
æł¹æį® ä¸ªäºº
èĢ³ æľµ
ä½łä»¬ çļĦ
åı¯èĥ½ä¼ļ å¯¹
ä»» èģĮ
æĺ¯åĲ¦ åŃĺåľ¨
åĵ Ģ
gr ound
éĩĳ é»Ħ
ä¹Ł è®¸
æķ° æĺ¯
æĸ° äºº
éļı æĦı
æľī æľºä¼ļ
æĸĩèīº å¤įåħ´
æĸĩåĮĸ éģĹäº§
ab el
åĸ Ģ
å¥¹ ä»¬
åĤ ²
å£° èªī
ä¸Ģä¸ª æĸ°çļĦ
or s
åİ ī
å¤´ èĦĳ
æłĸæģ¯ åľ¨
æ¨¡ ä»¿
æľĢåĲİ ä¸Ģ
çİ°ä»£ åĮĸ
æ¿Ģ æĥħ
éĿ¢ä¸´ çļĦ
çīĽ ä»Ķ
é² ¤
è¯¥ åĩ½æķ°
çıł ç©ĨæľĹçİĽå³°
æĹ¶ä»£ çļĦ
Ġ çĶ±äºİ
v ent
ä¹ĭ è·¯
åľ¨ è¿ĻäºĽ
çļĦä¸Ģ æ®µ
æĢ»ä½ĵ æĿ¥è¯´
çĽ¸å¯¹ è¾ĥ
r andom
çĽ´ è§Ĵ
ç§ĳå¹» å°ıè¯´
æľĽ è¿ľ
çĥ¤ç®± ä¸Ń
åįģ ä¸ī
åħ¨çĲĥ æ°ĶåĢĻåıĺåĮĸ
pl it
åĪĨ ç»Ħ
åıĺ å½¢
åĩĨ åĪĻ
éĥ¨ èĲ½
æĬĵ ä½ı
çĻ½ ç³ĸ
çļĦç¾İ æĻ¯
é²¸ é±¼
åİ¿ çļĦ
äº¨ åĪ©
æĺ¯ ä¸ĸçķĮä¸ĬæľĢ
åıĳçİ° èĩªå·±
åĵ²åŃ¦ å®¶
ä¹¡ è¯ķ
èĹ »
ç¹ģ èį£
è´Ń æĪ¿
éģ¿åħį è¿ĩåº¦
åĨħå¿ĥ çļĦ
éĢ ®
æģ ¼
æľªæĿ¥ åıĳå±ķ
ä¸º è¾Ĳé³įé±¼çº²
t a
èľ ¡
æĸ¹æ³ķ æĺ¯
Ġne ed
è¯ģ äºº
éĺ ®
ç¨ »
ä¸į åľ¨
ï¼Į $
Ġ one
ç©ºéĹ´ çļĦ
çŃ Ĵ
æĹħæ¸¸ æĻ¯çĤ¹
m ax
ä¸°å¯Į å¤ļå½©
Ġ è®¾è®¡
y s
åĥı æĺ¯
å¾®æ³¢ çĤī
i el
ä¸İ æİ¥å£¤çļĦå¸Ĥéķĩ
æµĵ ç¼©
èĥĮæĻ¯ åĴĮ
çŃī æĬĢæľ¯
Ġ âĢĵ
èĶ¬èıľ åĴĮ
i k
åĮĹ æĸ¹
å´ Ķ
ç§Ł éĩĳ
éĽĨ æĪĲ
æ¶µçĽĸ äºĨ
âĶ Ģ
èį «
ä¾ĽåºĶ åķĨ
Ġ è¡¨ç¤º
Ġ< =
è¯Ńè¨Ģ çļĦ
ä»Ļäºº æİĮ
æĪĲä¸º ä¸ĢåĲį
A lex
åķĨ æłĩ
å·§åħĭåĬĽ èĽĭç³ķ
æĸĩåĮĸ ä¸Ń
ç±»ä¼¼ çļĦ
éª¨éª ¼
Ġ çĥŃ
åĢŁ åĬ©
å¯¹ ç¤¾ä¼ļ
éĺ¿ éĩĮ
æĸ° æĬĢæľ¯
197 8
ä¸ŃåĽ½äººæ°ĳ è§£æĶ¾åĨĽ
h ans
è´ ŀ
èĪª å¤©
æĩ Ī
åĩºçīĪ ç¤¾
åĲĳ æĤ¨
é¢Ĩ åľŁ
è¿ĩ å¤ļçļĦ
ä½ĵéķ¿ åı¯è¾¾
å½ĵ å¹´
æ¯ķä¸ļ åĲİ
Ġs pe
G DP
åľ¨ ä»ĸ
æĹł æķ°
S O
âĢ ĺ
è®® é¢ĺ
åįļ å®¢
åĽ Ĭ
æĳĦåĥı å¤´
ç¥¨ æĪ¿
ç¤¼ ä»ª
åħ³éĶ® åŃĹ
ç» Ĵ
it le
ĠI nt
ä»Ĭ å¹´
Ġform ula
æĭ ¯
éĺŁ åĳĺ
è¿Ļæ®µ æĸĩæľ¬
n ew
197 9
åĮĪçīĻ åĪ©
ä¿Ŀ ç½Ĺ
æĪĳæĥ³ è¦ģ
å®½ æķŀ
æļĹ ç¤º
æ³ Į
éĺ¿ æł¹
æķ° éĩıçļĦ
æĭħ å¿§
åĵ ĩ
åıį ä¹īè¯į
åĪĿ æŃ¥
ä¸Ī å¤«
é¸¡ èĥ¸
é¢Ŀ å¤ĸ
ç¥Ŀ ç¦ı
è¿ĺ æ¬¾
Ġf ind
ç§© åºı
åı¯ä»¥ åĪĨä¸º
ä½łèĥ½ åĳĬè¯īæĪĳ
æĹ¶ æ®µ
ä¸º ä¾ĭ
åĬłåĪ© ç¦ı
åĲį äºº
åĽ½å®¶ éĺŁ
æĪ¿éĹ´ çļĦ
æĬ½ åıĸ
åľ¨ ä¸Ģ
3 000
Ġfe el
æ¯ı ç»Ħ
æ¶Ī éĺ²
åŃĹæ¯į é¡ºåºı
åĴĮ æĶ¹è¿Ľ
åī© ä¸ĭ
éĿĴ å²Ľ
S P
ĠC om
çĸĹ æ³ķ
çļĦçİ¯å¢ĥ ä¸Ń
ä¿Ŀ å®Ī
çħ® æ²¸
è§ģ åĪ°
o se
ä¸Ģä¸ª äººçļĦ
åĴĮ ä¼ĺåĮĸ
æĲ ŀ
at rix
èĩ Ģ
çļĦ å½¢æĪĲ
ä¾µ çĬ¯
ç£ ħ
åĴ ¬
æĹ¶ ç©º
éĺ¿æł¹ å»·
å¤± ä¸ļ
çļĦ æĸ¹åĲĳ
Ġe m
æĮª å¨ģ
èĩªä¿¡ åĴĮ
èĩª åĪ¶
åĿļ æŀľ
æĺ¯æĮĩ åľ¨
ç»¿ èī²çļĦ
ä»¥ åĩıå°ĳ
å°Ķ é¡¿
èĸª èµĦ
åĩº éĹ¨
Ġd ata
æĦŁè°¢ æĤ¨
ç¬¬ åħ«
å· ·
åĪ« å¢ħ
æ²ŁéĢļ æĬĢå·§
æĪĳä»¬ å·²ç»ı
å¿ħ ä¸įåı¯
èŃ¦ åĳĬ
ç¼º å°ĳ
éĩĩ éĽĨ
å½¢å¼ı çļĦ
le d
åīª åĪĢ
å¯¹ æĪĳä»¬çļĦ
åĴĮ ä»ĸçļĦ
çļĦéĩįè¦ģ åĽłç´ł
æ½ Ń
ä¼ĺè´¨ çļĦ
ou ble
æĺ¯ å¾·åĽ½
ç»Ħ å»º
ä¼ļ ä½¿
ç»ĵæŀľ ä¸º
çļĦ å¹³åĿĩ
éªĳ å£«
å¸ Ĩ
ä¸Ń èİ·å¾Ĺ
åģļåĩº äºĨ
ç¿ ©
äº§åĵģ åĴĮæľįåĬ¡
åĩı ç¼ĵ
æĸ ¥
ä¸Ģ å¥Ĺ
ä¸¾ äºº
æ°´ æĺŁ
å¤± æľĽ
åĲĦç§į åĲĦ
æ´Ĺ æ¶¤
ç¾İåĽ½ çļĦ
è¿ĺ åľ¨
å¹´ æĹ¶
W eb
éĥ½ å¸Ĥ
ç½ ¢
æĲľç´¢ å¼ķæĵİ
åĸ ī
7 00
è¿Ļç§į æĸ¹æ³ķ
å¿«éĢŁ åıĳå±ķ
Ġs ub
çļĦ èº«ä½ĵ
ç»ĵ å±Ģ
æĺŁ ç©º
éĤ£ æł·
è½¬æį¢ æĪĲ
âĢ ¢
è·¨ è¶Ĭ
èµŀ ç¾İ
æ¤ħ åŃĲ
çļĦ åĲĹ
è§ĦåĪĻ åĴĮ
å¦Ĥæŀľ éľĢè¦ģ
Ġ zh
å·² è¢«
é¦ ħ
æ¯Ķ åĸ»
æĪĸèĢħ æĺ¯
ç¿»çĤĴ åĿĩåĮĢ
æ» ¥
åĪĴ åĪĨ
S QL
çĽĳ çĭ±
å°¿ çĹħ
å¦Ĥä½ķ æıĲé«ĺ
ä½¿çĶ¨ Python
ä½Ĩæĺ¯ æĪĳ
åı¯ä»¥ ä¿ĥè¿Ľ
æĬĺ å°Ħ
æ± °
çĻ½ å¤©
åĽ° æī°
al ly
ç¯ĩ å°ıè¯´
åĪĨå¸ĥ åľ¨
éļıçĿĢ æĹ¶éĹ´çļĦ
å¤§ å¸Ī
å½ķ éŁ³
éħ ¬
ä»¥ ä¸º
è¿Ļä¸ª äºº
è§Ĩ è§Ĵ
é²ľ æĺİ
èµĭ äºĪ
åī§ éĻ¢
ä¸Ń éĢīæĭ©
b ook
å¹´ç¾İåĽ½äººåı£æĻ®æŁ¥ çļĦæķ°æį®
æĹ¥ æĬ¥
å»ºçŃĳ å¸Ī
æ±Ĥ èģĮ
äº²åŃĲ åħ³ç³»
Ġ right
æģ ¨
å¹´å¤ıåŃ£ å¥¥æŀĹåĮ¹åħĭè¿ĲåĬ¨ä¼ļ
éĢı éľ²
å¾Ī æ£Ĵ
åı¯ä»¥æł¹æį® èĩªå·±çļĦ
åħĭ èİ±
am b
åĽĽ å¤§
çļĦ å½¢çĬ¶
æ³ķå¾ĭ æ³ķè§Ħ
åĴĮ çłĶç©¶
èµ° äºĨ
ä¸ī æĺİæ²»
å¸®åĬ© æĪĳä»¬
æ± Ģ
æĭ¿ éĵģ
èĬ± æ¤Ĵ
è¿İ æİ¥
çĶ «
æ°¢ æ°Ķ
Ġ çĽĲ
ç»ĵ å°¾
çļĦç³» ç»Ł
åĨĻä¸Ģç¯ĩåħ³äºİ äººå·¥æĻºèĥ½
æºĲ èĩª
äººåı£å¯Ĩåº¦ä¸ºæ¯ı å¹³æĸ¹åįĥç±³
ack ground
çļĦ åŃ¦çĶŁ
ä¹ł ä¿Ĺ
æł Ī
æĶ¿ åįı
åıĳ è¨Ģ
è¯ģ åĪ¸
æµ· å¤ĸ
ç½ĳ çĲĥ
æĿŃ å·ŀ
å½ĵåľ° åħ±æľīäººåı£
åı¯ è¡Į
åºĶè¯¥ åľ¨
èĢĮ äººåı£å¯Ĩåº¦ä¸ºæ¯ıå¹³æĸ¹åįĥç±³
æ°ĳ äºĭ
çĭ Ħ
èĪĴéĢĤ åĴĮ
ä¹ĭä¸Ģ æĺ¯
æ´Ľ åħĭ
åĪ¶éĢł åķĨ
åĴĮ æĬĢèĥ½
å¸ĮæľĽ è¿ĻäºĽ
è¿Ļç¯ĩæĸĩç«ł ä¸Ń
å±± è¥¿
éĻ¤ æ³ķ
æĺİ å¤©çļĦå¤©æ°Ķ
çļĦ æĬĢå·§
è¦ģ æľī
ä¸º å®¢æĪ·
åħĪ å°Ĩ
çļĦ åĮºåŁŁ
æĬĹ æĹ¥
å¹³ åİŁ
en e
å¸Ĥåľº éľĢæ±Ĥ
a e
ä¸į çĶ¨
id th
or n
å¾Ī å°ĳ
è¿Ĳ è½¬
åĽł åħ¶
å¾Ī é«ĺ
æ±½è½¦ çļĦ
å¼Ģ éĢļ
æ°´ éĩı
è®©æĪĳä»¬ ä¸Ģèµ·
åħĭ æĭī
ä»ĸ è¢«
å°ļ ä¹¦
åı¯ çĶ¨
ä¸ľ åįĹéĥ¨
å¯»æ±Ĥ å¸®åĬ©
ä½ĵçİ° äºĨ
äº² èĩª
åŁºäºİ ä»¥ä¸Ĭè¿Ļæ®µ
LE D
åħ·ä½ĵ æĥħåĨµ
ä¹ĭ ä½ľ
çļĦè´¨éĩı åĴĮ
åı¯ä»¥è®© ä½ł
ç¨ ł
A d
äºº æĢ§çļĦ
æī¹ åĪ¤
åĲĮæĹ¶ ä¹Łæĺ¯
çº¦ å®ļ
æĤ£ èĢħçļĦ
æĭ¯ æķĳ
= \
S c
æĦŁ åĨĴ
æ²¡ éĹ®é¢ĺ
å¤© åłĤ
ä¸» è§Ĥ
å¼º åĪ¶
åİĨ ä»»
é²ľ ç¾İ
æ¸ħæ´ģ åīĤ
; }-
è¿ĻäºĽ åĽłç´ł
å½ Ĺ
ä½įäºİ ä¸ŃåĽ½
åı¯ä»¥ æĽ´å¥½åľ°
èµ·æºĲ äºİ
æĿ¥ äºĨ
æ¼Ķ ç¤º
æ² ®
æĢ ¨
åı¯ä»¥ å®ŀçİ°
é¢Ĺ ç²Ĵ
W h
æŃĮæĽ² çļĦ
äºĮ æ¬¡
åĬ© çĲĨ
â Ī
æ³¨æĦı åĪ°
è° ¦
W e
C E
å£® è§Ĥ
å¹³éĿ¢ä¸Ĭ åįĩ
ent er
çŃī ä¸º
æķ´çĲĨ ä¸Ģä»½
å¤ªç©º æİ¢ç´¢
è¿ĲåĬ¨ çļĦ
ï¼ļ [
he ad
è¾ĵåħ¥ çļĦ
æĶ¿åºľ çļĦ
éŁ³ä¹Ĳ åĴĮ
éĺ¶ çº§
çĶµ æ°Ķ
å®¶ çĶ¨
æļ ĳ
æī¾åĪ° ä¸Ģä¸ª
å¹¶ åħ¥
åľ£ æ¯į
æµĻæ±Ł çľģ
ĠĠĠĠĠĠĠĠ ĠĠĠĠĠĠĠ
å¸ĥ èİ±
åĢ¾ æĸľ
å±±ä¸ľ çľģ
æĺ¯ä¸Ģ éģĵ
è° £
çĻ½ èī²çļĦ
æĥ³è±¡ åĬĽ
åĴĮ å½±åĵį
çļĦ çī©åĵģ
æ±Ł è¥¿
æ·· ä¹±
ĠTh is
çĽĲåĴĮ é»ĳèĥ¡æ¤Ĵ
çļĦçĥ¤ ç®±
æµ· å³¡
å¹¶ åĲĳ
ä»£è¡¨ å¤§ä¼ļ
ä¸¾ è¡ĮçļĦ
éĩįè¦ģçļĦ æĺ¯
æįŁ ä¼¤
ä¹Łå°±æĺ¯ è¯´
ç³ĸ å°¿çĹħ
èĢĮ éĹ»åĲį
çļĦ ä¼łç»Ł
çīĩ æ®µ
at es
Ġp er
ä¸į åģľ
çıł å®Ŀ
åĹ ¨
åľ° æ¯¯
è¿ĲåĬ¨ åĴĮ
ä»ĸ è®¤ä¸º
æİ¥ åı£
å¹´ åĪĿ
æĤ¨ åľ¨
éĢĤåºĶ æĢ§
Ġ å¤ª
æİĴ è¡Į
åĬłåħ¥ éĢĤéĩı
åĴĮ ç»ıæµİ
æĬĬ æı¡
èľ ĺ
çģ« èħ¿
åĪĻ éľĢè¦ģ
æĺİ åªļ
() :
æ£ ĺ
ç«ŀ èµĽ
ç¿ħ èĨĢ
å¼ Ħ
çļĦ ä¸ľè¥¿
cl ass
ä¸º æĸ°
ä»£è¡¨ äºĨ
ä»ĸ ä¸İ
åĮº åĨħ
æĿİ çĻ½
èľĺ èĽĽ
äº§åĵģ æĪĸæľįåĬ¡
Ġm in
198 1
ä»¥ èİ·å¾Ĺ
åįĹ èĩ³
é¸¡èĥ¸ èĤī
è±Ĩ çĵ£
æĳ§ æ¯ģ
é³ Ħ
åĲİ ä»£
æ¶Ī æ¯Ĵ
æł½ åŁ¹
Ġp re
M y
åĲį è¯į
éĢ® æįķ
å®ĥä»¬ æĺ¯
ä¸ĭéĿ¢ æĺ¯ä¸Ģä¸ª
å¤« å¦ĩ
æĻº åĬĽ
Ã ¨
åįł æ¯Ķ
è¿Ľ çĲĥ
æ¸ħ éĻ¤
çļĦ æ¯Ķä¾ĭ
åľ¨ åħ¨çĲĥ
è¯¸ å¤ļ
éĩįè¦ģçļĦ ä½ľçĶ¨
Ġ3 00
ä¹¦ æ³ķ
ç»´çĶŁç´ł C
DI Y
çļĦä¸Ģä¸ª éĩįè¦ģ
f rom
åħ± è¯Ĩ
çĵ· çłĸ
åı¸ é©¬
çĶŁæĢģ å¹³è¡¡
æĿİ åįİ
194 6
Ġ å®¶åºŃ
æľī åºı
å¹¿æ³Ľ åºĶçĶ¨
ä¸¥æł¼ çļĦ
è¯ķ çĿĢ
è¡Įä¸º çļĦ
æľĽè¿ľ éķľ
æĹ¶ è¦ģ
éľĢè¦ģ æĪĳ
åľ¨è¿Ļä¸ª è¿ĩç¨ĭä¸Ń
ä»¥ä¾¿ æĽ´å¥½åľ°
ç»Ħç»ĩ çļĦ
çľĭ çĶµå½±
çģ« éĶħ
åį¡ è·¯
å§ ĳ
éĥ½ ä¸į
å±ŀä¸ĭçļĦä¸Ģä¸ª ç§į
195 8
åĴĮ ä»·åĢ¼
å´ İ
ä¸Ģ æŀļ
æ·±åħ¥ äºĨè§£
éĺĲ æĺİ
çĲ ¼
é¦Ļ èĤł
éĽĨ ä½ĵ
å¡« åħħ
i le
èı² å°Ķ
ä¸´ åºĬ
å¿« æį·
åŁºéĩĳ ä¼ļ
å¹³ åºķ
åįģ åĽĽ
è¿Ļç§į æĥħåĨµ
åĬ¨ æ¼«
æĭ ±
æ·± æµ·
éĢŁåº¦ åĴĮ
éĹ ½
éļı ä¹ĭ
Ġ1 7
åİ ¢
å°ıè¯´ ä¸Ń
Ġch ar
çĽ´ æĴŃ
æŃ£ç¡® åľ°
ä¿ĿæĬ¤ æĪĳä»¬çļĦ
æĹł éľĢ
åĩĢåĮĸ åĻ¨
èĭ ¯
çĪ±æĥħ çļĦ
è§£åĨ³ æĸ¹æ³ķ
åħ¬ å®ī
è´Ńçī© è½¦
å¦Ĥä½ķ å¤ĦçĲĨ
çŃī å¼ı
éĻķ è¥¿
ä¸» èıľ
å¾Ī é«ĺçļĦ
åĨħ éĺģ
ä¹¦ ä¸Ń
æ³¡ æ²«
åĽ° æĥĳ
ç¨į å¾®
ä¼ļ è®©
è¿ľ çļĦ
çĶŁæ´» è´¨éĩı
éĿ¢ç§¯ åĴĮ
ä¸įä»ħ æĺ¯
ĠB e
èĨ ³
æīĭ åĬ¨
U n
åĪĿå§ĭ åĮĸ
p y
äº§çĶŁ å½±åĵį
ä¸¤ æĿ¡
æ¸ħæĻ ¨
ç¥ Ī
åĽĽ åŃ£
è¡¨ç¤º ä¸º
è§Ħ æł¼
ä»¥ä¸ĭæĺ¯ä¸Ģ ä»½
Ġ äºĨè§£
Ġ åĪ©çĶ¨
å¥³ å£«
ç»Ļåĩº åħ·ä½ĵçļĦ
Ġ9 0
æīĭå·¥èīº åĵģ
è¿Ľè¡Į æ¯Ķè¾ĥ
Ġ æľī
æīĢ ç¤º
æ»ĭ æ¶¦
é¦ĸåħĪ éľĢè¦ģ
äº§ åľ°
å¥ĭ æĸĹ
æ¯ĶåĪ© æĹ¶
ann er
çļĦäºº ç¾¤
åĪĹ åħ¥
Ġg u
å¿ħ å¤ĩ
çĽ¸ è¿ŀ
åĵĪ å°Ķ
ä¸º åħ¬åı¸
éĢı æ°Ķ
åį° å°¼
çĻ¾ å¹´
on s
M ike
äº¤ ä»ĺ
æĢ§ä»· æ¯Ķ
è¿Ľè¡Į åĪĨæŀĲ
åı¯éĿł çļĦ
val ue
çĥĺ çĦĻ
æĸ¯ èĴĤ
pl ay
å¤§ èĴľ
çĽĨ æł½
ä¸Ģ åĳ¨
è¿Ļ ä»¶
ow er
ir st
19 20
æ·ĺ æ±°
åĶ¯ä¸Ģ çļĦ
éĵħ ç¬Ķ
a int
é£Ł æĢ§
äº« åıĹåĪ°
éĹ® çŃĶ
èī² åĪĹ
ç£ ·
ä¸ĸçķĮ ä¸Ń
çļĦ æııè¿°
è¨Ģ è®º
æĺ¯ åŁºäºİ
å°Ĩ æĪĲä¸º
çļĦ çĶŁéķ¿
p ress
åħ¸ ç¤¼
çļĦç¿ »
åº§ æ¤ħ
ä¿ ĺ
æĽ´å¿« åľ°
ic a
çļĦäºº éĻħ
Ġä½ľä¸º ä¸Ģä¸ª
æ¨ ±
æĥħ æĬ¥
æĻ´ æľĹ
æ¸¸ è§Ī
æĽ² çĽ®
çļĦç´ §
äº¦ æľī
åĩº åİ»
çĨŁ ç»ĥ
æĪĳ éĿŀå¸¸
T V
ä¸ĸçºª åĪĿ
è§£åĨ³ éĹ®é¢ĺçļĦ
å¯¹ æĤ¨
Ġ åŁºäºİ
çł ²
çĽ¸åħ³ ä¿¡æģ¯
åĩĢ åĪ©æ¶¦
194 0
s plit
éĢļ è½¦
h k
åĬł çĽŁ
åı¯ä»¥ çľĭåĪ°
Ġhel p
æľĢ åıĹæ¬¢è¿İçļĦ
ç³ ¯
å®ŀçĶ¨ æĢ§
çĶµ æµģ
å¥ĸ éĩĳ
å°ı çĮ«
æ¶ Ľ
çĽĹ çªĥ
è·¯ åı£
çļĦç £
Ġli st
çĶµ èį·
åĽł æĸ¯åĿ¦
è¿ĩç¨ĭ ä¸ŃçļĦ
æĿ¥ éĢīæĭ©
å¯¼ å¸Ī
æµ· æ°´
åĴĮ åĬŁèĥ½
ç¼ ¸
Ġh ow
éĢĢ å½¹
åı¯ä»¥ éĩĩçĶ¨
åĴĮ æıĲé«ĺ
çĦ ¯
å¤§ åį«
åĲĦ åľ°çļĦ
æ°´ æºĲ
çļĦ é¢ĨåŁŁ
å¯¹ å¤ĸ
éĴ ©
Ġ2 2
åĸľæ¬¢ åĲĥ
æķ ²
re n
å°Ħ åĩ»
16 0
åı£ èħĶ
åĵ Ń
w ard
çļĦ ä¾ĭåŃĲ
ä½Ľ ç½Ĺ
194 8
al th
èĢħ åĴĮ
am ple
---- --
ä¸Ń è¢«
å¦Ĥæŀľ æ²¡æľī
åĪĨ è¾¨
åĨĽ çļĦ
re en
çĹ ķ
çľĭ çĿĢ
Ġcom m
éĻĦ åĬł
çļĦä¸Ģ åĪĩ
åħ¶ä¸Ń çĶ·æĢ§
s y
ç²¾ ç»Ĩ
æ¬ ł
æ¿ĢçĥĪ çļĦ
ä½ł æľī
ç¬¬ä¸Ģ ä½į
èĴľ æľ«
åģļ ä¸ĢäºĽ
ä½ľ çī©
N T
æĭĮ åĮĢ
çļĦ çĶ¨æĪ·
A B
æº¶ è§£
å¥½ åĥı
ä»Ĭ å¤©çļĦå¤©æ°Ķ
åĭ ¿
åľº æ¯ĶèµĽ
å½Ĺ æĺŁ
æ³¡ æīĵç²ī
éħĴ åĲ§
åħ³ æĢĢ
çŃī åĬŁèĥ½
èĢĮ æĿ¥
åı¯ä»¥ å¢ŀå¼º
æĺ¯ æĺŁæľŁ
åı¤åħ¸ éŁ³ä¹Ĳ
è¯· æĤ¨
ä¸įå¾Ĺ ä¸į
Ġ2 8
åĲ ¾
è¦ģ çĤ¹
çİ°éĩĳ æµģéĩı
çĽ¸ æľº
çİ¯å¢ĥ ä¸ĭ
éĺ² èĮĥ
åĤ¨ çī©
çļĦç¤º ä¾ĭ
çİ° ä»Ĭ
æĬĹ è®®
èĢĮè¨Ģ ä¹ĭ
å¯Ĩ éĽĨ
éŁ³ åĵį
Ġw ay
ä¸ĭéĿ¢æĺ¯ ä¸ĢäºĽ
çĶŁ èıľ
ä¸į å¦Ĥ
å¾Ī éĩįè¦ģçļĦ
æĪĳåı¯ä»¥ ä¸ºæĤ¨
Ġ åĵģçīĮ
åĪĻ åľ¨
ä½ł æĥ³è¦ģ
çłĤ ç³ĸ
çļĦ é£Łåĵģ
r ad
åįĹ ç¾İæ´²
é¸¡ ç²¾
Ġp os
èĬĴ æŀľ
å®ŀéĻħ åºĶçĶ¨
çļĦäºº å·¥
éĽ¶ åĶ®
å¥ ¢
è®¸ åı¯
æĤ¬ çĸĳ
æŀģ åħ·
å® Ľ
ç£ģ åľº
E x
åĨĽ åĮº
éĵ ¸
è£ħ çĶ²
æ´Ĺ æīĭ
è¿Ŀ çº¦
åıĤ è°ĭ
èīºæľ¯ ä½ľåĵģ
çļĦ è¡¨éĿ¢
æ²® ä¸§
éĽ Į
ĊĠĠĠĠĠĠĠĠ ĠĠĠĠĠĠĠĠĠĠĠ
æĹ¶éĹ´ è¡¨
ç¼ĸ åĨĻä¸Ģæ®µ
èµĦæºĲ åĴĮ
çľĭ å¾ħ
ä¸» è¯Ń
æĺŁ åº§
æĺ¯ ä¸º
éĩĳ å±±
éĩįè¦ģ ä½ľçĶ¨
æĦ¤ æĢĴ
çļĦçĥ ¹
at t
åı£ çº¢
è°ĥ è¯ķ
ä¸Ģ çĶŁ
èĩªä¿¡ å¿ĥ
æĮ ļ
æµ¸ æ³¡
ä¼ł å¥ĩ
1 10
å¤į åĲĪ
è¿ĺ æ²¡æľī
P S
è®¾å¤ĩ åĴĮ
è£ģ åĪ¤
æĪĳä»¬ åħ¬åı¸çļĦ
åĩ ĳ
æľĢåĲİ ä¸Ģä¸ª
åı¯è§Ĩ åĮĸ
æ©Ļ åŃĲ
ç»¿ åĮĸ
ĳ å¸ĥ
å·²ç»ı è¢«
éķľ å¤´
æµģ æµª
æľīä¸Ģ åıª
åı°åĮĹ å¸Ĥ
er ry
çļĦç¤¼ çī©
åķĨä¸ļ æ¨¡å¼ı
æ§ ½
Ã ³
Ġ$ \
ä¿ĿæĮģ åģ¥åº·
åĬłåħ¥ äºĨ
li ght
è¥¿ çĵľ
ul l
æ¾ Ī
Ġè¯· åĳĬè¯īæĪĳ
æ±Łèĭı çľģ
åħ» åĪĨ
èĩªå·± åĸľæ¬¢çļĦ
çļĦ çĶŁçī©
è¡¨è¾¾ æĸ¹å¼ı
è¿Ļ æĿ¡
èĭ ĳ
éļıçĿĢæĹ¶éĹ´çļĦ æİ¨ç§»
Ġ z
é¸¡ ç¿ħ
ar m
ä¸Ĭ æĸ¹
åĽ¢éĺŁ åįıä½ľ
Ã Ń
èª ĵ
çĪ¬ è¡Į
æĥħ æĻ¯
åĨĻ åĩº
çº ±
è´µ å·ŀ
å½¢ çĽ®
å¼Ĺ æľĹ
ç©º æł¼
åĴĮ æĪĳ
åıĹ æįŁ
åĴĮ åİĭåĬĽ
å¤§åŃ¦ çļĦ
çĶŁæĪĲ çļĦ
é¹ ¤
åįİ äºº
197 6
éĺ² æ°´
æ¸ħ åĩī
ç³»ç»Ł åĴĮ
æĳĨ èĦ±
çĸ¾çĹħ çļĦ
çļĦ éĩįéĩı
åħ Ĩ
æ£ µ
Ġ que
åįł åľ°
ç»Ħ è£ħ
ä¸» ç®¡
æľĢä½³ çļĦ
èĸ ĩ
å¾® è§Ĥ
åħ¸ åŀĭçļĦ
ä½łèĥ½ å¸®æĪĳ
ä»¥ èī²åĪĹ
éĥ½ å¾Ī
I M
å¤ª åŃĲ
ri end
èµ° è¿ĩ
èĢ³ æľº
åĲĳ ä¸ĭ
åĨľ åİĨ
åı¯èĥ½ åŃĺåľ¨
åĶ± æŃĮ
åĽł æŀľ
æĹ¶éĹ´åĴĮ ç²¾åĬĽ
æĺ¯ä¸Ģ ä»¶
åĴĮ é£İæł¼
æľºåĻ¨ ç¿»è¯ĳ
çļĦç¡ ®
æīį èĥ½å¤Ł
æĥĬ åı¹
al k
åĬł æĭī
å®ŀ æĥł
æıĲä¾Ľ æĽ´å¤ļçļĦ
åħĭ éĩĮ
Ġ .
èĿ ī
æ£Ģ å¯Ł
çľŁ æĺ¯
èĦĬ æ¤İ
å®Ī æĬ¤
åĻ ¬
å¤ĸ çº¿
å±± æ°´
Ġbe en
Ġl ang
ä¼ļ ä¸Ĭ
åĴĮ èĶ¬èıľ
æµĵéĥģ çļĦ
l ength
å¹¶ è¢«
æĺ¯ æĹ¥æľ¬
) .
åģļ ä»Ģä¹Ī
å½ĵäºĭ äºº
èĩªçĶ± åĴĮ
ult ip
éķ¿ æĸ¹
åħ¬ åĬ¡
æłĩ è¯Ĩ
åĪ¶ åĬ¨
è¡¨ ä¸Ń
åıĺ èī²
çī ²
æķ°åŃ¦ é¢ĺ
æĸĹ äºī
ä¼ĺåħĪ çº§
çĶŁæĪĲä¸Ģä¸ª åħ³äºİ
å¿«ä¹Ĳ åĴĮ
ct or
L isa
åľ¨ æ°´ä¸Ń
åĬł æ²¹
æ°Ķ åĳ³
at ic
æĹĹ ä¸ĭ
ç©ºæ°Ķ è´¨éĩı
çĽ¸å½ĵ äºİ
el if
å½© èī²
æħ ¨
éĻ Ģ
æĥ³ åĪ°
çģ¯ åħ·
è¿Ļ å¯¹
èĥ½åĬĽ çļĦ
æĽ´åĬł æ³¨éĩį
åĬ Ŀ
å°ı åĲĥ
ä¹ĭ æĪĺ
æĦŁ çļĦ
è°Ī è®º
çļĦ çİ°è±¡
ä¸Ģ åħ±
æł¹æį® ä»¥ä¸Ĭ
æĶ¾ åĪ°
å°ı åįİ
19 00
è¾¹ å¢ĥ
çħ® èĩ³
åį Ĵ
åĴĮ èĲ¥åħ»
åĪĽå§ĭ äºº
ac ci
åı¯ æĺ¯
äº§ çī©
å¤§ å¥ĸ
çļĦçĳ ľä¼½
çī¹çĤ¹ æĺ¯
æĿ¯ ä¸Ń
æĶ» çķ¥
ç§ĳæĻ® æĸĩç«ł
ä¸Ģ è¾¹
åĪĨ æ³Į
éĺŁ éķ¿
Python ä¸Ń
è¡¨ è¿°
æĽ´å¤ļ çļĦäºº
è¡¬ è¡«
æİ¨çĲĨ è¿ĩç¨ĭ
å¾· å°Ķ
çĨ Ķ
äººåĬĽ èµĦæºĲ
éĥ½ èĥ½å¤Ł
Ġwh at
ï ½
åį¡ æĭī
å²Ľ ä¸Ĭ
æı ī
èĪĴéĢĤ åº¦
197 2
çļĦ å¹³æĸ¹
å¤§ èµĽ
çĦ¶åĲİ åľ¨
èĲ¨ åħĭ
æŃ¥ åħµ
ä¿Ŀ æļĸ
åħħåĪĨ åĪ©çĶ¨
æłĩåĩĨ å·®
ä¸ľ ä¸´
Ġ1 50
å¤© åĲİ
åİŁ ä½ı
Ġ2 3
è§£åĨ³ è¿Ļä¸ªéĹ®é¢ĺ
æĿ¥ å®ĮæĪĲ
åħĭ å°Ķ
åı¸ æľº
çİ ²
è¥¿ åĮĹéĥ¨
ä¸¤ åĲį
çļĦ ç»ıåħ¸
æł¹æį® æĤ¨çļĦ
å¹´ åĪ°
æĮĩ æĺİ
il li
å·® è·Ŀ
æ¯ıä¸ªäºº éĥ½æľī
çļĦ çĶŁåĳ½
èµ İ
åľ¨ åĮĹäº¬
å¸ĮæľĽ èĥ½
çļĦ åħ¬åı¸
èĬ¬ åħ°
èĢ ķ
çļĦæĹ¶éĹ´ åĴĮ
æĹ¶ éľĢè¦ģ
æľĢ å¤ļçļĦ
åıĳçĶŁ åıĺåĮĸ
æĦı æĦ¿
è¿Ļ åĮħæĭ¬
äºļåİĨ å±±
S tring
ä¸Ģ åı¥
ä¸Ń æīĢ
197 5
log y
ĠE x
å¸ĮæľĽ èĥ½å¤Ł
ib on
å®ŀ ä¹ł
å¤ı å¨ģ
æ¸©æļĸ çļĦ
æ£ĭ åŃĲ
ä½ł åı¯ä»¥åľ¨
ç±³ å°Ķ
å¸¦æĿ¥ æĽ´å¤ļçļĦ
æķĪ åĬĽ
ç§į ç§į
éľĢè¦ģèĢĥèĻĳ åĪ°
å°Ķ å¤«
åľ¨ æľ¬
åĨ³ å¿ĥ
åĲ¸å¼ķ æĽ´å¤ļçļĦ
çļĦ æĮĩåįĹ
åħ¶ ä¸»è¦ģ
k m
æĽ² çº¿
åĩŃ åĢŁ
èĩªå·±çļĦ æĥħç»ª
Ġ æľĪ
19 30
è°ĥ è§£
çļĦ é£İæł¼
æĸ¯ é¡¿
æķ¬ ç¤¼
æµ· è¾¹
çĪ± åĽłæĸ¯åĿ¦
æĥ ¨
éĻĨåľ° éĿ¢ç§¯ä¸º
åĺī å®¾
ç¬¬ ä¸īä¸ª
æ© ĺ
æĬ Ĵ
åĢ¡ å¯¼
ä½¿çĶ¨ æĸ¹æ³ķ
éħį ä¸Ĭ
æ°´åŁŁ éĿ¢ç§¯ä¸º
ä¹ĭ åŃĲ
æ¤įçī© çĶŁéķ¿
æĶ¿åºľ åĴĮ
lo ck
éĢīæĭ© äºĨ
è¿ĺ åĮħæĭ¬
æĢ» åĴĮ
å¾¡ åı²
çļĦä¸Ģ é¡¹
195 6
æĺ¯ æľī
æĿ¥ è¡¨è¾¾
æı´ åĬ©
åĨ¬ å¤©
çļĦç ¹ģ
å¤ıå¨ģ å¤·
è½» æĺĵ
|---- --
æ°Ķ çĲĥ
ä»¥åıĬ å¯¹
æģ¶ æĦı
åĢº åĪ¸
è®º åĿĽ
L e
ibon acci
æĭ¥ æĬ±
åı¯ åľ¨
æĹ ¬
ç¼ĸ åī§
åıĳå±ķ åĴĮ
ĠW e
åľ¨ åĵªéĩĮ
15 00
èĪŀ èĢħ
çļĦç¬ Ķ
çĦ¶åĲİ çĶ¨
æĸ° çĸĨ
ä¸ĭ æĸ¹
ç¬¬ ä¹Ŀ
çķĻä¸ĭ äºĨ
åıª éľĢ
å¾· åįİ
éº» è¾£
å¤Ħ ç½ļ
çļĦåıĳå±ķ åĴĮ
S te
è¿Ļ ç»Ħ
ç¿»è¯ĳæĪĲ æ³ķè¯Ń
æ²»çĸĹ æĸ¹æ¡Ī
æī®æ¼Ķ çĿĢ
ĠWh at
äºĽ ä»Ģä¹Ī
åĪ¶ä½ľ ä¸Ģä¸ª
åĮħ åĽ´
çļĦ åľ°åĮº
å®¢æĪ· éľĢæ±Ĥ
çļĦ æľĢä½³
åĲ ı
å¤© çİĭæĺŁ
åħ« å¹´
ä»¥åıĬ åħ¶ä»ĸ
åľº ä¸Ĭ
å¥ĩ å¹»
èµ· ä¹ī
ä¸į æĩĪ
éĵ¶æ²³ ç³»
çļĦ ä½ĵéªĮ
çĲ Ĳ
è´Łè´£ äºº
å« ģ
è¯¦ç»Ĩ åĽŀçŃĶä¸ĬéĿ¢çļĦéĹ®é¢ĺ
åī¯ ä¸»ä»»
æĺ¯ä¸Ģ ä»½
çļĦ èī²å½©
é¥ º
æī¹ ç¤º
æĺİæľĿ æĶ¿æ²»äººçī©
æĺ¯ åĵª
ä¼ļ çļĦ
ch oice
ä¼ł åªĴ
å®¢ æĪ¿
Ġth ere
Ġm ath
å®ĥ ä¸įä»ħ
on y
Ġ å¦Ĥä½ķ
æ¼Ķ åıĺ
Ġthe y
åħ¼ ä»»
çļĦ åı¯èĥ½æĢ§
ç» ¸
èļ Ĭ
æįĲ èµł
çĽ İ
ä¸ĩ åİĨ
åĵĪ åĵĪ
éħ ¿
çļĦ ç»ıåİĨ
åŃ¦ å£«
çĻ» è®°
re am
è¿Ļæł· æīįèĥ½
çº· çº·
å±Ĥ çļĦ
çĥ Ľ
åī§ éĽĨ
ä¸į è¶ħè¿ĩ
Ġk now
D avid
å®īåħ¨ éĹ®é¢ĺ
ä½¿ åĳ½
æĪĳ åĲ¬è¯´
ä¸» æµģ
æīĵ è´¥
éĻ¨ çŁ³
HT ML
éĩĩåıĸ æİªæĸ½
at ure
P U
Ġst ud
æĶ¶ è´¹
åįĹ éĿŀ
éĿ¢ æĸĻ
å°¼ è¥¿äºļ
æĿ¡ ä¾ĭ
è¡¡ éĩı
é¦ĸåħĪ è¦ģ
åħ³ç³» çļĦ
å¥½ è¯Ħ
æİ¢ç´¢ åĴĮ
å¥¶ æ³¡
æ¶ ¡
åĲĪä½ľ ä¼Ļä¼´
çĪ± åĴĮ
ç» ½
èĬ Ń
Ġs ort
ä¿¡ èªī
èµ° è¿Ľ
l ish
æĳ Ķ
åĴĮ è´¨éĩı
è¯Ĺ åĲ§
æĭ Ń
è¿Ļä¸Ģ çĤ¹
è ¤Ĳ
l and
å¯Ĩ çļĦ
ç«Ļ åı°
æĥ Ł
ä¸İ äºº
Ġnum ber
ä¸Ń æľŁ
æİ ł
éĢļ çĶ¨
åĴĮ è°ĥæķ´
ç¹ģ å¿Ļ
åħ¥ éĹ¨
é¢Ħ å¤ĦçĲĨ
çĺ ¤
ç¼ĸ åĨĻä¸Ģç¯ĩåħ³äºİ
èĭ į
åı¯ä»¥ å¯¹
è¡Ĺ å¤´
æ² Ĳ
ä»ĸ äºİ
éĢĤ ä¸Ń
éķ¿æľŁ çļĦ
åı¯ä»¥ åĪ©çĶ¨
æ£Ģ éªĮ
åľ¨ ä¸ĢäºĽ
é¡¶ éĥ¨
åĵĳ éĵĥ
åį¡ çīĩ
ä¼ģ é¹ħ
è¯· å¸®æĪĳ
ä¼Ĭæĸ¯ åħ°
æłĳ æŀĹ
éĿ¢ åīį
æĬķ éĻį
å¦Ĥæŀľ ä¸Ģä¸ª
è± ļ
æĹģ è¾¹
é¥° åĵģ
æķ°åŃ¦ éĹ®é¢ĺ
åı¯ ä¿¡
ir c
èĭ¥ å¹²
æ¯Ķ åĪĨ
åĬŁ çİĩ
éĩİ é¤Ĳ
æ°´ åºĵ
æŀģ éĻĲ
çļĦç¡ ¬
æĪĳ ä¸į
çıį çıł
çĲĥ åŃ£
è®© è§Ĥä¼Ĺ
åĴĸåķ¡ åĽł
ä¸į èµ·
æĪĳä»¬ çĽ¸ä¿¡
æ°¸ ä¹ħ
èĬ± çĵ£
å¹´é¾Ħ æ®µ
æ¡Į åŃĲ
T æģ¤
å®¡ ç¾İ
è®¾è®¡ ä¸Ń
å®ĥ èĥ½å¤Ł
ä¾ĭåŃĲ ä¸Ń
éĥ½ åħ·æľī
åĸľ æĤ¦
it t
æµ´ å®¤
P ro
éª ļ
è§Ħ å®ļçļĦ
å¤ĸ å¥Ĺ
çĦ¶åĲİ ä½¿çĶ¨
åĽŀçŃĶ ä»¥ä¸ĭéĹ®é¢ĺ
æł¼ æĭī
æ¸ Ĭ
c ome
çļ Ĥ
éħį é¥°
èĢĮ æ°´åŁŁéĿ¢ç§¯ä¸º
å½ĵä¸Ń éĻĨåľ°éĿ¢ç§¯ä¸º
çļĦ è¡£æľį
ust om
ç§ĳåŃ¦ éĻ¢
çĶŁäº§ åĬĽ
Em ily
çĶµè§Ĩ èĬĤçĽ®
ãĢ ı
çĸ ¯
ä¸Ģ åĿĹ
193 7
ãĢ İ
åľ¨ ä¸Ń
ä¸Ģ å¹ħ
å¥ İ
çļĦ éģĵè·¯
ä¸į å½ĵ
å¾® çĶŁçī©
éĢģ åĪ°
å¹¶ç»Ļåĩº è¯¦ç»ĨçļĦ
å±ĭ é¡¶
éĢĥ ç¦»
æľĢå°ı åĢ¼
èĬ ¹
ä¸į å®ī
è¯Ń ä¹ī
åĲĮ æŃ¥
åº· çĨĻ
åĬŀäºĭ å¤Ħ
çª Ħ
å®ĥ æĺ¯ä¸Ģç§į
è§Ĵèī² çļĦ
Ġ !
åĴĮ éģĵå¾·
åħ¬ çĪµ
åĴĮ ä¸ĢäºĽ
åĳ İ
åĴĮ æµĭè¯ķ
åĢŁ æ¬¾
åĽĽå·Ŀ çľģ
ä¸Ģ åı¥è¯Ŀ
ä¹Ł èĥ½å¤Ł
æµģ éĢļ
æŁ¥ ä¸Ģä¸ĭ
åĸ· åıĳ
æĦı å¼ı
è¿ĻéĩĮ çļĦ
b y
E r
æĴ° åĨĻä¸Ģç¯ĩåħ³äºİ
æĺ¯ åľ°çĲĥ
æĦ ģ
åģļåĩº è´¡çĮ®
åĪ¶ å¤ĩ
è±Ĩçĵ£ éħ±
å®łçī© çļĦ
è¿ĺæľī å¾Īå¤ļ
æĹ¶ ä¼ļ
ä¸» åĬŀ
èµ ļ
çĮ ©
æĮī æĹ¶
æ´Ĺ åıĳ
i ew
éħµ æ¯į
Ġ åĹ¯
y n
Ġ key
åľ°çĲĨ ä½įç½®
çľŁå®ŀ çļĦ
å¿łè¯ļ åº¦
ä¸Ģ æĸ¹
å´ ĸ
C R
åľ¨ èģĮåľº
æĬ¥ çº¸
en n
æĽ´ éĢĤåĲĪ
194 7
ç¬¬äºĮæ¬¡ ä¸ĸçķĮå¤§æĪĺ
åĨĻ çļĦ
çļĦçĹ ĩ
æĩ Ĵ
ĠF alse
æĪĳä»¬ æīĢ
å¥³ ä¸»è§Ĵ
æĿĲæĸĻ çļĦ
ĠU n
å§ ļ
æľ¬æĸĩ å°Ĩ
Ġ3 5
æ³ķåħ° è¥¿
åľ¨ åľ°
æ¸ħ æ¾Ī
å°Ĩ è¢«
åĩº æ¼Ķ
åį¡è·¯ éĩĮ
é©± éĢĲ
Ġ7 0
Ġ è¿Ļä¸ªéĹ®é¢ĺ
åĪ¶ä½ľ æŃ¥éª¤
éĢļå¸¸ çĶ±
æĸ° å¨ĺ
åľ¨ ä»ĸçļĦ
Ġä¸į çĶ¨
è½»è½» åľ°
éĢļè¿ĩ è¿ĻäºĽ
èĪĴ ç¼ĵ
åºĶ èģĺ
M P
çľŁ è¯ļ
ç¼º éĻ·
èĪ¹ åıª
ç»Ī æŃ¢
è¯Ńè¨Ģ åĴĮ
èĤ ¾
Ġd if
èģ Ĩ
æĢģ åº¦åĴĮ
ç»Ħ ä»¶
æļĤ æĹ¶
é£İ éĽ¨
æĥħæĦŁ åĪĨæŀĲ
åıĤ éĢī
çĶĺ èĤĥ
æĹ¥ ç¨ĭ
åĩī çĪ½
éªĳ èĩªè¡Įè½¦
éº» çĥ¦
è½» ä¾¿
ä¸Ģ çº§
è´ ¼
è´Ńçī© æ¸ħåįķ
æįķ æįī
Ġo p
ĠĠĠĠĠĠĠĠ ĠĠĠĠĠĠ
éĽ¶ é£Ł
åĥı ç´ł
ĠP l
éľĢè¦ģ éĢļè¿ĩ
çļĦ ç»ĨèĬĤ
å·ŀ åºľ
æµ· æĬ¥
çļĦ ä¸Ńå¿ĥ
ä¸įå°ĳ äºİ
Ġ2 1
Ġ åĩıå°ĳ
çĽ¸ ç»ĵåĲĪ
ç³»ç»Ł ä¸Ń
196 8
ä¸įæĸŃ è¿ĽæŃ¥
å¥³ ç¥ŀ
é²¨ é±¼
ç½ĳ è·¯
äºĮ æĪĺ
æĬ¤èĤ¤ åĵģ
å¤§ çĲĨ
æľ¬ äºº
çİ¯å¢ĥ éĹ®é¢ĺ
èĵ ī
ä¿® çĲĨ
è¾© æĬ¤
åı¤ è¿¹
Em ma
æľºåĻ¨ äººçļĦ
åĴĮ æ´»åĬ¨
ä¸ī æĺŁ
Ġj ust
çļĦ æĥħèĬĤ
te st
è½» çĽĪ
åľ¨ å¼Ģå§ĭ
it ed
ä½¿ æĪĳä»¬
äººå·¥æĻºèĥ½ åľ¨
çģ¾ éļ¾
åīį åĲİ
: |
çħ§ çīĩ
çļĦç³ ĸ
åĴĮ èĩªæĪĳ
b anana
è¾½ å®ģ
åĳ¨ å¹´
R e
Ġli fe
å¤± è¸ª
æ´» åĬĽåĴĮ
çº¹ çĲĨ
C A
åĽĽ åįģ
åĴĮ çĽĲ
ä¾Ľ åıĤèĢĥ
è¥¿ åįĹéĥ¨
åĲĮ æĢ§
åİŁ åĲį
ä»£ æķ°
åħī èĬĴ
èĢģå¹´ äºº
ãĢ ĳ
æĭĨ éĻ¤
æľįåĬ¡ çļĦ
ä¸į å¥½
ol ut
éĻĨ ç»Ń
æİ¨çĲĨ éĢ»è¾ĳ
æİ ·
çģµ éŃĤ
çº³ ç²¹
è¯¯ å·®
c re
çŁŃ æĸĩ
å¤© åľ°
ä½Ĩ è¿Ļ
ä¸»è¦ģ çĶ±
ãĢ Ĳ
å± ł
ä¹ĺ ç§¯
çļĦç Ħ
å½± è§Ĩ
å®ļ å±ħ
Ġstr ing
çłģ å¤´
t d
åŃ¦ çļĦ
æĶ¹ åĪ¶
çļĦçĪ¶ æ¯į
L ily
åĲ »
éľĢè¦ģ äºĨè§£
æ¯Ľ æ³½
ç²¾ å¿ĥ
å®¶ åĴĮ
çļĦçĹĩ çĬ¶
éĶ Ī
å¡ŀ çº³
éĢ Ĺ
ä¿ĥè¿Ľ äºĨ
å¤© èµĭ
çı Ģ
Ġan y
å°ı çİĭ
åĪ¶ä½ľ åĩº
ä¸º äººç±»
éĿ¢ ç³Ĭ
åī¯ ä¸»å¸Ń
å°¼ å°Ķ
å·²ç»ı æĪĲä¸ºäºĨ
éĿŀ å»ºåĪ¶
le ment
æ¿ Ĵ
æ¸¸æ³³ æ±ł
åĽłä¸º ä»ĸä»¬
åĪĨç±» åĻ¨
åı¶ çīĩ
Ġ" ""
æ±Ł åįĹ
æĪĳ æŃ£åľ¨
å¹³ æĿ¿
å»ºè®® åĲĹ
çļĦæĹ¶ åĪ»
éĩĳ èī²
é«ĺ å³°
æıĲä¾Ľ æĽ´åĬł
åĴĮ å¸Ĥåľº
æµģ ä¼ł
åĴĮ çĶŁæ´»
æ¬¡ å¹´
åŃĹ æ®µ
us ic
a ir
åĪĨ éļĶ
èĳ± èĬ±
è®²è¿° äºĨä¸Ģä¸ª
åĲ µ
Ġ ï¿¥
åŃķ å¦ĩ
æľĢ æľī
ç½ĳ é¡µ
èģĬå¤© æľºåĻ¨äºº
çĶ¨ æ°´
æĺ¯åĲ¦ ç¬¦åĲĪ
æ·· åĩĿ
æ¨¡åŀĭ çļĦ
éĻĮçĶŁ äºº
ç»Ļåĩºåħ·ä½ĵçļĦ æİ¨çĲĨéĢ»è¾ĳ
åĽŃ æŀĹ
åºĵ åŃĺ
ä½ľ èĢħçļĦ
éļı åį³
ä½ı åľ¨
äºĨ è¿Ļä¸ª
éŁ³ æķĪ
éī´ å®ļ
åĪĻ ä¼ļ
æ´¾ éģ£
o int
ä¸ĸçķĮ åĲĦåľ°
Ġ1 20
åįı åĲĮ
çļĦ æ¦Ĥçİĩ
çİ°éĩĳ æµģ
al es
åĭĩæ°Ķ åĴĮ
èī² ç´ł
Ġ ä¸ŃåĽ½
æµ· å¹³éĿ¢ä¸Ĭåįĩ
æĺ¨ å¤©
u res
åĴĮ ä»·åĢ¼è§Ĥ
æķ° åįģ
äºĨä¸Ģ åľº
äº® åº¦
é¸Ń åŃĲ
åĽŀçŃĶéĹ®é¢ĺ å¹¶ç»Ļåĩºè¯¦ç»ĨçļĦ
åĽŀçŃĶéĹ®é¢ĺå¹¶ç»Ļåĩºè¯¦ç»ĨçļĦ æİ¨çĲĨè¿ĩç¨ĭ
çĥ ģ
r am
åĲĮ çĽŁ
å¥Ķ è·ĳ
ä¸Ĭ éĿ¢çļĦ
çĨŁ éĢı
æľĢ åħ·
åĴĮ èµĦæºĲ
å¹¶ èİ·å¾Ĺ
éĽ¨ æŀĹ
195 2
å§ ¬
éħ± æĸĻ
ä¸į åı¯èĥ½
æ¸¯ åı£
çļĦ æĬķèµĦ
åĴĮ æľī
A åĴĮ
æĹ¥ æ²»
äºĶ èĬ±
al s
ä½© æĪ´
åİļ åº¦
å¼ Ĭ
å¸ĥ æľĹ
å¯º åºĻ
Ġ et
è¸ ¢
196 4
èįī èį¯
èĴĻ çī¹
éĵľ çīĮ
ä¼łç»Ł æĸĩåĮĸ
æįŀ åĩº
ä¹Ł æĺ¯ä¸Ģç§į
åĽº ä½ĵ
è´ ©
èĮĦ åŃĲ
æıĲåĩº çļĦ
è¯ ı
å»ºç«ĭ èµ·
çļĦçĥ¹ é¥ª
å´© æºĥ
èĨ³ é£Ł
çĻ» å±±
èīº äºº
æ°Ķ ä½ĵçļĦ
ĠH ow
ce pt
at ive
æĹ¥ èĲ½
æĿĥ å¨ģ
è¿Ļé¦ĸ è¯Ĺ
T A
è¯·è¾ĵåħ¥ ç¬¬ä¸Ģä¸ª
æµĵç¼© åĴĸåķ¡
åĴĮ æķĻèĤ²
è¿ĩ æĿ¥
Ġst art
r or
çļĦ è®¡ç®Ĺ
è¯·è¾ĵåħ¥ ç¬¬äºĮä¸ª
æ¤į è¢«
æ»ĳ éĽª
åĬ¨ è¯į
å§¿ æĢģ
t al
åĲ¸ çĥŁ
æĺ¯ é¦Ļæ¸¯
æĸ¹ è¨Ģ
åĪĨ ä¹ĭä¸Ģ
00 00
æ¬² æľĽ
æľ¬ å±ŀ
ä¸¤ å¹´
çĻ¾ ä¸ĩ
è¿Ļ åı¯ä»¥
Ġ---- --
æ¯Ľæ³½ ä¸ľ
ĠA n
æĸĩæľ¬ ä¸ŃçļĦ
---------------- ----------------
çļĦç ĩ
ä¸Ģ å¼Ģå§ĭ
ä¸ª æĢ§åĴĮ
äºĨ ä»ĸ
å¤ļåħĥ åĮĸ
åĲŀ åĻ¬
äºĮ äºº
åĴĸåķ¡ é¦Ĩ
å¼ł ä¸ĵè¾ĳ
op le
æĦŁåıĹ åĴĮ
æĬ Ħ
è¾ Ł
ç² ¥
åħ± è®¡
Ġs et
åľ£ è¯ŀ
çĶµ çº¿
um ent
æŁ Ħ
å¥½ å¥½
æĽ Ŀ
Ġ å¢ŀåĬł
å°ı çĲĥ
éĿŀå»ºåĪ¶ åľ°åĮº
æŀ ķ
è¯´ æľį
èģĶç³» æĸ¹å¼ı
åĽº å®ļçļĦ
å¥¥æĸ¯ åį¡
åĪĻ ä¸º
å¤§åŃ¦ çĶŁ
Ġ å¸®æĪĳæĥ³
ä¸į åºĶè¯¥
æĹ© æĻ¨
æ¢¦ å¢ĥ
çŁ¥åĲį åº¦
äººå·¥æĻºèĥ½ æĬĢæľ¯çļĦ
åĴĮ åİĨåı²
äººä»¬ çļĦçĶŁæ´»
ä¼ļ éķ¿
è´¨ çļĦ
èĿ ł
å®ļ æĹ¶
ä¹ĭéĹ´çļĦ è·Ŀç¦»
åı¯ä»¥ æĮĩ
æĴ° åĨĻä¸Ģä»½
éļ Ļ
b e
éĩĮ äºļ
èº« ä¸º
å·¡ åĽŀ
éĶ® çĽĺ
ä½ł åºĶè¯¥
æıĲ åıĬ
ï¼ģ ")
äººéĻħ äº¤å¾Ģ
æł¼ ä¸º
æĿ¥ å¢ŀåĬł
æīĭ å¥Ĺ
éĢīæĭ© çļĦ
Ġp r
æľº åĬ¨
çĥ ¯
æĻĭ çº§
æłĩ çĤ¹
å°½éĩı éģ¿åħį
çľĭ æĿ¥
ç©ºæ°Ķ æ±¡æŁĵ
çī©ä½ĵ çļĦ
O R
é¸¡ èħ¿
æŃĮ åĶ±
æ´¾ åĩº
ä»ª åĻ¨
çº¦ æĿŁ
Ġ çĶ¨æĪ·
éŁ³ é¢ĳ
å¥³ æĢ§çļĦ
æ¡£ æ¡Ī
am p
æĺ¥ å¤©çļĦ
å¾Ĺ åĲį
éĴ ī
æĢ» èĢĮè¨Ģä¹ĭ
åľ¨ æ¸¸æĪıä¸Ń
et a
åľ° è¿Ľè¡Į
åı¯ éĢī
ä¸Ģæ®µ æĹ¶éĹ´
ä¸»ä¹ī çļĦ
ä¼´ éļıçĿĢ
rou gh
èº« æĿĲ
æĮĩ å®ļçļĦ
çī©ç§į çļĦ
æĺ¯ åħ³äºİ
ç»Ń åĨĻ
ä¸į ç®¡
åĪº åı²
æ³° åĿ¦
åĴĮ èĩªçĦ¶
us er
ä¸į ä½³
________ ____
éĹª çĥģ
æĦ¿ æľĽ
195 5
èº«å¿ĥ åģ¥åº·
å¦Ĥ æľī
A BC
Ġ è¿Ľè¡Į
æĶ¶åħ¥ åĴĮ
æıĲä¾Ľ å¸®åĬ©
è¯ģ ä¹¦
ç¼© çŁŃ
çļĦç¿» è¯ĳ
åŁİå¸Ĥ åĮĸ
æ¸© æ°´
èĢĥ åı¤
æ··åĩĿ åľŁ
ä½ł è¦ģ
æģ¶ åĬ£
çŃī åĲĦç§į
å¤© ä¸ĭ
åĬł æ·±
èį Ĩ
åıĳ è¾¾
é¼ İ
çļĦ æľīæķĪ
ä¸Ĭ åİ»
æĪĳä»¬ æľī
ç¡®è¯Ĭ çĹħä¾ĭ
ç¥ ł
å¼ķ é¢Ĩ
åĴĮ æİ§åĪ¶
194 1
çŃī æ´»åĬ¨
èĦļ æľ¬
éĶĢåĶ® éĩı
å»ºçŃĳ çļĦ
Ġ éģ¿åħį
åĮ ł
æĹ¶éĹ´ ç®¡çĲĨ
ç¿ Į
ä¹Ĳ æĦı
åĩĿ èģļ
å½ ¦
èĥľ åľ°
ä¹¦ éĻ¢
åĽĽ ç§į
åĴĮ ä¿ĿæĬ¤
ç§° ä½ľ
éĥ½æľī åħ¶
æĵ¦ æĭŃ
æ±Ĥ åĩº
å¥¥ å°Ķ
s ize
åľ Ń
è½° çĤ¸
0 2
s p
éŃ ģ
193 8
æĪª æŃ¢
éĽĨä¸Ń åľ¨
åĪĻ æľī
æ¸©å®¤æ°Ķä½ĵ æİĴæĶ¾
h ello
Ġwh o
Ġnum s
å¼ķ è¿°
çļĦ å¹³è¡¡
è¯· ç¡®ä¿Ŀ
ç»´ å¤ļ
æ³¢ ç½Ĺ
åĮº åĴĮ
å¼Ł å¼Ł
æĭĸ å»¶
V erse
ä½ľä¸º ä¸Ģç§į
åĪ¶ çīĩ
Sar ah
å°¿ å¸ĥ
åķ ¦
++ )
éĢī ä¸Ń
åĲĽ ä¸»
åĬ¨ æľº
åĲĮæĹ¶ è¿ĺ
éĹ ¸
æ¯Ľ å·¾
________________________________ ________________________________
å¿ Į
èģĬ ä»Ģä¹Ī
æ¬º è¯Ī
çļĦ æľĢå¤§
èŃ¦ æĬ¥
åģĩ æľŁ
èĮ ħ
ä¹Ĳ åĽŃ
äºĨè§£ åĪ°
196 6
æį® è¯´
åľ¨ é¦Ļæ¸¯
èŀº æĹĭ
ä¸ī æ¬¡
åı¤ å¸ĮèħĬ
s er
è¢« çĶ¨äºİ
åīį è¡Į
M ary
åĲİ éĿ¢
åĪĨ å¼Ģ
èµ Į
æµ· æµª
Ġ å®īè£ħ
è¿Ļ åı¯èĥ½
çº º
é¥ ¥
åİĭåĬĽåĴĮ çĦ¦èĻĳ
0 8
åĤ¬ åĮĸ
è½¦ èº«
åģļ ä¸Ģä¸ª
é¾Ļ å¤´
çī¹ èī²çļĦ
ä¸įæĸŃ æıĲé«ĺ
ro id
Ġword s
ä¼ĺæĥł åĪ¸
çľŁ çĽ¸
æĤ¨åı¯ä»¥ ä½¿çĶ¨
åĲį ä¹ī
éĢļå¸¸ çĶ¨äºİ
æĪĸ è®¸
çĻ» ä¸Ĭ
è¿ĩ äºĨ
å¼ ĵ
æłĩ æ³¨
åģļ èµ·
å°ı æķ°
o th
å®łçī© çĭĹ
æĢ§ éĹ®é¢ĺ
çĶ° å¾Ħ
çļĦ çī©è´¨
é¸ ¦
éĵģ å¡Ķ
ä¸İ åŃ©åŃĲ
ç«ĭ ä½ĵ
åĲ ĵ
197 3
sc ore
åĨĽ åĽ¢
b ox
è¯» åıĸ
æĥħ äºº
åİ Į
ç¼ĸåĨĻä¸Ģä¸ª ç¨ĭåºı
æ¾ Ħ
èĩªå·±çļĦ æ¢¦æĥ³
ç²¾ ç¾İçļĦ
å¯¹ è¯¥
çīĪ æĿĥ
æ±ī æĹı
è¾© è®º
çļĦ çī¹
ç¤¾ä¼ļ ä¸Ń
çŁ¥è¯Ĩ äº§æĿĥ
çĻ½ äºĳ
H e
åĴĮ æĸ¹æ³ķ
æĺİ æĻº
ä¸¤ä¸ª æķ°åŃĹ
åħ¬ åĳĬ
o ver
è°ĭ æĿĢ
ä¸Ģä¸ª åŃĹç¬¦ä¸²
Ġh er
0 3
å§ĭ äºİ
åıĺå¾Ĺ æĽ´
ç¢ Ł
åı¯åı¯ ç²ī
å®¤ å¤ĸ
äºļ çĽ®
cl ude
å®ī å¨ľ
AI æĬĢæľ¯
çł į
Ġd iv
åħĭ ç½Ĺ
åĸ Ĭ
æĺ Ķ
æ´» æ³¼
æ¨¡ åħ·
çļĦæĹ¶ åħī
æĦŁè§ī åĪ°
ul ar
ä½Ĩ åį´
åĩıå°ĳ å¯¹
é»ĳ å®¢
ç½ĳç«Ļ ä¸Ĭ
193 9
ic ro
å§ĭ å»ºäºİ
åľ¨ æĸ°
è®¤ å®ļ
è®¾è®¡ ä¸Ģä»½
çĽ®æłĩ æĺ¯
w it
l abel
è¾¾ å°Ķ
ĠA d
alcul ate
éªĳ åħµ
l ine
å¼Ģåıĳ èĢħ
Ġ ç»Ļ
" .
åľ° ä¸Ń
m s
è¿Ļå°Ĩ æľīåĬ©äºİ
åĪ¶æĪĲ çļĦ
end er
ä»¥ä¾¿ åľ¨
åĴĮ å°Ĭéĩį
é¦ĸ å¸Ń
èµŀ åĬ©
äº§ éĩı
åĽŀ æĸĩ
196 9
é¥ ¿
ç¨į çŃī
äººç±» æ´»åĬ¨
ä¾ ¨
æļĤ åģľ
ä½ł çŁ¥éģĵ
åħ¬åĽŃ éĩĮ
Ġd el
ç§ĳåŃ¦ çļĦ
åºĶçĶ¨ åľºæĻ¯
åĺī éĿĸ
æ¿Ģ åĬ¨
197 4
åĲİ åĨį
æīĭ ä¸Ń
è´¨ æĦŁ
åħ¨ èº«
æľ¨ æĿ¿
æĪĺ å£«
LE CT
Ġle ft
ãĢĤ ï¼Ī
ä¾ĽåºĶ éĵ¾
Ġ é¸¡èĽĭ
èº«ä½ĵ çĬ¶åĨµ
Ġp art
Ġ 2000
åĬł åĵ¥
[ ]
åĩı æ³ķ
ä¸» ä½ĵ
èĬĿ åĬłåĵ¥
éĢŁ çİĩ
æŀ« åı¶
éĢī ä¸º
è¯· ç»ŃåĨĻ
å®ļæľŁ æ£ĢæŁ¥
åĴĮ ç³ĸ
åĮħ è£¹
ä»¥ å®ŀçİ°
ä½į çļĦ
åħĭ æŀĹ
ĠR e
ä»¥ ç¡®å®ļ
å¾Ĵ æŃ¥
195 4
èº º
çħ§ å°Ħ
éĴ ¾
çºł æŃ£
è®© ä½łçļĦ
è¾ĥ å°ĳ
æİ¨ åĩºçļĦ
ãĢĤ âĢľ
åĩ½æķ° çļĦ
æıĲ éĹ®
çļĦçĦ ¦
åľ¨ å®¶åºŃ
æĹł æķĪ
æ¢ Ń
t ract
åĨĽ å®ĺ
Ġ ```
åĲĮ ä¸Ģä¸ª
éħį èıľ
çļĦ è®¡åĪĴ
ä¼¤ äº¡
éĩĬæĶ¾ åĩº
äºĶèĬ± èĤī
è·Ł æĪĳ
` ãĢĤ
çļĦ ä¹¦
æŃ» åĲİ
ç¾¤ ä¼Ĺ
è° İ
æľĿ å»·
ï¼Į "
åĲ¬èµ·æĿ¥ ä¸įéĶĻ
ç«ĭæĸ¹ ç±³
ä¸ŃæľĢ å¤§çļĦ
èĻ« å®³
è¿· å®«
å¤§èĩªçĦ¶ çļĦ
æĭį çħ§
åĭ ĺ
iz z
åĴĮ ç»ıéªĮ
åº§ æłĩ
åĴĮ æĦıä¹ī
ä¸ī æĸĩ
çĶ¨ æ³ķ
æĹ¶éĹ´ ä¸º
éĢļå¸¸ éľĢè¦ģ
çļĦæĹ¶ ä»£
åĿ ł
S U
Ġ* *
å¹¶ ä¸įèĥ½
æĹłå°½ çļĦ
æĿ¥ è¡¨ç¤º
ä¸Ńå¿ĥ çļĦ
åį³åı¯ äº«çĶ¨
æ´» æĢ§
é¢ģ åıĳ
åĲ¬ åĬĽ
æ®ĸæ°ĳ åľ°
çļĦå¥½ å¤Ħ
ä¾ĭå¦Ĥ åľ¨
å®ļä¹ī äºĨä¸Ģä¸ª
ä¸įåı¯ éģ¿åħį
Ġ ä¸Ģç§į
çª Ŀ
ï¼ ı
Ġ åģĩè®¾
ä¿Ŀ å¯Ĩ
Ġs m
åºĹ éĵº
çļĦçŁŃ æĸĩ
çº¢ çĥ§èĤī
ar a
ä¸ĢçĽ´ æĺ¯
èģĨ åĲ¬
ä»ĸçļĦ ä½ľåĵģ
éĻ¶ çĵ·
æĴ ¼
Th is
æ°´ åĪĨåŃĲ
éĴĵ é±¼
æ½ º
åħ³äºİ å¦Ĥä½ķ
åī ¥
åŃ¦ åĴĮ
éķ¿ ä¹ħ
) ï¼ļ
d a
ä¾¿ äºİ
åĽłæŃ¤ éľĢè¦ģ
è¿ľ å¤Ħ
éĴ¢ éĵģ
ç«ŀ éĢī
ä¸įæĸŃ åıĺåĮĸ
å¤ļæł· åĮĸçļĦ
çĽĳ å¯Ł
æ´»åĬ¨ ä¸Ń
èĲ¨ å°Ķ
ä»İå°ı åĪ°
çĢ ĳå¸ĥ
Ġ4 5
çļĦ ä»·åĢ¼
å°ı åĮº
Ġn p
é» ı
ä¸¤ åĽ½
R NA
åģ¥åº· çĬ¶åĨµ
çļĦ æĬ¥åĳĬ
éĵ¶ çīĮ
æķ° åĴĮ
app y
å®¡ çĲĨ
ä¸ŃæľĢ éĩįè¦ģçļĦ
å·´ èµ«
å°½ æĥħ
ç§ĭ é£İ
ä¿ĿæĮģ åĨ·éĿĻ
åĴĮ æĸ°
o in
éĺ³åħī ä¸ĭ
ä¸ĵ åĪ©
çļĦ æĪĲåĬŁ
ä»ĸ å¼Ģå§ĭ
i um
è´Ŀ å¤ļ
éĺ¿å°Ķ åįĳ
èİī èİī
å³¡ è°·
c ol
éģĵ çļĦ
éĽķ åĪ»
Ġ çĮ«
æīĢåľ¨ åľ°
æĬĬ å®ĥ
å± ĳ
æľ¨ è´¨
è§ģ è§£
] ;
åĨľ åľº
çļĦ ä¼ĺçĤ¹
Ġ å°ıæĺİ
å®ī ä¸ľ
ĠM e
æĬĹ æ°§åĮĸ
ï½ ŀ
åĸ ±
æİĴåºı åĲİçļĦ
Ġ æĿĲæĸĻ
åľ¨ åŁİå¸Ĥ
è·¯ æ®µ
æľį å½¹
ä¸Ģèµ· åİ»
çĶµ æ¢¯
åĽ ļ
it ies
å®¡ æł¸
è¡Į è½¦
å°ı ç±³
åĨĻä¸Ģé¦ĸ åħ³äºİ
åİŁä½ı æ°ĳ
ç´ł åħ»
it al
æ² ¥
197 7
194 4
åĽ½æ°ĳ æĶ¿åºľ
ou se
å¾· æĭī
å¼Ģ è½¦
ä»İèĢĮ ä½¿
ç¾İ åĨĽ
è¿ª å£«
ä¸» æĦı
ech no
T o
Ġpl ay
æĿ° åĩº
å¸ĥ æĸ¯
éĺ³ å¸Ĥ
æ²» æĦĪ
æĪĳ çİ°åľ¨
ç¼© åĨĻ
ä¸Ģ äºº
çĤ¹ ç¼Ģ
éĺ¿å°Ķåįĳ æĸ¯
è¡ ·
ç»½ æĶ¾
åĴĮ ä»·æł¼
å°ı å¼ł
æľĭåıĭ ä»¬
èŀį èµĦ
å¿ĥ çİĩ
çĽĸ èĮ¨
æľī å¾Īå¤§çļĦ
æ²³åįĹ çľģ
å¿ĥ èĤº
å»ºè®® éĢīæĭ©
ä¸Ģ åı°
çº¿ ä¸ĭ
é¥®é£Ł åĴĮ
éĩĳ åŃĹ
ä½İ ç¢³
æ»¨ æµ·
è§ĦåĪĴ åĴĮ
L ist
å·²ç»ı åľ¨
æģ° å½ĵ
èģļ ç±»
çłĶç©¶ åĴĮ
è¿ªå£« å°¼
æ£ į
å§Ķ æīĺ
çļĦçĥ¤ç®± ä¸Ń
å¹¿ å¤§
å®ī æħ°
å»ºè®® åľ¨
ä»£è¡¨ åĽ¢
Tr ue
æľį é¥°
çļĦçģµ æĦŁ
n ext
çĩĥ æ²¹
çķĮ çļĦ
çŃī å¤ļ
åĲĦç§į ä¸įåĲĮçļĦ
è®¡ æķ°
ä¼ļ åĩºçİ°
Ġe ff
å¿ĥ è¡Ģç®¡
è¶ħ åĩº
ç²ī ä¸Ŀ
å¹³ è¡Į
æŀģ é«ĺçļĦ
æĪĲ çļĦ
le y
Ġ æĿ¯
å¸®åĬ© äººä»¬
æİĴåºı ç®Ĺæ³ķ
ä¸īæĸĩ é±¼
ä»¥ å¢ŀåĬł
ä»£è¡¨ æĢ§çļĦ
åİ¨ å¸Ī
çļĦçĭ¬ ç«ĭ
è½¨ è¿¹
å·¥ä½ľ äººåĳĺ
çļĦ æĳĦåħ¥
äºĭä»¶ çļĦ
çī º
å¤§å°ı çļĦ
Ġg ood
èĵĿ èİĵ
æ··åĲĪ åĿĩåĮĢ
ãĢĭ ï¼ļ
æİ¨ éĶĢ
ä¸į çŁ¥
æ± Ŀ
åį¡ ç½Ĺ
ä¸į ç¨³å®ļ
çĶµåŃĲ è®¾å¤ĩ
éħ¸ ç¢±
èĢĥ å¯Ł
è´Ŀå¤ļ èĬ¬
å¾· çļĦ
u age
Ġp ri
Ġ æľ¬
çī¹ åĮº
å¸¦ ç»Ļ
èİİ å£«
åŁºç¡Ģ ä¸Ĭ
èĩªçĦ¶ ä¿ĿæĬ¤
æĮĩ éĴĪ
ä»¥ä¸ĭ åı¥åŃĲ
å® °
éļ ĭ
ä»¥ åįĹ
é¢Ħ å®ļ
åĲī æŀĹ
197 1
C SS
ä¸Ńåįİäººæ°ĳåħ±åĴĮåĽ½ æĶ¿æ²»äººçī©
åĩıå°ĳ äºĨ
èİİå£« æ¯Ķäºļ
çļĦçģ¯ åħī
åĴĸ åĸ±
196 5
ĠA r
Ġ3 2
åºŁ éĻ¤
è¾ Ī
çłĶç©¶ è¡¨æĺİ
Ġqu ick
in it
è¶³çĲĥ è¿ĲåĬ¨åĳĺ
æ°´ èµĦæºĲ
å¿ĥ çļĦ
ç£¨ æįŁ
å¹¶ å°Ŀè¯ķ
é¥® éħĴ
æĹ¶ è£ħ
æŃ£ æĺ¯
ä¸ŃçļĦ éĩįè¦ģ
åħ±åĲĮ çļĦ
è¿Ļ ç±»
æµ· åºķ
ä¸Ĭ å¸Ŀ
èģĶ ç»ľ
Ġt e
Ġä½ľä¸º ä¸ĢåĲį
ä¸ī äºº
è¿ĺæľī è®¸å¤ļ
éĺ» åĬĽ
å»ºçŃĳ é£İæł¼
èĥĮ éĥ¨
g ame
ä»¥ éĢĤåºĶ
è¡¨çİ°åĩº èī²
æ½ľåľ¨ çļĦ
Ġè¯· å¸®æĪĳ
çļĦ åĪĹè¡¨
éģĵ æŃī
æĺ¯ä¸Ģ åıª
æĸ¹å¼ı æĿ¥
å±Ĥ éĿ¢
æĹłäºº æľº
è¥¿ æİ¥
ä¸Ĭ æ¶¨
å°Ĩ ç»§ç»Ń
å®Į å·¥
ç®¡çĲĨ å±Ģ
Ġto tal
èĬ¯ çīĩ
0 6
æ³ķ å¼ı
æ·»åĬł ä¸ĢäºĽ
æ¸Ĺ éĢı
éĹ®é¢ĺ æĪĸ
çĶµè§Ĩ æľº
èµĽ è½¦
åĲĦ å¤§
å¹¶ å¼Ģå§ĭ
åİŁ åŀĭ
åħ¬åĬ¡ åĳĺ
æĥ ķ
æ£Ĵ äºĨ
åĩº æĪĺ
çļĦ æĮĩå¯¼
èĥĮ åĲİ
èĤ¥ èĥĸ
æĪĲéķ¿ åĴĮ
ä¸į æĺĵ
æ¤įçī©çļĦ çĶŁéķ¿
å·¦ ä¾§
ä¸ī åĽ½
åĿ¦ åħĭ
åīį éĿ¢
Ġe st
æ¬º éªĹ
at ing
éĺ³åħī æĺİåªļ
© çĮİ
ç¼º å¤±
åĮ Ĩ
åĪ© æĸ¯
ä¸Ģ å¯¹
äº¤éĢļ äºĭæķħ
é»ĳ èī²çļĦ
Ġg reat
ä¹ĭ åľ°
åı¯ä»¥ è¯´
åĨį åĬłä¸Ĭ
æłĩçĤ¹ ç¬¦åı·
èĲ¥åħ» ç´ł
å¢ŀ è¿Ľ
ä»ĸæĽ¾ ä»£è¡¨
Ġ ?
åĴĮ çī¹çĤ¹
è¶³çĲĥ éĺŁ
æłĳ æŀĿ
äººå·¥æĻºèĥ½ çļĦåıĳå±ķ
Ġy ear
ä»¥ åĮĹ
è¿ĻäºĽ æĸ¹æ³ķ
çĶµåķĨ å¹³åı°
= ",
ä¹ĭ ç¾İ
éĶ ¥
åı³ ä¾§
Ġåľ¨ ä¸Ģä¸ª
ä½ £
ä¸Ĭ è¯ī
å°Ĩ é¢Ĩ
è¢« åıĳçİ°
ç¤¼ è²Į
ä¸įåĲĮ äºİ
å°± åľ¨
æ·± åİļ
å¤´ çĹĽ
äºĶ æľĪ
çĶŁ æľº
æĭī ä¼¸
åĴĮ æĶ¾æĿ¾
æŃ¤ ç«Ļ
éĶ ¤
è¯·ç»ŃåĨĻ ä»ĸä»¬çļĦå¯¹è¯ĿåĨħå®¹
è¡£ è£Ļ
æŃ¤ èĩ´
éĢīæĭ© åĴĮ
äºº æł¼
åĲĦèĩª çļĦ
å¸ĮæľĽ æĤ¨
æıĲ çĲ´
çļĦäººå·¥ æĻºèĥ½
äº¤ æ±ĩ
ä½ľæĽ² å®¶
åħĥ éŁ³
çļĦçĸ ¾
12 3
ĠS m
åħ¸ åŀĭ
èĥ½å¤Ł æ»¡è¶³
æ¬§ çĽŁ
ç»´å¤ļ åĪ©äºļ
éĩĳåŃĹ å¡Ķ
å±Ģ éĻĲ
è¿Ļä¸ª ä¸ĸçķĮ
ä»ĸä»¬åľ¨ èģĬä»Ģä¹Ī
a ur
æĹł æ¯Ķ
åĨħ æĪĺ
ä½ķ æĹ¶
åĬĽéĩı åĴĮ
æĥ «
ä»ĸä»¬ ä¼ļ
æĹ¥ è®°
å§ĭç»Ī ä¿ĿæĮģ
æİ¨åĬ¨ äºĨ
å®ĥä»¬ åı¯ä»¥
é© °
ä»Ĭå¤© å¤©æ°Ķ
è½¬ åıĺ
é«ĺ å±±
ä¿ ±
å¾® è½¯
çļĦ åıįåºĶ
å¼ §
æĽ´ åĸľæ¬¢
äº« æľī
åľ¨ æķ´ä¸ª
ä¸ī ä¸ĸ
è¾¾ å·ŀ
S p
ç¢ Į
å®¶ åĬ¡
Ġv oid
ä¸Ń è¿Ľè¡Į
èĸĦ çīĩ
åıªæľī åľ¨
èĳ£äºĭ éķ¿
æķ° åįĥ
åıĹ è®¿
çļĦç¥ŀ ç§ĺ
çļĦç ĵ
ä¸ª å°ıæĹ¶
ultip ly
å°Ĩ æīĢæľī
è§£ æķ£
b ody
æĿ¥æºĲ äºİ
åħįçĸ« ç³»ç»Ł
ĠE ng
éĹ¨ åı£
çīº çī²
èİ± èĮµ
åĴ ³
çļĦ å±±
æ© ±
193 6
æķħ å®«
æ²¹ èĦĤ
æľºåĻ¨åŃ¦ä¹ł ç®Ĺæ³ķ
ä»ĸä»¬ ä¹ĭéĹ´
ar get
åģļ äºĨ
æī« æıı
é¦Ļèįī ç²¾
çļĦ å¤ĸè§Ĥ
æĮĩ è´£
å¾Ī æľīè¶£
èĩª å°Ĭ
é¢ģ å¥ĸ
åĩł åĪĨéĴŁ
éº Ł
åħĥ çļĦ
æ³¢ éķ¿
éĺ³åħī åĴĮ
éĩİ å¤ĸ
å³ »
åĹ £
éħį ä»¥
0 7
ä¸ĸçºª æľ«
è¯´ çļĦ
Ġw ant
å¾ĹåĪ° çļĦ
æ¶ī å«Į
åŁİå¸Ĥ äº¤éĢļ
ä¸Ģæ¬¡ æĢ§
å¦ĤæŀľæĤ¨ éľĢè¦ģ
åĴĮ åı£æĦŁ
åĪĨ è¯į
ä¸ĭ ä»¤
èī° éļ¾
èĨĿ çĽĸ
åľ° åŁŁ
ç§ĳçļĦ åħ¶ä¸Ńä¸Ģç§į
S C
è¿ŀæİ¥ åĪ°
åĨĻ ä¸ĭ
ä¸İ ä¹ĭ
Ġp h
æ¨¡ ç³Ĭ
æľī ä¸įåĲĮ
çº³ åħ¥
å¸½ åŃĲ
èĩ Ń
æĺ¯åĲ¦ æĺ¯
C om
å®ŀéªĮ ç»ĵæŀľ
195 9
æİ¨ åĩºäºĨ
åŁİ å¢Ļ
çļĦä¸Ģ æ¬¡
è°ľ é¢ĺ
çĽĴ åŃĲ
çļĦå®īåħ¨ æĢ§
å¼Ģ æĭĵ
çģ ¿
èĥ º
Ġe very
å¤§ æµ·
ç¤º å¨ģ
xx xx
ä¸Ń æī¾åĪ°
å¹³ ç¨³
åĪĽä½ľ çļĦ
ç²ī èī²
å¤©æĸĩåŃ¦ å®¶
ä¸Ģ æĸ¹éĿ¢
| |
Ġh igh
åĲĦç§įåĲĦ æł·çļĦ
èĸĦ èį·
æµ·æ´ĭ çĶŁçī©
åį¢çĵ¦ å°Ķçľģ
æľª ç»ı
éľ² èĲ¥
æĢĿç»´ æĸ¹å¼ı
ä»¥ éĺ²æŃ¢
æĺĵ æĩĤ
éļıæľº æķ°
çĶ· äºº
åĲ¬ éŁ³ä¹Ĳ
ç§ĺä¹¦ éķ¿
ç§ ī
ä»ĭç»į ä¸Ģç§į
åħħ å®ŀ
çļĦ å®¶åħ·
æĺİ æľĪ
ä½ĵ æ¸©
ä¸¤ä¸ª åı¥åŃĲ
f unction
åıĳ åħī
å¸Ĥ æĶ¿
è¯Ń å¢ĥ
å¹² é¢Ħ
ĠT om
è½ ¿
ç¼© å°ı
å¤ªéĺ³ç³» ä¸Ń
ace book
çľĭ è§ģ
çļĦçĸ¾ çĹħ
èĢģ æĬ½
çĥ¤ é¸Ń
çĶŁ æķĪ
çħ Į
ä¹Ł åı¯ä»¥åľ¨
äºĨ ä¸Ģç§į
éĥ½ æ²¡æľī
Ġne ver
éĶ»çĤ¼ èº«ä½ĵ
åĤ¨ å¤ĩ
æł¡ åĮº
Ġ ç¾İåĽ½
195 3
é©¾é©¶ åĳĺ
ï¼ī -
ç» £
äºº éĢł
æĢ» çĽĳ
å¯Ĥ éĿĻ
èĲ½ åľ°
Ġ __
ç½Ĺ ä¼¯çī¹
é¢ Ĥ
u es
æĲŃ å»º
åħ¬ çº¦
æ¯Ķ åħ¶ä»ĸ
èµŀ èµı
æ²Ĳ æµ´
å®ŀ æľ¨
æ°´ ä¸Ĭ
196 7
çĶŁæ´» ä¹łæĢ§
çĶ³ æĬ¥
äº² çĪ±çļĦ
196 1
äºĨ ä»ĸçļĦ
é¸¡ ä¸ģ
å¯¹ èĩªå·±çļĦ
ak ing
çº¦ ä¼ļ
è¯» èĢħçļĦ
Ġ æĪĸ
äº² çİĭ
ç»´çĶŁç´ł åĴĮ
è¿ŀ è¡£è£Ļ
åģ¥åº· éĹ®é¢ĺ
çļĦ åĵģçīĮ
åįł æľī
å¸Ĥåľº ç«ŀäºī
e k
ĠS c
åħ» æ®ĸ
Ġ çĪ±æĥħ
ä½ĵèĤ² åľº
ä¹¦ åĨĻ
ä»»åĳ½ ä¸º
ht ml
è¯ĬæĸŃ åĴĮæ²»çĸĹ
è§£ éĻ¤
ä»İ ä»¥ä¸ĭ
æĪĳ æİ¨èįĲ
ä»¥ä¸Ĭ å°±æĺ¯
çļĦç¬¬ ä¸ī
å½ĵçĦ¶ åı¯ä»¥
æĽ´ æ³¨éĩį
ä¹ĭ ä¸º
åħ¨ åĬĽ
ç¬Ķè®° æľ¬
éĢļ è¡Į
æ¸ħ ä»£
194 2
å¹» æĥ³
çļĦçĥŃ éĩı
Ġ è¿ĲåĬ¨
æľįåĬ¡ åĴĮ
å» ĵ
åŀ ¢
ä½¿çĶ¨ èĢħ
é¢Ħ èŃ¦
ä½łçļĦ åĽŀçŃĶ
è¿Ļä¸ª åĩ½æķ°
å¢ŀ åĢ¼
ç¢³ æİĴæĶ¾
åľ¨ è®¾è®¡
çľĭ ä½ľ
H D
å¤ĩ ä»½
æĻºèĥ½ æīĭè¡¨
éķ¿ æ²Ļ
è¿Ļä¸ª è¯į
é£ŀ èĪ¹
åĽ½éĻħ æľºåľº
çģµæ´» æĢ§
ur al
æķ£ åıĳ
è¿Ļ è¡¨æĺİ
e ver
åĮĸçŁ³ çĩĥæĸĻ
çĶŁ å§ľ
åľ¨ åĨħçļĦ
èĥĮ åĲİçļĦ
M V
çļĦç¤¾ åĮº
ä¸Ń åĬłåħ¥
æķħ æĦı
åĲĦä¸ª é¢ĨåŁŁ
æ¸¸ è®°
éĤ» è¿ĳ
ç§ĳæĬĢ çļĦåıĳå±ķ
çĥ¤ èĤī
å¼ķäºº åħ¥
Ġ ä»¥
åĴĮ éĶĢåĶ®
æĬĳ åĪ¶
éģĹ è¿¹
åľ¨ çİ°ä»£
æ¸©æļĸ åĴĮ
å¹¶ çĶ±
æµģè¡Į æŃĮæĽ²
çĤĴ é¥Ń
Ġg r
éľĩ æĴ¼
å¯ ®
éħį éĢģ
åľ°çĲĥ è¡¨éĿ¢
å»¶ ç»Ń
rid ge
195 7
ä¸ĭ ä¸ĢæŃ¥
çļĦ è½¨éģĵ
ä¹Ĳ æĽ²
åįģäºĮ å¹´
åı£æĦŁ åĴĮ
çļĦçĩ ĥ
å°Ķ å¤ļ
èĴ¸ åıĳ
åºķ å±Ĥ
å¯¹ ä½ł
é£ŀ ç¿Ķ
åįģ ä¹Ŀ
s in
æŀģ å¤§
æĻ¶ ä½ĵ
ä¸Ģ ç¾¤
åķ ¸
åŃ¦ä¹ł æĸ°
æ¬¢ å¿«
å®« æ®¿
Ġ æµĭè¯ķ
çģ¯ æ³¡
èģĶåĲĪ ä¼ļ
æĭ¬ åı·
çļĦç¦ ı
èĩªå·± åľ¨
è¥¿åħ° èĬ±
é¦Ļ èıľ
ä¼Ĭ æľĹ
åĴĸåķ¡ æľº
åħ¬åı¸ åĴĮ
çļĦä¸Ģ æĿ¡
æĪĳä»¬ å°±
çļĦ æĪĲç»©
åŃĺåĤ¨ åľ¨
å¼ķäººåħ¥ èĥľ
å¥³ çİĭ
å°ģ å»º
æ² ª
å¦ ¨
çĶľ èľľ
åĴĮ æĦŁåıĹ
æµ· å¹³éĿ¢
å¹² æ¶ī
æĮĩ å¼ķ
è¿Ļ å°±
is ion
çĶµåĬ¨ æ±½è½¦
åĲİ åĬłåħ¥
èĦ± ç¦»
æ·±åħ¥ çļĦ
å¤ļ åĬŁèĥ½
low er
é©¬ ä¸ģ
ç¦ıå»º çľģ
è¥¿ æĸ¯
çľŁ çĲĨ
ä¸ª æķ°
è´¨ åĴĮ
æĺ¯ èĭ±åĽ½
åĪ¶éĢł ä¸ļ
ub e
éĤ® ç®±
åİ» å¹´
åı¯ä»¥ èİ·å¾Ĺ
ĠS he
ç»Ń èĪª
çļĦ åĽ½å®¶
èŀº ä¸Ŀ
æĦıæĢĿ æĺ¯
196 2
Ġval ue
å¹² éĥ¨
èĭı éĩĮ
ä¹ī å¤§åĪ©
è° Ń
ä¿ĿæĬ¤ åĴĮ
æĢİä¹Ī åģļ
p ri
çļĦåľ° ä½į
p assword
è´ŁéĿ¢ æĥħç»ª
æľº ç¥¨
æĸ½ åĬł
æľĢé«ĺ æ¸©åº¦
ä½łåı¯ä»¥ å°Ŀè¯ķ
çļĦäººéĻħ åħ³ç³»
æµ· ä¸Ĭ
pr ice
çļĦ æĵįä½ľ
çº¦ çĳŁ
éĻĦ å±ŀ
0 9
ç«¥ è¯Ŀ
O H
èľ ¥
æħ¢ æĢ§
èŃ¦ æĥķ
ä»ħ æľī
éķ¿ å®ĺ
ä¸Ģ è¯į
éĢļ å¾Ģ
i vers
} \
è¿ĺ èĥ½å¤Ł
æ¬¢è¿İ æĿ¥åĪ°
æľ¬ å°ıè¯´
åĨħéĻĨ çľģä»½
æŁĵ èī²
M ar
ä¸»é¢ĺ åĴĮ
äº ©
çıį è´µçļĦ
åĪ° ä¸Ģä¸ª
äº§åĵģ è´¨éĩı
è¯¸ å¦Ĥ
èĦĨ å¼±
æ·± èī²
éľĢè¦ģ çĶ¨
åºĬ ä¸Ĭ
æĥħåĨµ åĴĮ
ĠA s
çªģ åıĳ
Ġ[ '
P erson
æŀģ åľ°
---- -
åĩĨç¡® æĢ§åĴĮ
å®ļ äºĨ
æĽ´å¤ļ åľ°
æĶ¯ä»ĺ æĸ¹å¼ı
éĽ¶ ä»¶
çĤ¹ æķ°
æµ· åįĹ
Ġ çĭĹ
æ½ľ æ°´
åĮĸåŃ¦ å¼ı
ç²¾ ç¾İ
æģ© çľģ
194 3
Ġle arn
äºº éĹ´
if t
} ,
æĹ¥ åĲİ
éĺŁ åıĭ
n ess
å¦¥ åįı
æĤ Ħ
è¿ĩ æ¸¡
è¿ĻäºĽ æķ°æį®
éľĢè¦ģ ä¸Ģä¸ª
æĸĻ çĲĨ
ä¹ĭ ä¸Ĭ
ç»¿ èĮ¶
æľĢé«ĺ æ°Ķæ¸©
å¯¹ æĪĳä»¬
åħī åŃ¦
èĬ± é¦Ļ
ä»» æľŁ
æ¸¸æĪı è§ĦåĪĻ
æĲŃ è½½
æĪĲç«ĭ çļĦ
ç´¯ è®¡
éĹ ¯
le ct
æĻ® æĭī
èĲ¥åħ» çī©è´¨
èĩªçĦ¶ æĻ¯è§Ĥ
æĸ ©
é»Ħ æ²³
ot al
çŃ¾ çº¦
Ġ ç¡®ä¿Ŀ
ç©¿ ä¸Ĭ
èĥ½æºĲ æ¶ĪèĢĹ
çĶŁäº§ æķĪçİĩ
éĢ Ľ
Ġt ake
Ġ åħĭ
çİ° æľīçļĦ
ç»´ æĸ¯
æľī ä¸Ģç§į
èµĦ åĬ©
A N
ç³ Ł
å½ķ åĪ¶
ä¸įåı¯æĪĸç¼º çļĦä¸Ģéĥ¨åĪĨ
ç¡« éħ¸
åī¯ ä¹¦è®°
åī© ä¸ĭçļĦ
åĪĨ åĮº
çļĦ æłĩåĩĨ
RO M
Ġo ther
åİŁåĽł æĺ¯
è½¦ éĺŁ
ä¿Ŀ å®ī
Ġsu ch
åħī è°±
Ġhe art
Ġ æıĲåıĸ
ä¸į åŃĺåľ¨
åĩĮ æĻ¨
å¼Ĺ éĩĮ
ic es
æµģ æ°´
è®¡ç®Ĺ ç»ĵæŀľ
çĽ¸ä¼¼ çļĦ
åĮĹ æµ·
æ¶Ĥ æĸĻ
ä¸º é£Ł
é¾Ļ èĻ¾
æķı æį·
åİ¦ éĹ¨
çīĽä»Ķ è£¤
ç»ĻæĪĳ ä¸Ģä¸ª
ä»İèĢĮ æĽ´å¥½åľ°
äººçī© çļĦ
3 50
è§ģ éĿ¢
åıį èĢĮ
åĴĮ éŁ³ä¹Ĳ
æĽ °
çļĦ è¶ĭåĬ¿
å¹´ ä¸Ń
ä¼ļ è®¡
åĨħ èĴĻåı¤
æĹł åħ³
ç¬¬ä¸ī æĸ¹
ç³ĸ éĨĭ
èīºæľ¯ å½¢å¼ı
ç³ĸ æŀľ
ä¸Ģæ®µ å¯¹è¯Ŀ
å·ŀ åĪºåı²
åıĮæĸ¹ çļĦ
åľ¨ æĹ¥æľ¬
ä»£çłģ å¦Ĥä¸ĭ
æ°´å¹³ çļĦ
s hip
è¿Ļ åı¯ä»¥éĢļè¿ĩ
ç« Ń
è·¯æĺĵ æĸ¯
è¿Ļ é¢Ĺ
ç®Ģæ´ģ æĺİäºĨ
çļĦ çĽ¸åħ³
åĪĨ æŃ§
ä½įäºİ è¯¥
åĽłç´ł çļĦå½±åĵį
çļĦçŁ ĽçĽ¾
ä»¥ä¸Ĭ å¯¹è¯Ŀ
ä¾Ŀ æĹ§
å¼Ĺ éĽ·
éĴ¥ åĮĻ
ä¹Ł ç§°ä¸º
äºī å¤º
195 1
ä½įç½® åĴĮ
] ]
0 4
æĢĿè·¯ åĴĮ
å· ©
Ġd og
å¸¦ ä¸Ĭ
Ġit s
å¤į ä»ĩ
å®¶ è£ħ
en se
ch e
å¯¹ æľªæĿ¥
Ġè¿Ļ æ®µ
é¢Ĩå¯¼ äºº
åĿ į
æĸ¹ä¾¿ åľ°
æıĲ è®®
åĩº åħ¥åı£
æ°´ æĻ¶
çĮ´ åŃĲ
åĪĨéĴŁ å·¦åı³
åı² å¯Ĩ
ä»Ĭ æĹ¥
æĪĳä»¬ æīįèĥ½
ç«ĭ åĪ»
Ġm ed
ä¹Ł å¼Ģå§ĭ
âĢĿ ï¼ī
éĦ Ĥ
æ³¢ æĸ¯
ç®ĢçŁŃ çļĦ
é¦ĸ ä¸ª
å¹¶ æĮīçħ§
è¹ ²
åĩıè½» åİĭåĬĽ
äºĶ è¨Ģ
è¿ŀ ä»»
ä¿® è®¢
åı· çļĦ
Ġh is
App le
æŀģ å¤§åľ°
å¹¶ è¾ĵåĩºç»ĵæŀľ
E D
çŁ¥åĲį çļĦ
åĴĮ ä¿¡æģ¯
çļĦå¤§ æ°Ķ
w er
å®ĩ èĪª
196 3
A my
çļĦ æķ£æĸĩ
æķ°éĩı ä¸º
åĿļ éŁ§
åº§æłĩ ä¸º
æĺ¯åĲ¦ éľĢè¦ģ
in dex
åĽ½ åĨĽ
ä¸ĸçķĮä¸ĬæľĢ é«ĺçļĦ
æĶ¹ åĲįä¸º
ä¸» åľº
é¾Ļ æ±Ł
éķ¿ çº¦
æĭ¼ éŁ³
è¾ŀ èģĮ
å°Ĩ æĺ¯
éģĵå¾· åĴĮ
è·Ł çĿĢ
F r
åĴĮ é¢ľèī²
ä¸į çŃī
å¿Ļ ç¢Į
å¦Ĥæŀľ æĪĳ
ä¼ļ åıĳçĶŁ
ä¼Ĭ åĪ©
çļĦåħ³éĶ® è¯į
åįĩ èµ·
æĶ¿çŃĸ åĴĮ
å¹¶ åıĬæĹ¶
çļĦ åĪĨç±»
èĥ½ åľ¨
ä¸İ ä½ł
æī Ķ
p ar
çĪ± ä½ł
9 00
éŁ³ ç¬¦
pan y
æĸ° å»º
å¹³ æĹ¶
çĥ «
çļĦ èĥ½éĩı
å¯¼ åħ¥
æİ¨ æµĭ
æĹ¢ æľī
åľ¨ è®¸å¤ļ
æĮī ä¸ĭ
çļĦ æ¯ĶèµĽ
è¾ĵåĩºç»ĵæŀľ ä¸º
è¥ Ħ
åĪĻ åı¯ä»¥
ä¸Ń ç«ĭ
äº¦ æĺ¯
å»ºçŃĳ è®¾è®¡
åĬłåĪ©ç¦ı å°¼äºļå·ŀ
åĽŀ æĿ¥
éªĳ è¡Į
è¯Ī éªĹ
E T
æĢ» ä¼ļ
oc ument
æħ Į
éĹ´ æİ¥
æ¸©åº¦ åĴĮ
æ¯ıä¸ª åħĥç´ł
ä¸Ģ åįĬ
çļĦ éĿ¢ç§¯
éĺ ±
æŁĶè½¯ çļĦ
æıŃç¤º äºĨ
æĦŁè°¢ æĤ¨çļĦ
èĭ±è¯Ń åı£è¯Ń
çī¹å¾ģ åĴĮ
---| ---|
æľįåĬ¡ è´¨éĩı
çĲĨ å·¥
æ°´ æµģ
æĶ¯ æµģ
èĲ½ å®ŀ
Ġå½ĵ ä½ł
éĺ² æ²»
å½Ĵ å±ŀ
" ]
è¿Ļæł· åģļ
çĻ¾ åĪĨ
ç³» æķ°
åĳ½ é¢ĺ
è§Ĥä¼Ĺ çļĦ
Ġ åľ°çĲĥ
åİŁ æĿ¥çļĦ
çļĦ ç»ıæµİ
ï¼Į ï¼Ľ
èµ· ä¼ı
ä» ķ
åħ³ èĬĤ
åħį åıĹ
ç³ĸ åĴĮ
åįİ æ°ı
æ»¡ äºĨ
çīĩ åĪ»
éĢ ¾
çļĦ åĩ½æķ°
ä¸Ģ ä»£
æĹ ·
åľ¨è¿Ļä¸ª ä¾ĭåŃĲä¸Ń
åħ¥ ä½ı
åħ´ èµ·
çļĦ ç§ĳåŃ¦
æ·±åĪ» åľ°
ation al
çļĦ æŃ£ç¡®
åĪĽéĢł åĬĽåĴĮ
åįĩ ä»»
åĳĬ çŁ¥
çļĦçª Ĺ
å ¬
çļĦ æĥ³æ³ķ
åİĨåı² ä¸ĬæľĢ
v es
il ity
å¸¸ åĬ¡
èµ¤ éģĵ
çĶŁåĳ½çļĦ æĦıä¹ī
è¶³çĲĥ æ¯ĶèµĽ
åĩºç§Ł è½¦
å¤ĸ è¡¨
ä¸į æĥ³
äºĨä¸Ģ æ®µ
åį³ ä¸º
è¿ĺæľī ä»Ģä¹Ī
çĽ´ éļ¶
å®ĥ è¿ĺ
è§Ĥ åħī
Ġa ge
å¤į åı¤
Ġus er
æĹ¥ åĩº
è¢«å¹¿æ³Ľ åºĶçĶ¨äºİ
r on
æ¯ı å¹³æĸ¹åħ¬éĩĮ
ä¸ŃçļĦ æīĢæľī
åº ¸
è¡¨è¾¾ å¯¹
c os
é¢Ĩ åľ°
ç²¾ åº¦
è¯Ńæ³ķ åĴĮ
U I
æİ¥ æĽ¿
åľ¨ ä¸İ
å±± é¡¶
å®ĥ ä¹Ł
çĸ² æĥ«
Ġ art
æħ¢ è·ĳ
çļĦç½ ª
çļĦ æĪĲåĳĺ
æĤ¨åı¯ä»¥ éĢīæĭ©
ä¸Ĭ è¿Ľè¡Į
Ġ åŃ¦ä¼ļ
çļĦ æľĭåıĭ
å°Ĩ è¿Ļä¸ª
ge st
ç¾Ĭ èĤī
çļĦ è¡ĮåĬ¨
ot t
Ġ åŁ¹åħ»
æĦ¿ æĻ¯
193 5
Ġ æİ¨èįĲ
è¿Ľ åı£
çļĦæĥħæĦŁ åĴĮ
å·´ å¡ŀ
äºĨè§£ åĨ³
å°Ĩ æĿ¥
å¾ Ļ
èĢĮ å®ļ
ç¤¾ä¼ļ è´£ä»»
åĿĩåĮĢ åľ°
çļĦ å¿ĥæĢģ
çİ¯ ç»ķ
å®¢æĪ· æ»¡æĦıåº¦
å®½ æĿ¾
å¤§ è¡Ĺ
å¤§ éĿ©åĳ½
çļĦç´ ł
èģļ èĲ½
Ġw ould
æŃ¦ å¸Ŀ
ç¼´ çº³
åĵªä¸ª åŁİå¸Ĥ
çļĦ è¡ĮæĺŁ
åľ¨ æĪĳä»¬
ä¾Ŀèµĸ äºİ
ä¸Ń åĴĮ
åĪ» çĶ»
å¥³ äºº
Ġ ä¸įè¦ģ
è¨Ģ è¯Ń
çº§ çļĦ
åħļ åĳĺ
çĥ§ çĥ¤
ç§ĳ åĬ¨çī©
éĽ į
æĸĩç«ł çļĦ
çĶŁæ´»ä¹łæĢ§ ä¸įæĺİ
è° Ľ
ä»£è¡¨ ä½ľåĵģ
å¤§ çģ«
æľī è¶³å¤ŁçļĦ
ap h
å¾Īå¥½ åľ°
å¾Ĺåĩº ç»ĵè®º
æĦŁ å®ĺ
s ub
åŃĲ çŃī
å¥½ åĲĥ
ä¸º äººä»¬
æĺ¯ä¸Ģä¸ª åħħæ»¡
æ¶² æĢģ
è¡Į æĿİ
çī¹ æĭī
éĹ¨ ç¥¨
çĶŁéķ¿ åľ¨
éĩıåŃĲ è®¡ç®Ĺæľº
è·¯ çĶ±
è¶ĬæĿ¥è¶Ĭå¤ļ çļĦäºº
è¯¥ åľ°åĮº
å¼ķ è¿Ľ
åĴĮ å®¶åºŃ
åĩł æ¬¡
æĺŁ çŃīä¸º
çķħ éĶĢ
æĿ¥ åĪ¤æĸŃ
å¤ĦçĲĨ åĴĮ
æ¯ıä¸ª æľĪ
äºĨä¸Ģ æ¬¡
å¿ĥçĲĨ åĴ¨è¯¢
ä¸ ¸
ä¸ ŀ
ç¢İ çīĩ
è¿Ļ ä¸īä¸ª
éĺ» ç¢į
Ġwh ich
è®© å¥¹
ç©ºæ°Ķ åĩĢåĮĸåĻ¨
ç» ļ
æķĻ è®Ń
èĴ ²
éľĢè¦ģ å®ļæľŁ
num ber
ä¸Ń ä¸ĸçºª
è¯ģ è¨Ģ
ä½įäºİ ç¾İåĽ½
çĤ¹ æĺ¯
^ {
æĢ»ä½ĵ èĢĮè¨Ģ
æĺ¯åĲ¦ æŃ£ç¡®
ä¼ļè®® åĳĺ
åīį æıĲ
å¸ĥ éĽ·
åīį ç«¯
ç¨ĭåºı ä¼ļ
ĠC l
å¦ĤæŀľæĤ¨ åĸľæ¬¢
ç²® é£Ł
æľ¬ çīĩ
æİĴè¡Į æ¦ľ
åıĸå¾Ĺ æĪĲåĬŁ
çļĦ æ³ķå¾ĭ
æĶ¾åħ¥ éĶħä¸Ń
åī¯ ä½ľçĶ¨
éĹª èĢĢ
æĹłéĻĲ çļĦ
æ» ķ
å¸Ń ä½į
æŃ£ éĿ¢çļĦ
èĪĴ æľį
æ²ŁéĢļ èĥ½åĬĽ
èĢĥ æł¸
åŃĺ æĶ¾
éħį èī²
æķħ ä¹¡
ç»´æĬ¤ åĴĮ
re et
ĠæĪĳ è®¤ä¸º
æĥħæĦŁ çļĦ
æĻºæħ§ åĴĮ
èĢĮ åĩº
ä¹Ł è¶ĬæĿ¥è¶Ĭ
æ°¢ æ°§åĮĸ
æİ¨ è¡Į
c od
çīł ä»¬
åĲĪ åĶ±
éĽ¨ æ°´
éħį éŁ³
ä½Ĩ ä»į
åıĹå®³ èĢħ
æľī åħ¶ä»ĸ
åħ¶ä¸Ń ä¸ĢäºĽ
çļĦçģµ éŃĤ
èįī åľ°ä¸Ĭ
ä¸¥ è°¨
è¶³çĲĥ ä¿±ä¹Ĳéĥ¨
æļ ¨
æĸĩæľ¬ è¿Ľè¡Į
éĿ¢åĲĳ å¯¹è±¡
æĪĳä»¬ èĥ½å¤Ł
ä¹Ł å¯¹
ä½Ĩ åħ¶
æĢ§èĥ½ åĴĮ
åĮĹäº¬ çļĦå¤©æ°Ķ
æ·± æĥħ
put er
I t
é¢Ĩ äºĭ
C H
èģĮ åĳĺ
æĿ¥ åĪ°äºĨ
åı£åĳ³ åĴĮ
ç¨ĭåºı ä¸Ń
çºªå½ķ çīĩ
å¡ĳæĸĻ è¢ĭ
è¶³ ä»¥
åŁºäºİä»¥ä¸Ĭè¿Ļæ®µ æĸĩæľ¬
è½¦ åİ¢
ç¿» è½¬
æŃ¤ ç±»
å¢ŀéķ¿ çİĩ
Ġâ Ī
æł¹æį® è¿Ļä¸ª
ç¿»è¯ĳ ä¸º
ç½Ĺé©¬ å°¼äºļ
å°Ĩ è¯¥
é¡ ·
ç¼ ļ
SE LECT
æ¯ıä¸ªäººéĥ½ åºĶè¯¥
å¤ĸ åĩº
æ·± çļĦ
é«ĺæķĪ åľ°
é£Łçī© åĴĮ
Ġ å¤ıå¤©
æĿ ł
F i
Ġ2 7
ä½ł åĸľæ¬¢
æĶ¹è¿Ľ å»ºè®®
ç¤¾ä¼ļ ä¸»ä¹ī
ç¨ĭ å¼ı
å¼Ģåıĳ çļĦ
åł ¤
åĴĮ äº¤æµģ
Ġ2 6
çļĦäºº ç±»
ä¸Ń åĲ«æľī
æ¹ĸåįĹ çľģ
è¶Ĭ å¤§
åįļå£« åŃ¦ä½į
åĩł å¤©
çĥ§ å¼Ģ
com m
çļĦç¦ »
Ġ æ²¡æľī
æĤ¨ æĥ³è¦ģ
Ġ åı¯
å®Į æ¯ķ
çĪ± å¾·åįİ
Ġ ç»ĥä¹ł
æ²³åĮĹ çľģ
at ter
ç½ļ æ¬¾
åĻ¨ çŃī
æķ°æį® ä¸Ń
éĻ· éĺ±
èĤ¢ ä½ĵ
åĹ ħ
é¼» åŃĲ
ä¹Ł ä¸įä¼ļ
å¤§ çĨĬçĮ«
å¨ģ å°¼æĸ¯
éļ¶ å±ŀ
èīºæľ¯ çļĦ
åħ¶ä¸Ń åĮħåĲ«
ä¹Ł åı¯ä»¥éĢļè¿ĩ
å¦Ĩ å®¹
èĥ½ éĩıçļĦ
Ġ ä¸Ĭæµ·
å¤ļ ä½Ļ
åı¯èĥ½ä¼ļ å½±åĵį
çĵ¦ å°Ķ
èĽĭ é»Ħ
ãĢĤ ãĢĤ
å¯¼ å¼¹
éĤ ĳ
é©¬ ä¸Ĭ
éĺ³ åı°
æµģ å¤±
çľ¼ éķľ
æĪĺäºī ä¸Ń
åı¯ä»¥ ä¸İ
æľī å¤ļç§į
Ġa g
åı² èĴĤ
è¯· æıĲä¾Ľ
çĲ ī
åħ¬åħ±äº¤éĢļ å·¥åħ·
l ue
æĦŁ æĤŁ
ç¼ Ĩ
çļĦ åŃ¦ä¹ł
æĪĳä¼ļ å°½åĬĽ
åı£åĳ³ çļĦ
ä¸Ģ å°ıæĹ¶
åıĹ çĽĬ
é¦ĸ åºľ
ç´§ åĩĳ
æ²¿ éĿ©
ä¸Ģ è·¯
éķ¿ å¤§
ç¥ ¸
è¾ħ å¯¼
ä¼ł æŁĵ
aus e
æİ§åĪ¶ åĴĮ
ç¼ħ çĶ¸
æĽ¾ äºİ
éħįå¤ĩ äºĨ
åĢį æķ°
æĸ¹ åĿĹ
å°ĳ å¥³
å¸¸ æķ°
åĿļ å¼º
æĢİä¹Ī åĬŀ
iel d
æīĢ å¤ĦçļĦ
ä½łèĥ½ ä¸įèĥ½
Ġ æĸ°
çĽ´ è§Ĥ
çļĦçķ Į
re ad
çİ°ä»£ç¤¾ä¼ļ ä¸Ń
äººæ°ĳ ä»£è¡¨å¤§ä¼ļ
Ġ æĢ»ç»ĵ
å¼º å£®
æ²»çĸĹ æĸ¹æ³ķ
çļĦ æľªæĿ¥
çĲ ª
ä¹Ł æĹłæ³ķ
éĺŁ åľ¨
è¦ģ åľ¨
ç§Ĵ éĴŁ
è¿Ļç§į æĸ¹å¼ı
ç¤¼ åĵģ
i que
ãĢĤ \
æĩĤ å¾Ĺ
åħ¼ å®¹
åŃ¦ åİĨ
é«ĺ åİŁ
è£ ¸
è¯·éĹ® æĤ¨éľĢè¦ģ
èĬ Ļ
èĶ ½
çļĦçľŁ æŃ£
å»ºç«ĭ èģĶç³»
éļľç¢į çī©
èĿ Ļ
åĪ ®
P C
èĩªæĪĳ æĦıè¯Ĩ
åĨł çĬ¶
el s
æĳ Ĭ
Ġ èİ·åıĸ
æ½ľ èīĩ
ens is
æł¼ å°Ķ
å¸Ĥåľº è°ĥçłĶ
ch ar
èĭı å·ŀ
èĩª æĿĢ
è¿Ľè¡Į éĢīæĭ©
et ime
èĿĻ èĿł
æ· ¹
ver age
åĲĦä¸ª æĸ¹éĿ¢
éĶĻ è¿ĩ
å°ĳ è®¸
çĶ· ä¸»è§Ĵ
è¯Ĺ è¯į
æ¡ĥ åĽŃ
Ġ! =
å®¶åºŃ æķĻèĤ²
çļĦ æ°Ķæģ¯
Ġ _
Ġä½ľä¸º AIè¯Ńè¨Ģæ¨¡åŀĭ
åĲį åĴĮ
åŃ¦ä¼ļ äºĨ
å© ī
æĶ¶ è§Ĩ
éĩįè¦ģçļĦ è§Ĵèī²
æįķ é£Ł
éļ¾å¿ĺ çļĦ
æłĳ ç«ĭ
è±¡å¾ģ çĿĢ
ä»² è£ģ
ĠJ ava
éĹ®é¢ĺ æĹ¶
ä¸ĵ çĶ¨
ä¸ļ ä¸»
ä»ĸä»¬ å¯¹
åħ¬äº¤ è½¦
çļĦ åĵģè´¨
åº· å¤į
ĠA nd
çģ« çĦ°
è¦ģ ç¡®ä¿Ŀ
ç¯ ·
æĻ ķ
å¤ĸ è²Į
enc es
æł¼ éĽ·
éħį å¥Ĺ
æ´ŀ ç©´
åĪĽéĢł æĢ§
çļĦ åĪĨæŀĲ
å¤ĸäº¤ éĥ¨
ç³ Ļ
æ·±æ·± åľ°
çļĦ ç§įç±»
åħ¨ ä¸ĸçķĮ
çĶ² çĥ·
è¯¾ åłĤ
S I
éľĢè¦ģ åħ·å¤ĩ
è¯º è´Ŀå°Ķ
åĨ³å®ļ äºĨ
a f
æĹ¥ æŃ£å¼ı
é«ĺ è¡Ģåİĭ
çŁŃ ä¿¡
è¶Ĭ é«ĺ
Ġh ad
çº³ ç±³
å®īå¾½ çľģ
çĪ¸ çĪ¸
ä¼ĺçĤ¹åĴĮ ç¼ºçĤ¹
ç§¯æŀģ åľ°
ĠL e
å¼ĢæĶ¾ å¼ı
æľĢ ä¼ĺ
ä¸į åĸľæ¬¢
çī¹ éĩĮ
åĲ¦ å®ļ
åįł çĶ¨
è¯· æķĻ
çŃī æĸ¹æ³ķ
å¯ĵ æĦı
çļĦ æĮĳæĪĺ
æķĳ èµİ
å¤ª æŀģ
æľº æ²¹
è§£éĩĬ ä»Ģä¹Īæĺ¯
è¯ŀ çĶŁ
éĺµ å®¹
æľī åĬĽçļĦ
è® ½
æĽĿ åħī
æĻ ĥ
åŃ¦æł¡ çļĦ
ma il
å½ĵ æĪĳ
çļĦ åİŁçĲĨ
ä¹Ł è¢«ç§°ä¸º
Ġè¿Ļ åı¥è¯Ŀ
èİ« æīİ
å¾® åįļ
æ³°åĿ¦ å°¼åħĭ
èįī åĿª
æĪĳå¾Ī é«ĺåħ´
r is
éª¨ å¤´
äº¤åĵį æĽ²
æ» ŀ
åı¯ çĪ±çļĦ
ä¸Ģä¸ª å¥½çļĦ
ç¡ ħ
1 30
äºĮ è¿ĽåĪ¶
å¸ĥ éĩĮ
åĨ³ å®ļçļĦ
é¦ĸ çĽ¸
Ġâ ī
è¾ĥ å°ıçļĦ
å¾Ĺ ä¸»
æĺ¯ä¸Ģ é¦ĸ
çļĦ æĥħç»ª
åĴĮ å®ŀè·µ
è¯Ĺ åı¥
Ġ- >
åĭĩ å£«
åĮ ¿
v ar
ä¼ĺåĬ¿ åĴĮ
çºł ç¼ł
åİŁ åĪĽ
form at
éħ ¯
è°Ī è¯Ŀ
æŃ£åľ¨ å¯»æī¾
åĪĴ åĪĨä¸º
è¿Ļ ä¸¤ç§į
çļĦ è§Ħå®ļ
éĺ²æĻĴ éľľ
æĿ¥ æııè¿°
æķ°çļĦ åĴĮ
ä¸» å¯¼
åĮº è®®ä¼ļ
å¤©ç©º ä¸Ń
ä½ł ä¹Łåı¯ä»¥
æŀģç«¯ å¤©æ°Ķ
é£ŀè¡Į åĳĺ
è·Ł è¿Ľ
W i
çªĹ åı£
å¤©æĸĩ åı°
ä½Ļ é¢Ŀ
Ġb et
ç¬ Ľ
è¯¥ çīĩ
æ£®æŀĹ éĩĮ
çĭ ©çĮİ
åĲ¦ è®¤
çļĦ åĲĦç§į
éķ¿ é¢Ī
åľ°ä¸Ń æµ·
åº ĩ
èµ° åĪ°
N a
æ° ¦
å¥½ æľĭåıĭ
çļĦäºº åĳĺ
èµ· å§ĭ
å¾ģ æľį
æĬĢèĥ½åĴĮ çŁ¥è¯Ĩ
ä¸į åĪ©
é»ĳ çĻ½
åİĨåı² åĴĮ
èµĦäº§ è´ŁåĢº
åĽłä¸º ä»ĸ
åĲĮæł· çļĦ
åĬ£ åĬ¿
$ \
Ġ æī¾åĪ°
äº¤ ç»Ļ
ç¡® å®ļçļĦ
å°Ĩä»¥ä¸ĭ åı¥åŃĲ
Ġ çīĽå¥¶
æĮĩ åĲĳ
äºĶ åįģ
é¸¡ å°¾
é¥± åĴĮ
è¿ĺæľī ä¸Ģä¸ª
Ġs entence
åĪĩç¢İ çļĦ
way s
å°Ĩ äºİ
åħī æĺİ
Ġc ase
èĤ© èĨĢ
æ¸¸ çİ©
ç»¿ æ¤į
å¦Ĥä½ķ è¿Ľè¡Į
å£« é¡¿
æĭĽ åĭŁ
ä»¥åıĬ åľ¨
è¿Ļ éľĢè¦ģ
åŁºäºİ ä»¥ä¸ĭ
Ġsort ed
èĤº çĤİ
è¿ĩ é«ĺ
ä¸įç¡®å®ļ æĢ§
éĢļè¿ĩ ä½¿çĶ¨
éĤª æģ¶
é¢Ĩå¯¼ åĬĽ
ä¸º ä»ĸä»¬
æł Ĺ
éĻįéĽ¨ éĩı
ä¸įåĲĮç§įç±» çļĦ
å¼Ģ å¹ķ
åĩº åľº
åı¯èĥ½ å¯¹
èİ· å¥ĸ
ä¸Ĭ çıŃ
åıĺ æį¢
ri st
åĿļæĮģ ä¸įæĩĪ
å¤ķ éĺ³
åĩº èĩª
åĸĿ æ°´
ç§ĳ çłĶ
çĲĥ è¿·
æĶ¾æĿ¾ åĴĮ
Ġ æİ§åĪ¶
å¼Ģ æºĲ
çī¹ è´¨
å¹¶ åĪĨæŀĲ
row n
çļĦ å±±å³°
åħ¨ éº¦
çļĦ çŃĶæ¡Ī
ð Ł
il le
us h
æī§ æ³ķ
èľ Ģ
æī© æķ£
æĪĳçļĦ å¿ĥ
ä»ĵ åºĵ
æ²īæµ¸ åľ¨
å¾Ĺ å¤ļ
æĭ ¾
å®ĹæķĻ ä¿¡ä»°
ä¸İ äººç±»
S am
æĿ¥ èİ·å¾Ĺ
çİ°ä»£ åĮĸçļĦ
èĩªçĦ¶ é£İåħī
é¦ĸ ä½į
è¿ĻäºĽ æĬĢæľ¯
ç»Ħç»ĩ åĴĮ
åĴĸåķ¡ åºĹ
åĴĮ å®¶äºº
o f
çļĦ è´¡çĮ®
Ġ çİ°åľ¨
çļĦæ°´ åĪĨ
çī©çĲĨåŃ¦ å®¶
äºļåİĨå±± å¤§
ç¾İ åŃ¦
è¯Ħ ä¸º
åĮħæĭ¬ä»¥ä¸ĭ çī©ç§į
èĬĿ éº»
åĨ³ è®®
ç§ĭ èĬĤ
è¾ĥ å¤ļ
Ġ å¾ªçİ¯
çĶµ è½¦
çĮİ çī©
æ¸ħ åįİ
è´§ è¿Ĳ
æ²³ éģĵ
æ¯« æĹł
åŁºåĽł ç»Ħ
éĴ Ĺ
æ³ķå¾ĭ è§Ħå®ļ
t itle
éļĲç§ģ ä¿ĿæĬ¤
èķ ¨
æŀģ åº¦
æııè¿° ä¸º
æŃ¥ ä¼Ĳ
æľĢå¤§ åĮĸ
ä½ĵéªĮ åĴĮ
æĺ¯ æĦıå¤§åĪ©
m atrix
plo y
ä»¥ä¸ĭ ä¸º
ang le
é¡¹çĽ® ä¸Ń
æĺ¯ åı°æ¹¾
æĸ¯ åį¡
è¡į çĶŁ
ç»´ å¥ĩ
ç¨ĭåºı çļĦ
æĪĳä»¬åı¯ä»¥ ä»İ
çĥĺ çĥ¤
193 3
å¯»æ±Ĥ ä¸ĵä¸ļ
a is
åľ¨ åı°æ¹¾
æīŃ æĽ²
æģ¶ åĮĸ
ä¸»è¦ģ æľī
æľ¬å±ŀ åĮħæĭ¬ä»¥ä¸ĭçī©ç§į
ä¸İ å®¢æĪ·
æļ´ éĽ¨
ä½ł æľĢè¿ĳ
èĢĮ è¿ĻäºĽ
Ġth rough
ç» İ
åİ ķ
åį°åº¦ å°¼è¥¿äºļ
åľ¨ å¤ĦçĲĨ
èĤī è´¨
åįĹ çĵľ
Ġè°¢è°¢ ä½ł
ä¸ĢäºĽ éĹ®é¢ĺ
çļĦ æĢĿæĥ³
å¹¶ éĩĩåıĸ
è¯Ńæ³ķ éĶĻè¯¯
ç¥Ŀ æĤ¨
éĺ ª
äºĨè§£ åĴĮ
æĪĳä»¬ ä¸įèĥ½
Ġf riend
æ³° åĭĴ
çĶľ åĳ³
åı¯ä»¥ æĮīçħ§
éĺ¶ ä¹ĺ
å±Ģ éĥ¨
Ġ ar
æ´Ĺåıĳ æ°´
ç©ºæ°Ķ ä¸ŃçļĦ
æĤ¨ å¯¹
é¸¡å°¾ éħĴ
æ¸ħ æĸ°çļĦ
çļĦ å½¢è±¡
åĽ¾ è¡¨
æİ¨ å¯¼
åĭĭ ç«ł
[ :
çº¤ç»´ ç´ł
åĬ¨çī© åĽŃ
Ġc olor
ĠS ch
L O
æ·± å±Ĥ
è´¦ åı·
æĪĳ ä¸ĢçĽ´
å¿ĥèĦı çĹħ
è¿ĩ éĩı
100 00
åı¯ä»¥ åİ»
è¿Ľè¡Į è¯Ħä¼°
ç½ĳç«Ļ çļĦ
æĪĲ è¯Ń
æ¸© å¸¦
er c
æ£Ĵ çĲĥ
ç« ĸ
å§ Ĭ
ç»ıéªĮ çļĦ
åĲĮ åĲį
em p
æķĻèĤ² éĥ¨
èĩªçĦ¶ èµĦæºĲ
è°ĥåĳ³ åĵģ
äºº ç§°
åĨ Ģ
è¯ŃéŁ³ åĬ©æīĭ
è´ ¬
æĶ¶ ç¼©
é»ĳ é¾Ļæ±Ł
âĦĥ ãĢĤ
ä»ĭç»į ä¸ĢäºĽ
æ²ī æ·Ģ
çĽ¸å¯¹ è¾ĥä½İ
b oard
åĿ ŀ
ä»ħ ä¾ĽåıĤèĢĥ
æľĢä½İ æ°Ķæ¸©
è½¯ ä½ĵ
æľ¬ å±Ĭ
Ġcur rent
r ay
el li
çļĦçĹ Ľ
åĺī ä¹ī
so le
å¸¸ å§Ķ
ç¬¬äºĮ å¤©
å®ŀè·µ ä¸Ń
çľĭèµ·æĿ¥ æĽ´åĬł
Ġ å©´åĦ¿
éģĵ çĲĨ
å½ĵ æĹ¥
è¡¨è¾¾ èĥ½åĬĽ
æ·ĺ å®Ŀ
å¹¶ æľĢç»Ī
ä½łåı¯ä»¥ ä½¿çĶ¨
åĨħ åľ°
é¹ ¦
è¿Ļ å¯¹äºİ
Ġpro v
æıĲ åĪ°çļĦ
é«ĺ åİĭ
éĶ ¯
i ent
éĢļå¸¸ åĮħæĭ¬
çłĶç©¶ äººåĳĺ
åı¯ä»¥ æľīæķĪåľ°
ç° §
çĶŁéķ¿ äºİ
æŃ£æĸ¹ å½¢çļĦ
åıĺ å¼Ĥ
ä»·æł¼ ä¸º
t ime
10 1
å½±åĵį çĿĢ
è¯ģæĺİ äºĨ
å¤ıå¤©çļĦ è¯ĹæŃĮ
è½ ©
çļĦ åħ¶ä»ĸ
AP I
å¤įæĿĤ åº¦
åĨ ķ
æıĲåįĩ èĩªå·±çļĦ
è®¾ äºİ
ä¿ĥ ä½¿
èħ¹ éĥ¨
æıĴ åº§
éŁ³ä¹Ĳ èĬĤ
æĿ¾ é¼ł
åģľ çķĻ
ä¸Ģ éĹ¨
Ġ çĻ½
åı¸ä»¤ éĥ¨
æĹ§ éĩĳå±±
æŁ´ æ²¹
çļĦ èģĶç³»
æŀĦ æĢĿ
in ess
er g
å»ºè®® ä½¿çĶ¨
ä¸įæĸŃ åŃ¦ä¹łåĴĮ
M ac
çļĦ èĥĮæĻ¯
è¿Ļ ä¸įä»ħ
è¡¨è¾¾ åĩº
Ġint o
con d
Ġse e
Ġ åı¯ä»¥ä½¿çĶ¨
äº« å¹´
li m
æ¯ħ åĬĽ
ä¸į è®º
æ¸¸ ä¹Ĳ
çļ® éĿ©
ĠA pp
çļĦç¥ŀ ç»ı
å¦ ĸ
äº§çĶŁäºĨ æ·±è¿ľçļĦå½±åĵį
ä¸ªäºº æīĢå¾Ĺç¨İ
ä»»åĬ¡ çļĦ
å®ģ æ³¢
è·¯ ç¨ĭ
ath er
æĤ Ķ
al ax
å½ĵ ä»ĸ
m ain
è¿Ľè¡Į è®¡ç®Ĺ
ä¼Ĭ ä¸½èİİ
åĨ³çŃĸ æłĳ
çŃīæĸ¹å¼ı æĿ¥
èİ·å¾Ĺ çļĦ
åģľ éĿł
è¿ģ ç§»
ä¸Ń èį¯
é«ĺ æ¡£
èµ· åĪĿ
) =
ä»į åľ¨
æ² ¼
å¹¶ åĪĹåĩº
çļĦ äººä»¬
Ġt ype
ol l
é¦ĸ æĴŃ
æī© å»º
ç»ĨèĬĤ åĴĮ
con t
ä¸¤ å²¸
çĽ´ åįĩ
æĪĲå¹´ äºº
èĤ ļ
ç¨ĭåº¦ çļĦ
å·´ å·´
åĪĽéĢł äºĨ
å¯¹æĤ¨ æľīæīĢå¸®åĬ©
ä¹Ł åı¯
æ²¹ æ¼Ĩ
ä¸ī å¤§
ç§ĳæĬĢ åıĳå±ķ
çķ ľ
çĶŁåĳ½ ä¸Ń
æŃ£ åĪĻ
æĤ£ æľī
åı¯ä»¥ æ»¡è¶³
rand int
æĺ¥ ç§ĭ
æ¯įä¹³ åĸĤåħ»
å¯¹è¯Ŀ æĢ»ç»ĵ
å¯¹çİ¯å¢ĥ çļĦå½±åĵį
å°Ĩ ä¸Ģä¸ª
çļĦå°ı è¡ĮæĺŁ
è®¤ä¸º æĺ¯
æĭ¿ ä¸ĭ
ãĢĭ (
æĦıä¹ī çļĦ
èĻ Ĳ
ä¸į è§ģ
ä½ĵéªĮ åĪ°
å¥³ çĶŁ
ç¿»è¯ĳæĪĲ èĭ±æĸĩ
for å¾ªçİ¯
) /
å¼ı æľĪåı°
çļĦ æīĭ
per i
åľ¨ ä¸Ĭæµ·
éĤ» å±ħ
äºļ åĨĽ
19 28
ç»Ļ ä»ĸ
éľĢè¦ģ ä»İ
æł¹æį®ä»¥ä¸Ĭè¿Ļæ®µ å¯¹è¯ĿæĢ»ç»ĵ
æł¹æį®ä»¥ä¸Ĭè¿Ļæ®µå¯¹è¯ĿæĢ»ç»ĵ ä¸»è¦ģåĨħå®¹
å±± è¥¿çľģ
ä¼ģä¸ļ åĴĮ
è¢« çĶ¨æĿ¥
åı¦ æľī
Ġ çİ°ä»£
åĴĮ è§£
è½¯ä»¶ å¼Ģåıĳ
i ous
o ot
æł¼ éĩĮ
æ²³ è°·
æĻ® é²ģ
æīĢåľ¨ çļĦ
åľ¨ èĭ±åĽ½
æ¸ħ æĺİ
Ġn o
æĹ¶ æĬ¥
ç¨³ åģ¥
æĪĲåĬŁ çļĦåħ³éĶ®
çļĦäºº æķ°
æľīåħ³ çļĦ
çĶ¨ è¯į
è¿Ľä¸ĢæŃ¥ çļĦ
åħ¨ ä½ĵ
è¯· ç¨įçŃī
æľĪ åºķ
é»Ħ èī²çļĦ
ä¸Ģä¸ª åħ³äºİ
æķ° çĽ®
æ³°åĿ¦å°¼åħĭ åı·
èĪªç©º åħ¬åı¸
é¢ľ æĸĻ
æĽ´ æľīæķĪåľ°
è¯¥ æł¡
æĪĳ æľīä¸Ģä¸ª
ç½ª çĬ¯
åıĬ åħ¶ä»ĸ
å¤įæĿĤ æĢ§
é£İ åĬĽ
äºº æĿĥ
çļĦ åĬ¨ä½ľ
ĠS ure
è¿Ļå®¶ é¤Ĳåİħ
un d
éĢĤåĲĪ åľ¨
Ġc out
çļĦç¥ ĸ
è¿ĳ ä»£
æĦŁæŁĵ èĢħ
æľĢä½İ æ¸©åº¦
Ġb r
æīĵ åħ¥
çļĦ åĦ¿åŃĲ
äººæ°ĳ æ³ķéĻ¢
å®ĥ åħ·æľī
åºĬ åŀ«
è´¨éĩı çļĦ
ç½ķ è§ģ
âĢĭâĢĭâĢĭâĢĭâĢĭâĢĭâĢĭâĢĭ âĢĭâĢĭâĢĭâĢĭâĢĭâĢĭâĢĭâĢĭ
éĹ® æĪĳ
æĪĲæľ¬ åĴĮ
é¼ĵåĬ± åŃ©åŃĲ
Ġ æĹ¥
æĿŁ ç¼ļ
åĽ½å®¶ çļĦ
Ġpe ople
åįĩ æł¼ä¸º
æ±¡æŁĵ çī©
è¯ļ ä¿¡
Ġâ ĨĴ
æľī åĬĽ
å¤ļ å¹´çļĦ
åĽłæŀľ åħ³ç³»
çļĦç ¯
èĥ½å¤Ł ä¸º
èĥ½å¤Ł æıĲé«ĺ
å¿« éĢĴ
è¢« æįķ
é£İ èĥ½
è®¾ç½® ä¸º
æĸ° é¢ĸ
åĲĳ åĲİ
æŀ¢ çº½
ç»Ļ ä¸Ģæ®µ
å¤© èĬ±
ä¼ł åħ¥
äº ¥
æ° Ł
åħ¬åħ± åľºæīĢ
æ¸ħæĻ° åľ°
åİĨåı² æĤłä¹ħ
åĩºçİ° æ¬¡æķ°
æŁĶ éŁ§
å·²ç»ı å¼Ģå§ĭ
å¢Ļ ä¸Ĭ
é¥Ń åºĹ
æĪĳä»¬åı¯ä»¥ çľĭåĪ°
èĩªçĶ± çļĦ
éĿŀå¸¸ é«ĺ
æīį ä¼ļ
L P
ä¸ĭ åįĬ
ä½Ĩ åĲĮæĹ¶ä¹Ł
çī©è´¨ åĴĮ
åĲĥ é¥Ń
å¤§ å¤«
åıĮ èĦļ
æ°´ çĶµ
é¡º çķħ
Ġ å®īåħ¨
çº¦ æľī
æ¡ Ĳ
åħļ çļĦ
Ġhe alth
åĴĮ æİ¢ç´¢
äºĮ æľĪ
l ack
æİ¥ ä»»
è±¡ æ£ĭ
çĽ®æłĩ åıĹä¼Ĺ
æĹ¥ åŃĲ
æ¾ İ
æĪĸ å¤ļä¸ª
å¦ĤæŀľæĤ¨ æĥ³
æĮ¯ åĬ¨
é£İ éĢŁ
é¢ĦçĥŃ èĩ³
è¥¿ ä¾§
åĻ¨ æ¢°
N um
é¢ĨåŁŁ çļĦåºĶçĶ¨
è®Ńç»ĥ åĴĮ
å¹¶ æľī
æŃ¥éª¤ åĴĮ
é«ĺ å±Ĥ
P P
åįķè¯į çļĦ
H ER
æ²³ çļĦ
ä¸įåĲĮ çļĦäºº
è¯¥ å¦Ĥä½ķ
ä¸įè¦ģ è®©
so ft
å¤© ä½¿
éĹ® åĢĻ
éĺ² çģ«
å¯» å¸¸
u ch
æĺİ ä»£
åľº çļĦ
åĿļ åĽº
æĶ¹åĪ¶ ä¸º
æľŁ çļĦ
è¾¹ å½¢
è¾ĸ åĮº
æ²¹ çĶ»
è¶ĭåĬ¿ åĴĮ
æĺ¾ çĦ¶
çĶ¨ æīĭ
æķ° çłģ
å¼Ģ èĬ±
æĬ± æŃī
å¹¶ åĪ¶å®ļ
æĶ¹ å»º
æľīä¸Ģ å®ļ
193 1
èµ· çĿĢ
ä¼Ĭä¸½èİİ çĻ½
è®² ä¸ª
åľ¨ æĪĳä»¬çļĦ
Ġ éĶĢåĶ®
æĺ¯ èĩ³åħ³éĩįè¦ģçļĦ
ä¼ĺ å¼Ĥ
éĩıåŃĲ è®¡ç®Ĺ
åģ¥èº« è®¡åĪĴ
å¤´èĦĳ é£İæļ´
ä¸į ç¬¦åĲĪ
ä¾Ŀ çħ§
åĸĤ é£Ł
æŁĲ ä¸Ģ
è£ģ åĨ³
p ublic
åıĹè®¿ èĢħ
çŃī åħĥç´ł
å¤§ èģĶçĽŁ
Ġ è¿ĻäºĽ
åĴĮ å¼¦
æŃ£ç¡® ä½¿çĶ¨
çļĦçª ģ
S D
æĪ ļ
é« ĵ
ä½Ĩ æľĢç»Ī
c n
åħī éĢŁ
è¿ĩåİ» çļĦ
åľ¨ä¸ŃåĽ½ å¤§éĻĨ
å¤ĸ å½¢
åħ« æľĪ
æİ¨èįĲ ä¸Ģæľ¬
æ²Ļæ»© ä¸Ĭ
æľīåĬ©äºİ æıĲé«ĺ
å®ļä¹ī ä¸º
æĬµ å¾¡
æĪĳ æĺİçĻ½äºĨ
an th
" ;
çĶµå½± ä¸Ń
èµ° åľ¨
åĳĬè¯ī ä½ł
åī ĸ
ro ot
ä¸į æ»¡æĦı
Ġ 2022
åĴĮ æĢĿèĢĥ
å¹¶ è¯´æĺİ
æĿ¥ æĶ¯æĮģ
Ġto day
ĠT own
ä¹Łæľī ä¸ĢäºĽ
èĳĹ ç§°
éĿĴ å±±
å¹¸ç¦ı åĴĮ
åĲī å°Ķ
ä»·æł¼ åĴĮ
éĿĴ èĽĻ
åİŁ æĸĩ
çıį è´µ
çļĦ é¤Ĳåİħ
çī¹ åĭĴ
éĴĪå¯¹ æĢ§çļĦ
èĴ¸ æ°Ķ
ä¼Ł å¤§
ä½ĵ çİ°åľ¨
è¿Ļ ä¼ļ
ä¸ľåįĹ äºļ
çĮ« çļĦ
åľ° å£³
ç§° åĳ¼
ä½¿ äºº
ä¾µ æĿĥ
ç¦»å¼Ģ äºĨ
Ġus e
çķ ´
19 12
åĮĹ æ¬§
çļĦ çĲĨè®º
æĮĩ çĤ¹
é¹ ı
èĻ¾ ä»ģ
æĦŁ åı¹
æĤ¨çļĦ éľĢæ±Ĥ
éľĢè¦ģ åħĪ
çĿĢ éĩį
åĨłçĬ¶ çĹħæ¯Ĵ
ç»Ļä¸Ģæ®µ æĸĩæľ¬åĨħå®¹
åĽŀ åĪ°äºĨ
æĽ¾ ç¥ĸ
çŃī åĨħå®¹
Ġ æĹł
åıĺ éĩıçļĦ
åĨį å°Ĩ
ç»Ĩ å¿ĥ
ess age
æ¥¼ æ¢¯
æ¸ħæ´ģ èĥ½æºĲ
ä¸Ĭ éĺµ
ä¸Ń ä½įæķ°
ent ial
æĢ»ç»ĵ ä»ĸä»¬åľ¨èģĬä»Ģä¹Ī
åıĤä¸İ äºĨ
Ġ å¯»æī¾
çļĦ å¿ĥ
â ĺ
äººåı£å¯Ĩåº¦ æ¯ıå¹³æĸ¹åħ¬éĩĮ
Ġ æĮīçħ§
æĸ ĭ
éĤ£ æĪĳ
å° ¹
æĢ» è£ģ
åįķ è½¦
ma z
å·´ å°Ķ
åĮºåŁŁ çļĦ
å¥¥ ç§ĺ
er y
è½® å»ĵ
æŃ¥éª¤ å¦Ĥä¸ĭ
åİŁ æľī
d ict
æĿ¡ çº¹
æĿ¥ èİ·åıĸ
Ġ" ))
r ic
è¯¥ äº§åĵģ
èĵĿ å¤©
ï¼ļ '
ç¤¾äº¤ æ´»åĬ¨
æĭ¼ åĽ¾
ĠN ew
åį³ æĹ¶
ĠE m
åı¯ å¾Ĺ
ç±³ åħ°
ç¦ı å¾·
é©¬ åĬĽ
æĪĸ ä½¿çĶ¨
ç»ı çºª
çļĦ è§ĤçĤ¹
ä½Ĩ å¥¹
193 2
å¦¹ å¦¹
å¼¥ æ¼«
alax y
åİŁ åħĪ
è¿Ļé¦ĸ æŃĮæĽ²
å¿«éĢŁ åľ°
åįģ ä¸ª
çīĩ åĴĮ
æĿĢ å®³
åĿļ å®ŀ
ç¼ĵè§£ åİĭåĬĽ
çļĦç¨³å®ļ æĢ§
çļĦ åĲİ
æĢ» è®¡
ç§ĳæĬĢ åĪĽæĸ°
al ign
å¸¸ è¯Ĩ
å¯¹è¯ĿåĨħå®¹ åĽŀçŃĶ
æ¸ į
æł¹æį®ä»¥ä¸Ĭè¿Ļæ®µ å¯¹è¯ĿåĨħå®¹åĽŀçŃĶ
ä»ĸ ä¸º
ä¸¾ ä¾ĭ
é¡ºåºı æİĴåĪĹ
ï¼ļ ________________
æµıè§Ī åĻ¨
çıŃ çº§
è·³ ç»³
æĦı å¢ĥ
ç¯ĩ åħ³äºİ
åıĳ è¡ĮçļĦ
ä½Ļ å¼¦
ä¼¯ çĪµ
æııç»ĺ äºĨ
äº¤ æĽ¿
çŃī çļĦ
å±± åľ°
ï¼īãĢģ ãĢĬ
ç²Ĵ åŃĲçļĦ
ä¸Ģ åħ±æľī
å¤§ åĬĽ
193 4
çļĦçī¹çĤ¹ åĴĮ
éĿ¢ åĴĮ
ç¥ĸ åħĪ
æŀ £
æĹłè®º æĺ¯åľ¨
äºĮ æīĭ
èĮĥåĽ´ åĨħçļĦ
æİ¥ä¸ĭæĿ¥ çļĦ
åĨĻ æĪĲ
æŁ¥ çĲĨ
L a
ä¿ĥéĶĢ æ´»åĬ¨
åĬ¨ éĩı
èį¯çī© æ²»çĸĹ
Ġc he
æ±½ æ²¹
çļĦçı į
çĶ±äºİ åħ¶
æŃ£ æķ´æķ°
æľĢ çŁŃ
ç³¯ ç±³
åĲĦ æľī
éĽ· è¾¾
æĹ¶ éĴĪ
ä½ĵ æ£Ģ
éĩį å¿ĥ
çİ¯ å½¢
å¤ªéĺ³èĥ½ çĶµæ±ł
åĬŁèĥ½ çļĦ
è¿ĩæ»¤ åĻ¨
åı¶ æĸ¯
, "
çļĦ è±¡å¾ģ
å®ĥ æĺ¯ä¸Ģä¸ª
åģı å·®
çİ° åŃĺ
åĽŀ é¡¾
Ġ åĳĬè¯īæĪĳ
èĥ½å¤Ł æıĲä¾Ľ
åºŁ çī©
at etime
ä¼ļ åĦ¿
æ²ī ç§¯
çŁ© å½¢
äºº æ¬¡
æĪĲ äºº
æł¹æį® ä¸įåĲĮçļĦ
æĺĤ è´µ
åĴĮ å½¢çĬ¶
æĺ¯ å¤ļ
èī¾ ä¼¦
æĹ¥ åİĨ
åı¶ ç»¿
çļĦ è¯Ħè®º
èĢĮ è¯¥åľ°
çĸ¯ çĭĤ
çļĦå¤§ åŀĭ
å¥¶ ç²ī
ä¸ª ä½ĵçļĦ
S M
æ¯Ķ å°Ķ
act or
åıĹåĪ° å½±åĵį
c c
ä»İèĢĮ å¯¼èĩ´
æīĢ èĥ½
Ġtr y
åĲİ è¢«
åıĳçİ° çļĦ
è®© æĪĳä»¬çļĦ
å½ĵéĢī ä¸º
è¤Ĳ èī²
èº«ä»½ è¯ģ
è¿Ļå¹ħ çĶ»
ä¸ľ ä¾§
Ġä¸į å®¢æ°Ķ
Ġpl ayer
æķĻ æĿĲ
éĿĻ éĿĻ
è¯· çĶ¨
éĹ¨ çªĹ
ä¸Ń å°Ĩ
æĽ´ åĩĨç¡®åľ°
æİ§åĪ¶ ç³»ç»Ł
çĤĴ é¦Ļ
çļĦæĸ¹å¼ı æĿ¥
è¯¥ åī§
æĬķ æĶ¾
åįģ ä¸ĥ
åºŀ å¤§
æĸ¯ æŀĹ
çĶŁäº§ çļĦ
éĿĻ æŃ¢
æŀģ æĢ§
æ¯Ķçī¹ å¸ģ
36 5
] ï¼Į
19 27
æĺ¯ä¸Ģ éĹ¨
Ġ3 6
æĬķèµĦ ç»ĦåĲĪ
åĴ Ĵ
æĹ¶ å¸¸
uc k
Ġst atic
ç²¾ åįİ
å·ŀ çļĦä¸Ģä¸ªå¸Ĥéķĩ
ä¸į éĢĤåĲĪ
çħ¸çĤĴ èĩ³
æł¼ æŀĹ
äºĮ çº§
çļĦç½ Ĺ
çİ© æ¸¸æĪı
æĸ° ç«¹
éĢļå¸¸ ä½¿çĶ¨
pp ort
æĺ¯ä¸Ģ æľ¬
åĨį åĬłåħ¥
ä¸Ģ æĬĬ
Ġ ä»Ģä¹Īæĺ¯
Ġ æ²¡éĹ®é¢ĺ
éĿŀå¸¸ åĩºèī²
çĪĨ é¦Ļ
m i
ç§į ç¾¤
æł¹æį® è¿Ļæ®µ
ä»¥ä¸ĭæĺ¯ æĪĳä¸ºæĤ¨
éĿĴ èıľ
å°ĺ åŁĥ
Ġ é¡¹çĽ®
åĲĳ æĪĳ
ä»ĭ è´¨
Ġ 00
ä¼ļ å°Ĩ
ç¾İåĽ½ äºº
è¾ ±
Ġv ar
æĸ¹ç¨ĭ ç»Ħ
æł¹æį® å¯¹è¯ĿåĨħå®¹
æ¸© æ³ī
ä¸ī æľĪ
å¤± çľł
è£ħä¿® é£İæł¼
éķ¿é¢Ī é¹¿
çı Ĥ
å±± çļĦ
èģĬ èģĬ
æ· Į
B e
è¿Ľåħ¥ äºĨ
é¹ ī
æīĺ é©¬æĸ¯
æķĻ å®Ĺ
æĹ¶éĹ´ æĿ¥
å¿ħä¸įåı¯ å°ĳçļĦ
æ¤įçī© éľĢè¦ģ
çº¦çĳŁ å¤«
åİĨåı² çļĦ
ä¸½ çļĦ
åĩºçİ°çļĦ æ¬¡æķ°
ä¼ł æķĻ
çĪ¬è¡Į åĬ¨çī©
in al
åĽĽ æľĪ
éĥ½ å°Ĩ
æĥĬ äººçļĦ
éķĩ ä¸ĭè¾ĸä»¥ä¸ĭåľ°åĮº
pro duct
op er
å®¶çĶ¨ çĶµåĻ¨
D E
åİ» ä¸Ńå¿ĥ
èĦļ æŃ¥
å¢Ļ çº¸
è¶ħè¿ĩ äºĨ
å¤§ éĢī
æĢ§ åľ°
æľĢ åĸľæ¬¢
æĶ¾ è¿Ľ
Ġb ook
åŁº åĩĨ
æ²¿ å²¸
qu are
ç§ĺ é²ģ
E nt
è¦ģ èĢĥèĻĳ
çļĦ å¸Ĥåľº
çĶŁæĪĲä¸Ģæ®µ ä»ĸä»¬çļĦå¯¹è¯ĿåĨħå®¹
äº® çĤ¹
è½¬ ä¸º
å®¶åºŃ åĴĮ
Ġc ould
æīĢéľĢ æĿĲæĸĻ
æķĪ åĬĽäºİ
ç§° èµŀ
æĤ¨ æĥ³
æĶ¾ å°Ħ
æłĩ æľ¬
æł¸ éħ¸
æ°¸ ä¸į
åīį éĢĶ
ä¹ĭéĹ´ åŃĺåľ¨
çģ ¶
F acebook
æ²ī é»ĺ
åıį åĩ»
xx x
ä½Ĩ æĪĳåı¯ä»¥
æ¸¸ è¡Į
æĹ© åľ¨
å·¥ä½ľ å®¤
å¾· åĨĽ
éĿ¢ éľľ
åħī æ³½
äºĨ å¯¹
å¹³ æ°ĳ
é¹¦ é¹ī
in clude
è°¢è°¢ æĤ¨çļĦ
å±ŀ çļĦ
æĪĳä»¬ æĹłæ³ķ
å¹´ ä¸ĸçķĮ
åľ° è¯´
å®ĮåĸĦ çļĦ
echno logy
å¹´ ä»¥æĿ¥
Ġd i
çĬ¹ è±«
çļĦç¨ĭ åº¦
çī¹ å°Ķ
æĢĿ ç»ª
Ġit em
ä¸»é¢ĺ çļĦ
æĺ¯ çİ°ä»£
ä»İ é«ĺ
y m
ç¥ ¯
æĻº åķĨ
çĹħ æĥħ
çļĦçĽ®æłĩ åĴĮ
ä¹¦ åºĹ
äººåĳĺ çļĦ
è´£ä»» åĴĮ
è® ¶
a el
ä¸§ å¤±
éĹ ·
çĽ¸ è¾ĥ
å¯¹ éĺµ
åĨħå®¹ åĴĮ
G C
ä¹ĭ æīĢä»¥
å¤Ħ éķ¿
å¹¿ ä¹ī
Ġ åĲ¦
éĹ® ä¸Ģä¸ĭ
æĤ¨åı¯ä»¥ å°Ŀè¯ķ
æĢ§åĴĮ åı¯
åľ¨ åĮ»åŃ¦
å·§ å¦Ļ
pe ct
ä½Ĩ ä»ĸä»¬
åıĪ æľī
ï¼Į `
æıĲ èµ·
å°¼ æ³Ĭ
if y
Ġ èĢĥèĻĳ
é¥ ¶
èĤ¡ä»½ æľīéĻĲåħ¬åı¸
æĮĩæĮ¥ å®ĺ
æī§ æĶ¿
æĿ¡ä»¶ çļĦ
éĢīæĭ© ä¸ĢäºĽ
æľª æľī
1 200
æĬĴ æĥħ
åĽŀ åĲĪ
æľ¬ åľ°åĮº
Ġ åıĸåĩº
() )
ä»İ ä¸Ģä¸ª
ç®¡çĲĨ çļĦ
å¹³ åĿ¦
æĸĩæľ¬ åĪĨç±»
å¾Ģå¾Ģ ä¼ļ
Ġ ä»ĸ
ç®¡ åĪ¶
æŁ¥ å°Ķæĸ¯
èģĮä¸ļ è§ĦåĪĴ
) $
éĤ µ
ç¤¾äº¤ ç½ĳç»ľ
è½¦ éģĵ
åħ¬å¼Ģ èµĽ
ä½Ľç½Ĺ éĩĮ
çľŁçļĦ å¾Ī
çļĦçĪ±æĥħ æķħäºĭ
çĶ¨ å¿ĥ
å¥ī çĮ®
ç¾İ æĦŁ
æĸ¯ æ´Ľ
ä»¥ä¸ĭ çļĦ
ç¥Ń ç¥Ģ
æĪĸèĢħ åľ¨
æıĲä¾Ľ äºĨä¸Ģä¸ª
åĸľå¥½ åĴĮ
ä¸ª å°ı
åħ±åĲĮ çĤ¹
çİ«çĳ° èĬ±
Ġ æīĵå¼Ģ
åı¯ä»¥ éĩĩåıĸ
æīĭ ç»Ń
çļĦä¸Ģ ä½į
ä¸Ģä¸ª æľĪ
æīį æĺ¯
æ±ĩ æĬ¥
ä¸įèĥ½ è¢«
l or
è¢ ľ
çĶŁæ´» åĴĮ
çĶŁæ´» ä¹łæĥ¯
èĥ½ åĳĬè¯īæĪĳ
ä¹ĭåīį çļĦ
å¯Ĩ å°ģ
è¿ĺ åı¯ä»¥éĢļè¿ĩ
æĹ¥ å¼Ģå§ĭ
éĢĤ åº¦
äº² æĥħ
æıĲåĩº ä¸Ģä¸ªéĹ®é¢ĺ
p re
æµªæ¼« çļĦ
Ġ éĴĪå¯¹
è¯· ä¸ºæĪĳ
ç®¡çĲĨ ç³»ç»Ł
çļĦä¸»é¢ĺ åĴĮ
çĶŁ æ°Ķ
ä¸İ åĲĮäºĭ
åħħè¶³ çļĦçĿ¡çľł
æ°´ éĿ¢
HER E
åĩº äºİ
è®© çİ©å®¶
ge ther
åľ° åĲį
è¿ĺ å°Ĩ
å±± åİ¿
è¢«åĳĬ äºº
ä»¥ä¸ĭæĺ¯ åĩłä¸ª
ä¸İ æĪĳä»¬
é½Ĳ åħ¨
åķĨåĵģ çļĦ
åı²å¯Ĩ æĸ¯
æĹ¥ ä¸ĭåįĪ
ç½® äºİ
Ġgu ess
å¦Ĥä¸ĭ æīĢç¤º
A s
å¹¶ ä¸įä¼ļ
åı¯èĥ½ æľī
ĠS o
ç®¡çĲĨ åĳĺ
åĪ¤ å¤Ħ
åĲĳ æĹ¥
æľªæĿ¥ çļĦåıĳå±ķ
Ġè¯· åĽŀçŃĶè¿Ļä¸ªéĹ®é¢ĺ
å½¢çĬ¶ åĴĮ
æ¸¸æĪı ä¸ŃçļĦ
åŃĲ ä¸Ń
æķ°åŃ¦ å®¶
Ġ4 00
arr ay
æµ· è±ļ
å¾· æĦıå¿Ĺ
éĢĤåĲĪ çļĦ
å¹¶ æĪĲä¸º
æĳ© æīĺ
è¿Ļæĺ¯ä¸Ģ éĥ¨
ä¾¦ æİ¢
Ġ æ·»åĬł
åħ¶ä¸Ń æľī
å½¢ åĬ¿
æ¡Īä»¶ çļĦ
ç§° ä¹ĭä¸º
èĢħ åľ¨
H R
ä¸İ å®¶äºº
ä¸»é¢ĺ ä¸º
ä½ľåĵģ ä¸Ń
æľīå¾Īå¤ļ ç§į
Y Y
çģ« è½¦ç«Ļ
èı²å°Ķ éĵģå¡Ķ
äºĳåįĹ çľģ
um n
é©¬æĭī éĽħ
çļĦç£ ģ
é£ŁçĶ¨ æ²¹
Ġ è¾ĵåħ¥
æĬĳéĥģ çĹĩ
çĽ¸ ä¹ĺ
å·® åĪ«
åį¡ æĸ¯
çĥ¤çĽĺ ä¸Ĭ
åıį æĬĹ
æº ī
Ġ ç¡®è®¤
æŃ¥ æŀª
ä»¥ ä½¿
tr ain
éĩį ç»Ħ
å¯¼ ä½ĵ
æĢ¥ æķĳ
ä»£çłģ çļĦ
çļĦåľ° çĲĨ
æĿ° åĩºçļĦ
4 000
åı¯ä»¥ æľīæķĪ
æł¹æį®è¿Ļæ®µ å¯¹è¯ĿåĨħå®¹
è®© æķ´ä¸ª
åŃ¦ä¹ł ç¼ĸç¨ĭ
çŁŃ ç¼º
ä¸Ģ èģĮ
ç¤¾äº¤åªĴä½ĵ ä¸Ĭ
æľº å¯Ĩ
ä¸ĵ åĳĺ
æĭĨ åį¸
å¥½å¥ĩ å¿ĥ
æĺ¯ åħ¨çĲĥ
hi gh
ä¹ Ĵ
æł¹æį®è¿Ļæ®µå¯¹è¯ĿåĨħå®¹ åĽŀçŃĶéĹ®é¢ĺ
% ï¼Ľ
åĵĪ å§Ĩ
è°ĵ è¯Ń
å°± æľī
å¤ĸ è¯Ń
æĺŁ äºĳ
æĥĬ è®¶
å°ı çĨĬ
èĤ¡ æĿĥ
åĴĮ æĽ´
ĠM ar
çļĦ å¥³æĢ§
ä¼łéĢĴ ç»Ļ
åĸ ĩ
åİĨåı² åĴĮæĸĩåĮĸ
è¿ĩ åĪĨ
åįĹ æµ·
æĪĳ èĥ½
åŀĥåľ¾ éĤ®ä»¶
å¸ ĸ
æ¯ Ĺ
å»¶ è¿Ł
ä¸ĭå±ŀ çī©ç§į
ä¸ī ä½ĵ
åģļ å¾Ĺ
çĤ¹ çĩĥ
Ġè¿Ļ é¦ĸ
æĿ¥ æİ§åĪ¶
çĶµ åİĭ
æľŁ åĪĬ
æĲħæĭĮ åĻ¨
Ġ çİĭ
Ġ> =
æĢĿæĥ³ åĴĮ
ä¸¤ ç»Ħ
at s
çļĦç Ĩ
æĺĵ çĶ¨
è¿ĲåĬ¨ éŀĭ
ç¼ĸ è¯ĳ
æĺ¯ ä¸Ńåįİäººæ°ĳåħ±åĴĮåĽ½
ä¸İ æĤ¨
çħ§ äº®
å®ļ ä¸º
èĪ Ĩ
éĻ¤ æķ°
ä½ľåĵģ çļĦ
è¶ ģ
è°ĥ åĴĮ
å®ĮæĪĲ ä¸Ģæ®µå¯¹è¯Ŀ
æµİ åįĹ
éħ¥ èĦĨ
ä¸ŃåĽ½ åĽ½æ°ĳåħļ
æ±¡ åŀ¢
èĢĮ è¯¥åľ°çļĦ
ä½łèĥ½ ç»ĻæĪĳ
are a
éĹ®é¢ĺ éľĢè¦ģ
åħ¨ æĸ°
è§Ĵèī²ä¿¡æģ¯ å®ĮæĪĲä¸Ģæ®µå¯¹è¯Ŀ
çĽ¸æ¯Ķ ä¹ĭä¸ĭ
åŁºäºİä»¥ä¸ĭ è§Ĵèī²ä¿¡æģ¯å®ĮæĪĲä¸Ģæ®µå¯¹è¯Ŀ
çĳ ķ
Ġd on
åĲ¬ åĪ°äºĨ
åľ¨ æĹ¥å¸¸çĶŁæ´»ä¸Ń
æĹłçº¿ çĶµè§Ĩ
ç¦ ½
æ¸ħæ´ģ åĴĮ
å°±ä¸ļ æľºä¼ļ
