{"<|endoftext|>":0,"<|im_start|>":1,"<|im_end|>":2,"<think>":3,"</think>":4,"<pad>":5,"<unk>":6,"<|system|>":7,"<|user|>":8,"<|assistant|>":9,"<tool_call>":10,"</tool_call>":11,"<function>":12,"</function>":13,"<unused_0>":14,"!":15,"\"":16,"#":17,"$":18,"%":19,"&":20,"'":21,"(":22,")":23,"*":24,"+":25,",":26,"-":27,".":28,"/":29,"0":30,"1":31,"2":32,"3":33,"4":34,"5":35,"6":36,"7":37,"8":38,"9":39,":":40,";":41,"<":42,"=":43,">":44,"?":45,"@":46,"A":47,"B":48,"C":49,"D":50,"E":51,"F":52,"G":53,"H":54,"I":55,"J":56,"K":57,"L":58,"M":59,"N":60,"O":61,"P":62,"Q":63,"R":64,"S":65,"T":66,"U":67,"V":68,"W":69,"X":70,"Y":71,"Z":72,"[":73,"\\":74,"]":75,"^":76,"_":77,"`":78,"a":79,"b":80,"c":81,"d":82,"e":83,"f":84,"g":85,"h":86,"i":87,"j":88,"k":89,"l":90,"m":91,"n":92,"o":93,"p":94,"q":95,"r":96,"s":97,"t":98,"u":99,"v":100,"w":101,"x":102,"y":103,"z":104,"{":105,"|":106,"}":107,"~":108,"¡":109,"¢":110,"£":111,"¤":112,"¥":113,"¦":114,"§":115,"¨":116,"©":117,"ª":118,"«":119,"¬":120,"®":121,"¯":122,"°":123,"±":124,"²":125,"³":126,"´":127,"µ":128,"¶":129,"·":130,"¸":131,"¹":132,"º":133,"»":134,"¼":135,"½":136,"¾":137,"¿":138,"À":139,"Á":140,"Â":141,"Ã":142,"Ä":143,"Å":144,"Æ":145,"Ç":146,"È":147,"É":148,"Ê":149,"Ë":150,"Ì":151,"Í":152,"Î":153,"Ï":154,"Ð":155,"Ñ":156,"Ò":157,"Ó":158,"Ô":159,"Õ":160,"Ö":161,"×":162,"Ø":163,"Ù":164,"Ú":165,"Û":166,"Ü":167,"Ý":168,"Þ":169,"ß":170,"à":171,"á":172,"â":173,"ã":174,"ä":175,"å":176,"æ":177,"ç":178,"è":179,"é":180,"ê":181,"ë":182,"ì":183,"í":184,"î":185,"ï":186,"ð":187,"ñ":188,"ò":189,"ó":190,"ô":191,"õ":192,"ö":193,"÷":194,"ø":195,"ù":196,"ú":197,"û":198,"ü":199,"ý":200,"þ":201,"ÿ":202,"Ā":203,"ā":204,"Ă":205,"ă":206,"Ą":207,"ą":208,"Ć":209,"ć":210,"Ĉ":211,"ĉ":212,"Ċ":213,"ċ":214,"Č":215,"č":216,"Ď":217,"ď":218,"Đ":219,"đ":220,"Ē":221,"ē":222,"Ĕ":223,"ĕ":224,"Ė":225,"ė":226,"Ę":227,"ę":228,"Ě":229,"ě":230,"Ĝ":231,"ĝ":232,"Ğ":233,"ğ":234,"Ġ":235,"ġ":236,"Ģ":237,"ģ":238,"Ĥ":239,"ĥ":240,"Ħ":241,"ħ":242,"Ĩ":243,"ĩ":244,"Ī":245,"ī":246,"Ĭ":247,"ĭ":248,"Į":249,"į":250,"İ":251,"ı":252,"Ĳ":253,"ĳ":254,"Ĵ":255,"ĵ":256,"Ķ":257,"ķ":258,"ĸ":259,"Ĺ":260,"ĺ":261,"Ļ":262,"ļ":263,"Ľ":264,"ľ":265,"Ŀ":266,"ŀ":267,"Ł":268,"ł":269,"Ń":270,"ï¼":271,"ä¸":272,"ï¼Į":273,"ãĢ":274,"çļ":275,"çļĦ":276,"ãĢĤ":277,"äº":278,"ä»":279,"åı":280,"æľ":281,"åħ":282,"åĪ":283,"ä½":284,"è¿":285,"å¤":286,"å®":287,"åľ":288,"æĪ":289,"åĲ":290,"çĶ":291,"æĺ":292,"åĴ":293,"åĴĮ":294,"ä¸Ģ":295,"åĬ":296,"æĸ":297,"ĠĠ":298,"è¯":299,"ç»":300,"å¹":301,"ãĢģ":302,"ä¹":303,"æĺ¯":304,"å°":305,"è®":306,"åŃ":307,"æĹ":308,"åľ¨":309,"åĽ":310,"ä»¥":311,"åº":312,"éĢ":313,"ä¼":314,"å¸":315,"ä¸ª":316,"éĩ":317,"æĿ":318,"åį":319,"äºº":320,"åĮ":321,"ä¸º":322,"ï¼ļ":323,"ä¸Ń":324,"è¡":325,"æķ":326,"æľī":327,"çī":328,"åĨ":329,"åı¯":330,"å¼":331,"åĩ":332,"ĥ½":333,"å·":334,"å¯":335,"ç§":336,"å¾":337,"è§":338,"æĪĳ":339,"æī":340,"çİ":341,"èĢ":342,"å¥":343,"æĢ":344,"¦ģ":345,"çĶ¨":346,"äºĨ":347,"è¦ģ":348,"å½":349,"éĹ":350,"çŃ":351,"çĽ":352,"è¿Ļ":353,"æł":354,"æŃ":355,"ä»¬":356,"èĥ½":357,"ä¸į":358,"æ³":359,"èĩ":360,"éĿ":361,"å¹´":362,"æ°":363,"äºİ":364,"è´":365,"æĶ":366,"æŀ":367,"æĹ¶":368,"é¢":369,"æĭ":370,"çĶŁ":371,"ä¿":372,"æĬ":373,"åĳ":374,"åı¯ä»¥":375,"çĲ":376,"å±":377,"åĵ":378,"æĦ":379,"å¤§":380,"çº":381,"æĪĲ":382,"åľ°":383,"å¦":384,"åİ":385,"èµ":386,"ĠĠĠĠ":387,"è¡Į":388,"æĸ¹":389,"æİ":390,"æµ":391,"ä¼ļ":392,"æĽ":393,"æĿ¥":394,"è¾":395,"æ¯":396,"âĢ":397,"ä¸Ĭ":398,"åĪ°":399,"å¯¹":400,"å¿":401,"æĥ":402,"çŃī":403,"åĩº":404,"åŃ¦":405,"éĻ":406,"å¦Ĥ":407,"ä¸Ģä¸ª":408,"ä¾":409,"ä½ľ":410,"æĮ":411,"ä»ĸ":412,"æı":413,"éľ":414,"åĪĨ":415,"ä¸ĭ":416,"æ¸":417,"èĩª":418,"åĽ½":419,"çī©":420,"æ´":421,"æ²":422,"éĺ":423,"æķ°":424,"è½":425,"å¹¶":426,"åıĳ":427,"åŁ":428,"éľĢ":429,"éĿ¢":430,"èī":431,"ï¼ī":432,"åĬ¨":433,"åħ¶":434,"ï¼Ī":435,"ç«":436,"åĲĮ":437,"è¿ĩ":438,"å¤ļ":439,"çĲĨ":440,"åĬł":441,"å¥½":442,"æ³ķ":443,"ç®":444,"åĲİ":445,"åŃĲ":446,"çİ°":447,"æį":448,"æĽ´":449,"æĪĳä»¬":450,"ç±":451,"ç§į":452,"æĸĩ":453,"äºĽ":454,"æ¬":455,"è¿Ľ":456,"éģ":457,"Ġ|":458,"ä½ĵ":459,"å®¶":460,"æ±":461,"ä½ł":462,"æĻ":463,"çļĦç":464,"å°Ĩ":465,"é£":466,"æıĲ":467,"å®ļ":468,"ä¹ĭ":469,"é«":470,"é«ĺ":471,"æľĢ":472,"åĮĸ":473,"æĢ§":474,"éĢļ":475,"åĬĽ":476,"åº¦":477,"åħ¬":478,"åĵģ":479,"ä½¿":480,"éķ":481,"åī":482,"éľĢè¦ģ":483,"20":484,"è¡¨":485,"å»":486,"ç¨":487,"ä¹Ł":488,"éĥ":489,"èĢĮ":490,"è°":491,"éĩı":492,"ä¸İ":493,"å·¥":494,"åĲĪ":495,"éĹ´":496,"å°ı":497,"æĪĸ":498,"åħ³":499,"ä¿Ŀ":500,"åºĶ":501,"å¸¸":502,"åĽł":503,"çľ":504,"æĹ¥":505,"çĤ":506,"--":507,"é¢ĺ":508,"éĩį":509,"åħ¥":510,"ç³":511,"in":512,"æľĪ":513,"è§£":514,"ç½":515,"èĤ":516,"ä¸»":517,"å¾Ĺ":518,"æĤ":519,"ç¾":520,"èĬ":521,"åģ":522,"å»º":523,"å®ĥ":524,"è¶":525,"ç¤":526,"æĦŁ":527,"æĸ°":528,"æĥħ":529,"éĹ®":530,"è®¡":531,"å¢":532,"æľ¬":533,"æŀľ":534,"éĥ¨":535,"é¦":536,"ç¬":537,"çĦ":538,"æį®":539,"åĪ¶":540,"æľº":541,"æĦı":542,"èī²":543,"æīĢ":544,"å¼ı":545,"å¤©":546,"æŃ¤":547,"çī¹":548,"ç»ı":549,"éķ¿":550,"è·":551,"åĲį":552,"ç¨ĭ":553,"ä»£":554,"åĢ":555,"è¢":556,"å®ŀ":557,"ä¸ļ":558,"å¼Ģ":559,"æ°´":560,"ç±»":561,"ï¼Ł":562,"ç¡":563,"å¸Ĥ":564,"çĦ¶":565,"åĿ":566,"èĢħ":567,"åĮº":568,"çĶµ":569,"çŁ":570,"é¡":571,"å½ĵ":572,"è®¾":573,"éĶ":574,"åĨħ":575,"éĢī":576,"00":577,"åıĬ":578,"äº§":579,"èģ":580,"æŁ":581,"ç©":582,"çĽ¸":583,"å§":584,"ç³»":585,"æģ":586,"ç¾İ":587,"ä½į":588,"ä½¿çĶ¨":589,"éħ":590,"19":591,"è¯¥":592,"å¿ĥ":593,"éļ":594,"æĤ¨":595,"ç´":596,"âĢľ":597,"âĢĿ":598,"éĽ":599,"çķ":600,"çĤ¹":601,"è¢«":602,"er":603,"äºĭ":604,"å¹³":605,"æĺİ":606,"çĿ":607,"æ¯Ķ":608,"éĹ®é¢ĺ":609,"éĩĮ":610,"an":611,"on":612,"åħ¨":613,"åĮħ":614,"ä½Ĩ":615,"æ·":616,"åľº":617,"éĥ½":618,"åĳĺ":619,"çĥ":620,"ä»»":621,"åīį":622,"éģĵ":623,"æ°Ķ":624,"çĲĥ":625,"æĬĢ":626,"ĠĠĠ":627,"å¤ĸ":628,"å½±":629,"åĪ©":630,"åħ·":631,"ç¼":632,"çł":633,"èĲ":634,"æĮģ":635,"éĢĤ":636,"è¿Ľè¡Į":637,"æ´»":638,"çĶ±":639,"åĬ¡":640,"éĤ":641,"æł¼":642,"ä¿¡":643,"ç¡®":644,"è´¨":645,"è¯Ń":646,"æľŁ":647,"éª":648,"èĭ":649,"or":650,"æ¡":651,"å£":652,"èĪ":653,"æ¶":654,"th":655,"å·±":656,"åŀ":657,"å±ķ":658,"èĩªå·±":659,"çĽ®":660,"è®©":661,"æĢ»":662,"ç»ĵ":663,"èµ·":664,"ãĢĭ":665,"ãĢĬ":666,"ä¾Ľ":667,"æĸ¯":668,"ç¬¬":669,"ä¸ĢäºĽ":670,"åıĺ":671,"ä»İ":672,"è¿ĺ":673,"æľ¯":674,"è½¦":675,"å®ī":676,"çĿĢ":677,"çİ¯":678,"è¯·":679,"éĿŀ":680,"äº¤":681,"åĬ©":682,"çĪ":683,"åıĹ":684,"æ¬¡":685,"ç»Ļ":686,"æµ·":687,"èİ":688,"èº":689,"æŃ£":690,"åĸ":691,"éŁ":692,"ä¹Ī":693,"è¿Ļä¸ª":694,"ä¸ī":695,"è¥":696,"__":697,"åħĥ":698,"è¯´":699,"åı¸":700,"ä¾ĭ":701,"æ¯ı":702,"è¥¿":703,"é©":704,"æīĭ":705,"èº«":706,"åı£":707,"é£Ł":708,"åįķ":709,"èį":710,"å½¢":711,"åŃĹ":712,"å¾Ī":713,"è®®":714,"çģ":715,"ç®Ĺ":716,"ç¥":717,"ç»Ł":718,"å°Ķ":719,"å¥½çļĦ":720,"é»":721,"ä¸¤":722,"Ġ1":723,"æĥ³":724,"re":725,"éĢļè¿ĩ":726,"è¿Ĳ":727,"èĻ":728,"åķ":729,"æıĲä¾Ľ":730,"æ±Ĥ":731,"ç§ĳ":732,"ç«ĭ":733,"èĥ":734,"æ»":735,"é£İ":736,"æĶ¿":737,"Ġ=":738,"æł¹":739,"æĪ·":740,"ä¹Ĳ":741,"æĭ¬":742,"æ³¨":743,"åŁº":744,"æ®":745,"en":746,"åı¯èĥ½":747,"åŀĭ":748,"æĹł":749,"æ¼":750,"æµģ":751,"å¸®":752,"æ°ĳ":753,"ç»Ħ":754,"åĻ":755,"ĠĠĠĠĠĠĠĠ":756,"åħĭ":757,"æķĻ":758,"è£":759,"èĩ³":760,"è°ĥ":761,"çº¿":762,"åĮħæĭ¬":763,"æĺ¯ä¸Ģ":764,"æĶ¾":765,"ä¸įåĲĮ":766,"è¾¾":767,"æ¸¸":768,"åĽŀ":769,"æĭ©":770,"æĮĩ":771,"çĭ":772,"éĢīæĭ©":773,"çĸ":774,"å¦Ĥæŀľ":775,"ä½ķ":776,"çĻ":777,"æĺŁ":778,"ä»¥ä¸ĭ":779,"at":780,"åĨ³":781,"ä»ĸä»¬":782,"åįĹ":783,"ä¸ĸ":784,"Â·":785,"é¥":786,"åĪĽ":787,"èĬĤ":788,"å¤Ħ":789,"éŁ³":790,"éĵ":791,"åĲĳ":792,"ä¹ł":793,"é¦ĸ":794,"åĻ¨":795,"åĪĹ":796,"æłĩ":797,"ç²":798,"éĴ":799,"åħ¬åı¸":800,"å¯¼":801,"åĨĻ":802,"æĸĻ":803,"åħ±":804,"å¼º":805,"ç¦":806,"ä»¶":807,"æİ¥":808,"è±":809,"æº":810,"å°±":811,"å°ĳ":812,"è·¯":813,"æķĪ":814,"å¢ĥ":815,"éĩĳ":816,"å¤Ł":817,"è¿ĻäºĽ":818,"éĺŁ":819,"åİŁ":820,"èµĦ":821,"éĿŀå¸¸":822,"æŃ¥":823,"``":824,"st":825,"æĪĺ":826,"ä¼ł":827,"éĤ£":828,"ç¤¾":829,"ar":830,"åıĸ":831,"æģ¯":832,"ï¼Ľ":833,"åŁİ":834,"éĩįè¦ģ":835,"åĪĻ":836,"åĵį":837,"è§Ĥ":838,"æł¹æį®":839,"ç¤º":840,"è®¤":841,"åĨĽ":842,"ä»·":843,"åı°":844,"æ¸ħ":845,"ç´ł":846,"å®¹":847,"ä¸ŃçļĦ":848,"æľį":849,"åħī":850,"äºĮ":851,"éĢł":852,"åĮĹ":853,"èı":854,"å¾·":855,"æĻº":856,"çŁ¥":857,"----":858,"ç®¡":859,"åĪ«":860,"10":861,"ç©º":862,"å²":863,"èĢĥ":864,"æķ°æį®":865,"å¸ĥ":866,"æĶ¯":867,"å±±":868,"åİĨ":869,"æĶ¹":870,"åĲĦ":871,"æł·":872,"ä¹ī":873,"åĶ":874,"èµĽ":875,"åİ»":876,"å¤ĩ":877,"æİ¨":878,"æķ´":879,"å®¢":880,"å¸®åĬ©":881,"è¿°":882,"ä¸ľ":883,"al":884,"åĲĮæĹ¶":885,"ç±³":886,"è®º":887,"åħĪ":888,"å½±åĵį":889,"çķĮ":890,"å¢ŀ":891,"åıį":892,"çľĭ":893,"é¢Ĩ":894,"èĦ":895,"åĢ¼":896,"çĬ":897,"åŃĺ":898,"å¸¦":899,"æ¤":900,"æ£":901,"æĹ¶éĹ´":902,"æĬ¤":903,"èĩªå·±çļĦ":904,"èĮ":905,"åıª":906,"æ¡Ī":907,"åıĳå±ķ":908,"æ·±":909,"å¤ª":910,"åĽłæŃ¤":911,"è¯ķ":912,"èĥ½å¤Ł":913,"le":914,"ou":915,"åıĤ":916,"è§Ħ":917,"æ®µ":918,"å§ĭ":919,"çº¦":920,"èģĶ":921,"å¹¿":922,"åķĨ":923,"èĳ":924,"åºı":925,"èĬ±":926,"éªĮ":927,"åĬŁ":928,"åħ¶ä»ĸ":929,"ä»Ģ":930,"çĽ´":931,"äºļ":932,"ä¼ĺ":933,"ä¸ŃåĽ½":934,"é¡¹":935,"èĭ±":936,"ç§¯":937,"è§Ĩ":938,"åģ¥":939,"ç§°":940,"æĬĢæľ¯":941,"ä»½":942,"æĸ¹å¼ı":943,"æºĲ":944,"è¾ĥ":945,"è¨":946,"åĪĴ":947,"è¨Ģ":948,"è®¾è®¡":949,"çİ¯å¢ĥ":950,"è¯Ŀ":951,"å®Į":952,"è£ħ":953,"æ¨":954,"æĶ¶":955,"å®ĥä»¬":956,"å¼ķ":957,"ç»´":958,"ä¾ĭå¦Ĥ":959,"çĹ":960,"æĻ¯":961,"é©¬":962,"æĢģ":963,"çħ":964,"æ¸©":965,"æĭī":966,"å·²":967,"æ²¡":968,"æ¼Ķ":969,"ä»Ģä¹Ī":970,"åŁŁ":971,"æĻºèĥ½":972,"è¯į":973,"åĩĨ":974,"éħį":975,"åĨµ":976,"è§Ĵ":977,"çĪ±":978,"Ġc":979,"é¸":980,"åįģ":981,"å·¥ä½ľ":982,"æĿĲ":983,"æĸŃ":984,"èİ·":985,"çĮ":986,"æľª":987,"åĳ³":988,"çĶŁæ´»":989,"åĳĬ":990,"æ¹":991,"ä¸Ķ":992,"çİĩ":993,"Ġs":994,"è¶³":995,"æĸ¹æ³ķ":996,"æŁ¥":997,"è¯Ĩ":998,"ç«Ļ":999,"åĽ¢":1000,"æıĲé«ĺ":1001,"æŀģ":1002,"çľģ":1003,"åı·":1004,"æĢĿ":1005,"å±ŀ":1006,"ç»Ĩ":1007,"æĸ¹éĿ¢":1008,"ĊĠĠĠ":1009,"å¡":1010,"è®¡ç®Ĺ":1011,"æİĴ":1012,"æĿ¡":1013,"ä¹¦":1014,"ç®Ģ":1015,"el":1016,"åı²":1017,"äº§åĵģ":1018,"å»ºè®®":1019,"ä»¥åıĬ":1020,"åģļ":1021,"éĺ³":1022,"Ġa":1023,"åº·":1024,"ä¿¡æģ¯":1025,"æ¨¡":1026,"æ²»":1027,"ç¼ĸ":1028,"å¦Ĥä½ķ":1029,"ç½®":1030,"éĢŁ":1031,"æĪı":1032,"è¾ĵ":1033,"åºĶè¯¥":1034,"è±¡":1035,"ç½ĳ":1036,"èĩ´":1037,"Ġt":1038,"æµĭ":1039,"å¤į":1040,"å£«":1041,"åĳ½":1042,"Ġth":1043,"åįİ":1044,"é¢Ħ":1045,"çłģ":1046,"è½¬":1047,"åĩı":1048,"åŃ¦ä¹ł":1049,"æŀĦ":1050,"ç¯":1051,"æĺ¯ä¸Ģä¸ª":1052,"ç¿":1053,"å¥¹":1054,"å¥³":1055,"å·ŀ":1056,"éĹ¨":1057,"åį³":1058,"åĮ»":1059,"æ²¡æľī":1060,"æĬ¥":1061,"åĽĽ":1062,"æī¾":1063,"Ġp":1064,"æĴ":1065,"åĽłä¸º":1066,"é¦Ļ":1067,"ic":1068,"éĽĨ":1069,"è´¹":1070,"èĲ¥":1071,"æĳ":1072,"æ¬¢":1073,"æĪ¿":1074,"æīĵ":1075,"æ»¡":1076,"è¿ĳ":1077,"èıľ":1078,"it":1079,"es":1080,"201":1081,"å¿«":1082,"éļı":1083,"æĽ´åĬł":1084,"çŃĶ":1085,"ãĢĮ":1086,"ãĢį":1087,"åĸľ":1088,"is":1089,"200":1090,"æĪĲä¸º":1091,"é²":1092,"ï¼īï¼Į":1093,"è®¸":1094,"ä¸ªäºº":1095,"çĥŃ":1096,"åı¥":1097,"æŃĮ":1098,"æĸĩåĮĸ":1099,"çĻ½":1100,"ç³»ç»Ł":1101,"è¯ģ":1102,"å¤´":1103,"æ¸¸æĪı":1104,"æ¢":1105,"çº¢":1106,"Ġf":1107,"ç»Ń":1108,"ä¹ĭéĹ´":1109,"æĲ":1110,"ing":1111,"å¼Ģå§ĭ":1112,"æĺĵ":1113,"è¯Ħ":1114,"æľįåĬ¡":1115,"æļ":1116,"ä¸»è¦ģ":1117,"éĻ¢":1118,"åĲ¦":1119,"çĬ¶":1120,"è®°":1121,"è¶Ĭ":1122,"éĻħ":1123,"äººä»¬":1124,"çĶ¨æĪ·":1125,"ä¸ĸçķĮ":1126,"åģ¥åº·":1127,"æĥħåĨµ":1128,"ç«ł":1129,"ç¥ŀ":1130,"ä¸ĵ":1131,"um":1132,"åħ»":1133,"å¨":1134,"æ´»åĬ¨":1135,"åĨį":1136,"éĶĢ":1137,"è½»":1138,"ç©¶":1139,"åĳ¨":1140,"____":1141,"æķħ":1142,"æŀĹ":1143,"èĩªçĦ¶":1144,"çīĩ":1145,"çº§":1146,"çİĭ":1147,"åĭ":1148,"èĻĳ":1149,"ç¦»":1150,"è¿ĩç¨ĭ":1151,"å®īåħ¨":1152,"åħį":1153,"è´Ń":1154,"å¯Ĩ":1155,"åºĶçĶ¨":1156,"å¸Ī":1157,"èĤ²":1158,"åĩł":1159,"Ġm":1160,"ä¹ĭä¸Ģ":1161,"èīº":1162,"èģĮ":1163,"è§ģ":1164,"åħ¶ä¸Ń":1165,"äºĨè§£":1166,"éĩĩ":1167,"ä¾¿":1168,"ä¿ĿæĮģ":1169,"ç¯ĩ":1170,"å¼ł":1171,"éŁ³ä¹Ĳ":1172,"æĸ½":1173,"æ¤į":1174,"om":1175,"ç¢":1176,"çīĮ":1177,"Ġ2":1178,"éĻ¤":1179,"ä¿®":1180,"åŁİå¸Ĥ":1181,"äºĴ":1182,"çļĦäºº":1183,"æıı":1184,"æ¶Ī":1185,"çłĶ":1186,"åºľ":1187,"è¿ĲåĬ¨":1188,"æŀĲ":1189,"Ġd":1190,"Ġb":1191,"ç½Ĺ":1192,"åºŃ":1193,"ç¤¾ä¼ļ":1194,"èĽ":1195,"Ġw":1196,"æ¬¾":1197,"ĠĠĠĠĠĠĠ":1198,"åı¤":1199,"æİ§":1200,"æ²¹":1201,"çļĦä¸Ģ":1202,"and":1203,"éĻ©":1204,"è°¢":1205,"åŃ©":1206,"åįĩ":1207,"ä½İ":1208,"çĭ¬":1209,"é¾":1210,"å·´":1211,"çı":1212,"æĬķ":1213,"åĽ´":1214,"æľĽ":1215,"ç»ĥ":1216,"æ³¨æĦı":1217,"åħ³ç³»":1218,"å¯¹äºİ":1219,"äºĶ":1220,"äººç±»":1221,"Ġn":1222,"èĤī":1223,"ç®¡çĲĨ":1224,"åİ¿":1225,"æħ":1226,"åĽ¾":1227,"èĴ":1228,"èĥ½åĬĽ":1229,"åĿĩ":1230,"ä½Ĩæĺ¯":1231,"åĪĨæŀĲ":1232,"é»ĳ":1233,"çŃĸ":1234,"```":1235,"åħħ":1236,"çľŁ":1237,"åħ³äºİ":1238,"¤Ĳ":1239,"èħ":1240,"æĽ²":1241,"int":1242,"è§£åĨ³":1243,"å®ŀçİ°":1244,"Ġ-":1245,"12":1246,"åĲ«":1247,"ä¸ĩ":1248,"è®¤ä¸º":1249,"ac":1250,"ä»ħ":1251,"åħ·æľī":1252,"è¯»":1253,"åħ°":1254,"ç¾İåĽ½":1255,"ç¬¦":1256,"åĦ":1257,"å°¼":1258,"é¤Ĳ":1259,"è¯Ńè¨Ģ":1260,"åĲ¸":1261,"å¿ħ":1262,"ä¸įåĲĮçļĦ":1263,"åŃ£":1264,"ç²¾":1265,"çĹħ":1266,"éķĩ":1267,"åĪ¶ä½ľ":1268,"å¾ĭ":1269,"éļ¾":1270,"åĲĹ":1271,"åį¡":1272,"æĹħ":1273,"åĨħå®¹":1274,"äººå·¥":1275,"åĢĻ":1276,"æĪĳä»¬çļĦ":1277,"éĥ¨åĪĨ":1278,"Ġ\"":1279,"éĺ²":1280,"ä½łçļĦ":1281,"åİĨåı²":1282,"æīį":1283,"çĶµå½±":1284,"åĬłåħ¥":1285,"å¤±":1286,"æĸĩç«ł":1287,"çª":1288,"ç»Ī":1289,"éĢļå¸¸":1290,"åł":1291,"ç¡®ä¿Ŀ":1292,"å®Ŀ":1293,"èĢĥèĻĳ":1294,"æĺ¯ä¸Ģç§į":1295,"åĦ¿":1296,"åĪ°äºĨ":1297,"æīĢæľī":1298,"å®¶åºŃ":1299,"Ġå¥½çļĦ":1300,"Ġthe":1301,"çĸĹ":1302,"ä¿ĿæĬ¤":1303,"èº«ä½ĵ":1304,"ä¸¤ä¸ª":1305,"è§ī":1306,"åĲ¬":1307,"çħ§":1308,"æĵ":1309,"å¾Ģ":1310,"18":1311,"å¤§çļĦ":1312,"çģ«":1313,"æİ¢":1314,"æ¯į":1315,"åħ´":1316,"çĵ":1317,"åĬ¿":1318,"åĶ®":1319,"äºī":1320,"æĽ´å¤ļ":1321,"è®¸å¤ļ":1322,"è´¨éĩı":1323,"æľĢåĲİ":1324,"èİ·å¾Ĺ":1325,"æĿĥ":1326,"å¤ĦçĲĨ":1327,"å¸Į":1328,"éľĢæ±Ĥ":1329,"ç´¢":1330,"å©":1331,"æ²³":1332,"åıĭ":1333,"äººçļĦ":1334,"é»Ħ":1335,"éĺ¿":1336,"å°½":1337,"æııè¿°":1338,"è¾¹":1339,"æĪĸèĢħ":1340,"å®¤":1341,"è®¡åĪĴ":1342,"æĸĩæľ¬":1343,"é¢ĨåŁŁ":1344,"æ¦":1345,"äººå·¥æĻºèĥ½":1346,"å¹²":1347,"å¸Ĥåľº":1348,"ï¼ģ":1349,"åı¦":1350,"å±ħ":1351,"çŁ³":1352,"åĩ»":1353,"è¿Ļç§į":1354,"çĶŁæĪĲ":1355,"çłĶç©¶":1356,"éģ¿":1357,"æĻ®":1358,"ä½įäºİ":1359,"ion":1360,"Ġ3":1361,"ä»Ĭ":1362,"ç»ĵæŀľ":1363,"as":1364,"éĩĬ":1365,"å¯Į":1366,"æĶ¯æĮģ":1367,"am":1368,"åĪĩ":1369,"åįı":1370,"æĺ¯åĲ¦":1371,"ĠS":1372,"æĽ¾":1373,"éĢĤåĲĪ":1374,"ä½ľä¸º":1375,"ä»£çłģ":1376,"äº«":1377,"æĿĲæĸĻ":1378,"ä¸įæĸŃ":1379,"å¢ŀåĬł":1380,"åŃ©åŃĲ":1381,"ed":1382,"èĽĭ":1383,"å·²ç»ı":1384,"åĸľæ¬¢":1385,"èĳĹ":1386,"å¯¼èĩ´":1387,"ä¸¾":1388,"åıĳçİ°":1389,"ä¸Ģç§į":1390,"åĥ":1391,"èĢģ":1392,"åŃĺåľ¨":1393,"çŃĳ":1394,"åľŁ":1395,"å£°":1396,"å±Ĥ":1397,"15":1398,"ç¦ı":1399,"çĽ®æłĩ":1400,"åİĭ":1401,"éĵģ":1402,"Ġo":1403,"åĽŃ":1404,"åľ°åĮº":1405,"æĮī":1406,"åĬ¨çī©":1407,"èĲ½":1408,"è¶£":1409,"ç¨ĭåºı":1410,"ä»ĭ":1411,"æ¤įçī©":1412,"000":1413,"æĥħæĦŁ":1414,"æľªæĿ¥":1415,"æ³¢":1416,"ä¼Ĺ":1417,"ä¸Ģä¸ĭ":1418,"çĶ»":1419,"ä¹°":1420,"ro":1421,"æł¡":1422,"éħĴ":1423,"é±":1424,"åī§":1425,"è¯Ĺ":1426,"æ¸¯":1427,"è´Ł":1428,"å±Ģ":1429,"è¿ŀ":1430,"å·§":1431,"çĳ":1432,"åĽŀçŃĶ":1433,"æĬĬ":1434,"é±¼":1435,"åĪĿ":1436,"äº²":1437,"å»ºçŃĳ":1438,"çİ©":1439,"ĊĠĠĠĠĠĠĠ":1440,"åĲĦç§į":1441,"å®ļçļĦ":1442,"è®Ń":1443,"æŃ¤å¤ĸ":1444,"åıĺåĮĸ":1445,"å¿µ":1446,"åĩıå°ĳ":1447,"å»ºç«ĭ":1448,"æĸ°çļĦ":1449,"éĻĲ":1450,"äº§çĶŁ":1451,"åĵª":1452,"éĤ£ä¹Ī":1453,"åĬŁèĥ½":1454,"é¦ĸåħĪ":1455,"é¥®":1456,"et":1457,"æį¢":1458,"lo":1459,"ä¸½":1460,"éĩįè¦ģçļĦ":1461,"èī¯":1462,"æĶ¿åºľ":1463,"å¤ı":1464,"ï¼īãĢĤ":1465,"åľ°çĲĥ":1466,"Ġre":1467,"çİ°åľ¨":1468,"Ġin":1469,"æķħäºĭ":1470,"çĦ¶åĲİ":1471,"çº³":1472,"åĵģçīĮ":1473,"æ´²":1474,"éģ¿åħį":1475,"å½ķ":1476,"åĨĻä¸Ģ":1477,"ä¼ģ":1478,"çĶ¨äºİ":1479,"ä¸ĬçļĦ":1480,"è¡Įä¸º":1481,"æĿİ":1482,"åº§":1483,"éĻį":1484,"è´£":1485,"çºª":1486,"å§Ķ":1487,"è¯ī":1488,"11":1489,"æ¯ıä¸ª":1490,"æĿ¾":1491,"ä»¤":1492,"å®¢æĪ·":1493,"å®ĺ":1494,"é¢ľ":1495,"åĥı":1496,"å¹¶ä¸Ķ":1497,"è¶ħ":1498,"çĨ":1499,"è¿ľ":1500,"æĽ´å¥½":1501,"æµİ":1502,"äº¬":1503,"ä»£è¡¨":1504,"ul":1505,"ç§ĳåŃ¦":1506,"èīºæľ¯":1507,"çĶ±äºİ":1508,"äººåı£":1509,"æĪĳä»¬åı¯ä»¥":1510,"çĲĨè§£":1511,"æķĻèĤ²":1512,"il":1513,"æİ§åĪ¶":1514,"å¥¥":1515,"ĠA":1516,"yth":1517,"å¤ªéĺ³":1518,"æĤ¨çļĦ":1519,"ent":1520,"èįī":1521,"éĶ®":1522,"å¯»":1523,"è´¢":1524,"Ġh":1525,"ur":1526,"èĮĥ":1527,"Ġi":1528,"ĠC":1529,"åıĪ":1530,"é£ŀ":1531,"åĸĦ":1532,"å®ĮæĪĲ":1533,"çīĽ":1534,"éĶĻ":1535,"æĺ¾":1536,"æ²Ļ":1537,"éª¤":1538,"50":1539,"Ġ+":1540,"è¡¨è¾¾":1541,"æĭ¥":1542,"æĸ¹æ¡Ī":1543,"çķ¥":1544,"æŃ¥éª¤":1545,"ä¼ģä¸ļ":1546,"é£İæł¼":1547,"Ġand":1548,"åĩºçİ°":1549,"ython":1550,"è®²":1551,"åĿĹ":1552,"è¡¨ç¤º":1553,"ä½ı":1554,"é¸¡":1555,"åħ¸":1556,"30":1557,"ä¸Ģèµ·":1558,"åĩ½":1559,"ä»ĸçļĦ":1560,"åĪĨç±»":1561,"ä¸»é¢ĺ":1562,"Ġto":1563,"æ¿":1564,"å¤§åŃ¦":1565,"é¾Ļ":1566,"å¾ģ":1567,"æ£Ģ":1568,"ä»·æł¼":1569,"åĬŀ":1570,"æĹı":1571,"çĽ¸åħ³":1572,"éĿ¢ç§¯":1573,"äº¤éĢļ":1574,"é¢ľèī²":1575,"Ġ(":1576,"åıĮ":1577,"æĽ´å¥½åľ°":1578,"çĶ·":1579,"202":1580,"çĥ¤":1581,"ç®Ģåįķ":1582,"æ½":1583,"åħĥç´ł":1584,"ä¹ĭéĹ´çļĦ":1585,"ä»»åĬ¡":1586,"ç¿»":1587,"è¾ĵåħ¥":1588,"æľ¨":1589,"å¥ĩ":1590,"é¼":1591,"ç»į":1592,"åį«":1593,"ut":1594,"ä»¥ä¸ĭæĺ¯":1595,"åħ·ä½ĵ":1596,"æķ°åŃĹ":1597,"åĩ½æķ°":1598,"å¸¦æĿ¥":1599,"åı¯èĥ½ä¼ļ":1600,"åºĹ":1601,"çĽĬ":1602,"å®³":1603,"ä¹Łæĺ¯":1604,"å¾ĹåĪ°":1605,"æ±Ł":1606,"åħļ":1607,"æ´ĭ":1608,"ç²ī":1609,"è¿Ļæł·":1610,"ä»·åĢ¼":1611,"ä½ľçĶ¨":1612,"è¦ģæ±Ĥ":1613,"æĪĲåĬŁ":1614,"us":1615,"æŁĲ":1616,"li":1617,"å¤«":1618,"éĿĴ":1619,"åİħ":1620,"åį°":1621,"ç»ıæµİ":1622,"å°Ŀ":1623,"ĠT":1624,"åıĹåĪ°":1625,"ä½ľåĵģ":1626,"åıĳçĶŁ":1627,"è¡¨çİ°":1628,"çĭĹ":1629,"æ¥":1630,"åĽ¢éĺŁ":1631,"çİ°ä»£":1632,"åı¶":1633,"å²Ľ":1634,"èŀ":1635,"éĶĢåĶ®":1636,"çļ®":1637,"æ¿Ģ":1638,"èĵ":1639,"ç¬¬ä¸Ģ":1640,"èµ°":1641,"å¥¶":1642,"é¢Ŀ":1643,"æ¯ĶèµĽ":1644,"æĭħ":1645,"çŁŃ":1646,"ä¼¼":1647,"Ġåľ¨":1648,"åĪ¤":1649,"æłĳ":1650,"éĴŁ":1651,"199":1652,"æŃ¢":1653,"å¾Īå¤ļ":1654,"ä¼łç»Ł":1655,"ä»¥ä¸Ĭ":1656,"å¾®":1657,"ç»ĩ":1658,"æĹ©":1659,"de":1660,"ç¾¤":1661,"å¹³æĸ¹":1662,"Ġy":1663,"ä»ĭç»į":1664,"rint":1665,"èĪŀ":1666,"å¸ĮæľĽ":1667,"å¨ģ":1668,"ç»¿":1669,"å°Ħ":1670,"åĽłç´ł":1671,"ç¡®å®ļ":1672,"å¿Ĺ":1673,"æľĿ":1674,"æĵį":1675,"é²ľ":1676,"æĮĳ":1677,"æ¯Ķå¦Ĥ":1678,"çļĦä¸Ģä¸ª":1679,"ri":1680,"ç»ĵæŀĦ":1681,"åĪ©çĶ¨":1682,"ä¸Ģä»½":1683,"æ¹¾":1684,"åĳĺå·¥":1685,"æĿĤ":1686,"Ġå½ĵ":1687,"æ²Ł":1688,"å¥ĸ":1689,"æĹłæ³ķ":1690,"çŃīçŃī":1691,"æ´ģ":1692,"--------":1693,"ç±»åŀĭ":1694,"Ġ5":1695,"æĿ¿":1696,"åĤ":1697,"çļĦéĹ®é¢ĺ":1698,"æ¯Ķè¾ĥ":1699,"è§£éĩĬ":1700,"ch":1701,"è´Ńä¹°":1702,"ç¼º":1703,"å¼Ĥ":1704,"ç¬¬äºĮ":1705,"éº":1706,"é¦Ĩ":1707,"çļĦæĺ¯":1708,"ä¸Ńå¿ĥ":1709,"è½¯":1710,"çĶŁåĳ½":1711,"è¿½":1712,"èĥĮ":1713,"ç§»":1714,"ä¸°":1715,"Ġ4":1716,"çļĦå½±åĵį":1717,"ç»§":1718,"åºķ":1719,"æľºåĻ¨":1720,"é¡¹çĽ®":1721,"ä»»ä½ķ":1722,"åĪ»":1723,"æĢ§åĴĮ":1724,"å®£":1725,"åı¯ä»¥å¸®åĬ©":1726,"çķĻ":1727,"ä½ĵéªĮ":1728,"ä»İèĢĮ":1729,"âĢĶ":1730,"æĬķèµĦ":1731,"èĲ¨":1732,"åħ¬éĩĮ":1733,"èĹ":1734,"ä»ĸä»¬çļĦ":1735,"ay":1736,"åı¥åŃĲ":1737,"èľ":1738,"ç¤¼":1739,"ä¸įä»ħ":1740,"å½¢æĪĲ":1741,"ç³ĸ":1742,"ve":1743,"æĿ¥è¯´":1744,"çĶŁçī©":1745,"ol":1746,"ä¸ºäºĨ":1747,"æ¦Ĥ":1748,"å¯Ł":1749,"æĭ¥æľī":1750,"èĪĴ":1751,"æľĢç»Ī":1752,"éŃ":1753,"æľīæķĪ":1754,"16":1755,"ĠI":1756,"æĴŃ":1757,"å¯¹è¯Ŀ":1758,"è¯ĳ":1759,"ge":1760,"se":1761,"å·®":1762,"æĻļ":1763,"å©ļ":1764,"åįĥ":1765,"Ġof":1766,"ĠP":1767,"çīĪ":1768,"ç§¯æŀģ":1769,"åħ³éĶ®":1770,"èįĲ":1771,"çªģ":1772,"æŁĵ":1773,"éĢĲ":1774,"èĭı":1775,"ç§ĳæĬĢ":1776,"ä¸įæĺ¯":1777,"åŃ¦çĶŁ":1778,"åħ³æ³¨":1779,"äººæ°ĳ":1780,"ĊĠĠĠĠĠĠĠĠ":1781,"âĢĿãĢĤ":1782,"é¥°":1783,"çĮ«":1784,"æİ¨èįĲ":1785,"äºĳ":1786,"æĬĢå·§":1787,"Ġ0":1788,"éĻĨ":1789,"é¡»":1790,"ĠM":1791,"çī¹çĤ¹":1792,"XX":1793,"å¼Ģåıĳ":1794,"ĠB":1795,"æķ£":1796,"æīĢä»¥":1797,"åĴĸ":1798,"æĿ¯":1799,"æī¿":1800,"èŃ":1801,"çļĦåľ°":1802,"è®¨":1803,"è¿ĩç¨ĭä¸Ń":1804,"å½©":1805,"æ²ŁéĢļ":1806,"æĶ»":1807,"éĥ½æĺ¯":1808,"æĪĳçļĦ":1809,"æĢ»ä¹ĭ":1810,"å®ĥçļĦ":1811,"æł¸":1812,"åħ¨çĲĥ":1813,"æĮĳæĪĺ":1814,"æŃ£ç¡®":1815,"è®¾å¤ĩ":1816,"è¿ĺæľī":1817,"åŁºæľ¬":1818,"åĩĨå¤ĩ":1819,"èŃ¦":1820,"å°ıè¯´":1821,"éĩĩçĶ¨":1822,"éĩıçļĦ":1823,"ç»ľ":1824,"æ¬§":1825,"è¯¯":1826,"âĢĿï¼Į":1827,"æī¾åĪ°":1828,"ç¥¨":1829,"çĽĳ":1830,"åĲĪä½ľ":1831,"(\"":1832,"ct":1833,"æ´¾":1834,"æĽ´å¤ļçļĦ":1835,"ç»Ħç»ĩ":1836,"æ¸Ĳ":1837,"ä¼¦":1838,"åĳ¢":1839,"æĦŁåĪ°":1840,"è®Ńç»ĥ":1841,"ç»ĻæĪĳ":1842,"ä¸¥":1843,"åħŃ":1844,"åıįåºĶ":1845,"èµ·æĿ¥":1846,"çī©è´¨":1847,"åĳĬè¯ī":1848,"èµĦæºĲ":1849,"ä½įç½®":1850,"æī§":1851,"å°Ŀè¯ķ":1852,"çģµ":1853,"åķ¡":1854,"æĪĳä»¬éľĢè¦ģ":1855,"æ°§":1856,"åģĩ":1857,"æ´Ĺ":1858,"æĮģç»Ń":1859,"éĿĻ":1860,"æ±½":1861,"åįĬ":1862,"è¯¦":1863,"æĢ§çļĦ":1864,"çŁ¥éģĵ":1865,"å¾ħ":1866,"æ±ī":1867,"åı¯ä»¥éĢļè¿ĩ":1868,"åĴĸåķ¡":1869,"æĵįä½ľ":1870,"æĿĳ":1871,"èŀį":1872,"çİ¯ä¿Ŀ":1873,"Ġ'":1874,"äºĨä¸Ģ":1875,"åĵĪ":1876,"ĠæĪĳ":1877,"im":1878,"å²ģ":1879,"èį¯":1880,"å¡Ķ":1881,"æ³Ľ":1882,"åĽ½å®¶":1883,"17":1884,"åĬ±":1885,"éģĩ":1886,"å¤©æ°Ķ":1887,"åĪĹè¡¨":1888,"åĪĽéĢł":1889,"åĨ°":1890,"è§Ĵèī²":1891,"æ··":1892,"çĩ":1893,"åıĤåĬł":1894,"åŁ¹":1895,"èĪª":1896,"çĶµè§Ĩ":1897,"å¿ĥçĲĨ":1898,"èĩªçĶ±":1899,"ä¾Ŀ":1900,"ä¸ĵä¸ļ":1901,"é¦Ļæ¸¯":1902,"å³":1903,"åįļ":1904,"è¾ĵåĩº":1905,"çıŃ":1906,"è¡£":1907,"________":1908,"æĲŃ":1909,"å·¥åħ·":1910,"å½Ĵ":1911,"çĽĲ":1912,"è¾ĳ":1913,"he":1914,"åŁºç¡":1915,"å°ļ":1916,"ad":1917,"æŃ¦":1918,"çļĦéĩįè¦ģ":1919,"åŁºç¡Ģ":1920,"è¡¡":1921,"14":1922,"un":1923,"èĶ":1924,"ä¸´":1925,"å½ĵåľ°":1926,"æ³ķåĽ½":1927,"åĪ¶å®ļ":1928,"Ġe":1929,"æ¨¡åŀĭ":1930,"çĶŁäº§":1931,"ä¼¤":1932,"å·¦":1933,"ä¹¡":1934,"é£Łçī©":1935,"åģľ":1936,"åĮħåĲ«":1937,"ç«ŀ":1938,"èĥľ":1939,"å°±æĺ¯":1940,"åª":1941,"æīįèĥ½":1942,"åĮ»çĸĹ":1943,"å°Ĭ":1944,"ç»ĦæĪĲ":1945,"åĿļ":1946,"æĹ¥æľ¬":1947,"è·Ŀ":1948,"ä¸įèĥ½":1949,"åħ¬åı¸çļĦ":1950,"æĺ¥":1951,"èĵĿ":1952,"æķ°éĩı":1953,"åı¯ä»¥åľ¨":1954,"æ¯Ľ":1955,"å¿ħé¡»":1956,"åĪĨéĴŁ":1957,"25":1958,"çļĦç¾":1959,"çĻ¾":1960,"æŃ»":1961,"éļıçĿĢ":1962,"çĶµåŃĲ":1963,"æ¸©åº¦":1964,"çĪ¶":1965,"åı³":1966,"åºĵ":1967,"ä»ĺ":1968,"éħ¸":1969,"åĨĻä¸Ģç¯ĩ":1970,"æķĪæŀľ":1971,"æħ¢":1972,"æ¥¼":1973,"æ´ŀ":1974,"éĴĪ":1975,"ä»į":1976,"æ£®":1977,"æĳĦ":1978,"æ¹ĸ":1979,"éĢŁåº¦":1980,"è¡ĮæĺŁ":1981,"åĳ¼":1982,"ä¹ĺ":1983,"åĨľ":1984,"è¯¦ç»Ĩ":1985,"éĵ¶":1986,"éĨ":1987,"åľ£":1988,"åıĤä¸İ":1989,"åĲĥ":1990,"éĻĪ":1991,"ä¿ĥ":1992,"é£İéĻ©":1993,"èĪĴéĢĤ":1994,"198":1995,"å®ŀéĻħ":1996,"èĪ¬":1997,"id":1998,"æĬĢèĥ½":1999,"å¤ľ":2000,"åħ«":2001,"å¹¿æ³Ľ":2002,"å®Ĺ":2003,"ç¨³":2004,"()":2005,"Ġg":2006,"åĬĽåĴĮ":2007,"å±ŀäºİ":2008,"å®Ī":2009,"åįł":2010,"çļĦæĹ¶":2011,"åĽ°":2012,"Ġfor":2013,"çł´":2014,"åħ±åĲĮ":2015,"åįķè¯į":2016,"è¿Ļæĺ¯":2017,"ç½ĳç»ľ":2018,"ot":2019,"æľĭ":2020,"çĽĸ":2021,"æİª":2022,"ver":2023,"ç«¯":2024,"éĽ¨":2025,"ä¼Ĭ":2026,"åħµ":2027,"è±Ĩ":2028,"é¸Ł":2029,"åŃĹç¬¦":2030,"èĻ½":2031,"äº®":2032,"ä½Ļ":2033,"æķ´ä¸ª":2034,"çĶŁæĢģ":2035,"çīĻ":2036,"13":2037,"æ¶Īè´¹":2038,"ç§ĺ":2039,"Ġ6":2040,"æĦıä¹ī":2041,"åı°æ¹¾":2042,"ä¹ĭåĲİ":2043,"éĽ·":2044,"ä¸°å¯Į":2045,"åį´":2046,"ç©ºéĹ´":2047,"ç»ıéªĮ":2048,"åĤ¨":2049,"ç©¿":2050,"éĹ»":2051,"ä½³":2052,"gh":2053,"äºĭä»¶":2054,"æĿ¡ä»¶":2055,"çļĦç¬":2056,"åĮĸåŃ¦":2057,"åĬª":2058,"èĤ¤":2059,"çĻ»":2060,"çļĦåıĳå±ķ":2061,"é¡º":2062,"æİĮ":2063,"æĪĲåĳĺ":2064,"çŁ¥è¯Ĩ":2065,"çĶ²":2066,"è¡Ĺ":2067,"å®ĩ":2068,"èī²çļĦ":2069,"ç¿»è¯ĳ":2070,"ä¸įè¦ģ":2071,"ç»ª":2072,"æ±½è½¦":2073,"åĺ":2074,"èĦĳ":2075,"ç´§":2076,"åĨ³å®ļ":2077,"æľĭåıĭ":2078,"æ·»":2079,"ä¹Łåı¯ä»¥":2080,"çļĦç¾İ":2081,"æıĲåĩº":2082,"éĺħ":2083,"è°ĥæķ´":2084,"åĽ½éĻħ":2085,"100":2086,"åªĴ":2087,"è¯¢":2088,"èĸ":2089,"æķĪçİĩ":2090,"æ°ĶåĢĻ":2091,"åıĺå¾Ĺ":2092,"æĸĩåŃ¦":2093,"ç»¼":2094,"å¤§åĪ©":2095,"åĬłå¼º":2096,"é¢ĳ":2097,"è¿İ":2098,"éĢı":2099,"åĲįç§°":2100,"åĨ·":2101,"å½¢å¼ı":2102,"èĤ¡":2103,"ç§ĭ":2104,"æĮīçħ§":2105,"æĺ¯åľ¨":2106,"ap":2107,"éĢłæĪĲ":2108,"çĦ¶èĢĮ":2109,"è¡ĮæĶ¿":2110,"æľºä¼ļ":2111,"å®¹æĺĵ":2112,"èĹı":2113,"äººåĳĺ":2114,"æľĢè¿ĳ":2115,"æİªæĸ½":2116,"ä¸²":2117,"æĦ¿":2118,"çī¹å¾ģ":2119,"æ´Ľ":2120,"Python":2121,"æī¹":2122,"éħ±":2123,"åĮĹäº¬":2124,"å®ŀéªĮ":2125,"æįŁ":2126,"èĻ½çĦ¶":2127,"åĭĴ":2128,"è¡¨æł¼":2129,"å¸Ŀ":2130,"Ġyou":2131,"Ġ$":2132,"çī¹åĪ«":2133,"ç»Ļåĩº":2134,"åī¯":2135,"çĨŁ":2136,"å¯»æī¾":2137,"åĩłä¸ª":2138,"é¡¿":2139,"æ¢¦":2140,"äºĨä¸Ģä¸ª":2141,"æ¾":2142,"è¯·éĹ®":2143,"æµª":2144,"ç®±":2145,"äº¤æµģ":2146,"æİ¢ç´¢":2147,"ç¤¾äº¤":2148,"èĮ¶":2149,"åıªæľī":2150,"æ±¡":2151,"æŀ¶":2152,"å®ł":2153,"æļĸ":2154,"åĢĴ":2155,"æ£ĢæŁ¥":2156,"åĪĨåĪ«":2157,"ow":2158,"åŁºäºİ":2159,"ç®Ĺæ³ķ":2160,"å¹³åĿĩ":2161,"çĵ¦":2162,"é«ĺçļĦ":2163,"em":2164,"ç§°ä¸º":2165,"çĮ®":2166,"å¾ª":2167,"å¸¸è§ģ":2168,"ç»§ç»Ń":2169,"nt":2170,"ä½¿å¾Ĺ":2171,"ä¸Ńåįİ":2172,"å¤įæĿĤ":2173,"å·¨":2174,"æ²»çĸĹ":2175,"ä¸ĢçĽ´":2176,"åķĨåĵģ":2177,"åĪĽä½ľ":2178,"éĿ©":2179,"ä¸īä¸ª":2180,"çĤĴ":2181,"é£Łåĵģ":2182,"æµĭè¯ķ":2183,"è¯º":2184,"é¡¾":2185,"èĩªæĪĳ":2186,"å§Ķåĳĺ":2187,"å¦Ĥæŀľä½ł":2188,"Ġ8":2189,"Ġnum":2190,"åĲī":2191,"èĨ":2192,"æĪĳæĥ³":2193,"ort":2194,"ce":2195,"æĬ¥åĳĬ":2196,"èģĮä¸ļ":2197,"æ¤Ĵ":2198,"æ³ķå¾ĭ":2199,"if":2200,"å®ĥä»¬çļĦ":2201,"è¿Ľåħ¥":2202,"ä½Ľ":2203,"ĠL":2204,"åĲ¸å¼ķ":2205,"çİ©å®¶":2206,"ç£":2207,"éĻĦ":2208,"ä¸ĥ":2209,"æ»¡è¶³":2210,"é¼ĵ":2211,"å§Ĩ":2212,"ï¼ļâĢľ":2213,"èĮĥåĽ´":2214,"èĭ±åĽ½":2215,"è§ĦåĪĴ":2216,"ä¼°":2217,"ä¸ĸçºª":2218,"éĩİ":2219,"ä¹Ŀ":2220,"å¡ŀ":2221,"å¹´çļĦ":2222,"ä¸»ä¹ī":2223,"éĢģ":2224,"æĢĿèĢĥ":2225,"æĺ¯æĮĩ":2226,"çľ¼":2227,"é¹":2228,"ä¸Ģæ¬¡":2229,"ä¸ĢæŃ¥":2230,"æłĩåĩĨ":2231,"\")":2232,"ĠD":2233,"å®łçī©":2234,"ue":2235,"è½®":2236,"èİ±":2237,"çĭ¬çī¹":2238,"æľ«":2239,"æ©":2240,"çĥĪ":2241,"è¡ĮåĬ¨":2242,"ĠĠĠĠĠĠĠĠĠĠĠĠĠĠĠĠ":2243,"åİŁåĽł":2244,"æģ©":2245,"è¡Ģ":2246,"Ġå½ĵçĦ¶":2247,"éļľ":2248,"åĲ§":2249,"æľīåħ³":2250,"è´Ŀ":2251,"å¤©çļĦ":2252,"ç¼ĵ":2253,"æ°¸":2254,"ç»Ŀ":2255,"è´µ":2256,"æ¼«":2257,"åĨ²":2258,"çĽĺ":2259,"åłĤ":2260,"ord":2261,"å¹¸":2262,"äº¦":2263,"ä¸įä¼ļ":2264,"è·Ŀç¦»":2265,"Ġ{":2266,"æĶ¹åıĺ":2267,"åħħæ»¡":2268,"ĠH":2269,"æĶ¿æ²»":2270,"åĩĢ":2271,"æĹħæ¸¸":2272,"æĿŁ":2273,"éĥ½æľī":2274,"æĹ¶æľŁ":2275,"äººçī©":2276,"æľŁéĹ´":2277,"æ¶²":2278,"éĶħ":2279,"çº¸":2280,"éĺħè¯»":2281,"çļĦçľ":2282,"èģĶç³»":2283,"è¯´æĺİ":2284,"çĶŁéķ¿":2285,"èĩªåĬ¨":2286,"åªĴä½ĵ":2287,"æĬĹ":2288,"åĪĽæĸ°":2289,"ç§ģ":2290,"num":2291,"Ġè¿Ļ":2292,"æŃĮæĽ²":2293,"èĢĮä¸Ķ":2294,"çŃĸçķ¥":2295,"å°Ĩåħ¶":2296,"éģĹ":2297,"çģ¯":2298,"å®ļä¹ī":2299,"è´¥":2300,"åĲ¯":2301,"èĥ¡":2302,"æīĺ":2303,"éĿł":2304,"åĮºåŁŁ":2305,"åľĨ":2306,"èĳĹåĲį":2307,"éĢĶ":2308,"ãĢĤâĢĿ":2309,"Ġis":2310,"é¤Ĳåİħ":2311,"éĺ¶":2312,"å¾Ħ":2313,"ç§Ģ":2314,"ä¹ĭåīį":2315,"è¾Ĩ":2316,"åı¦å¤ĸ":2317,"å¢ŀå¼º":2318,"éĩĩåıĸ":2319,"ĠW":2320,"ä¸ĢèĪ¬":2321,"ä¹ħ":2322,"çħ®":2323,"ke":2324,"Ġst":2325,"è¿ĺæĺ¯":2326,"æĲŃéħį":2327,"çĽ®åīį":2328,"od":2329,"èī¯å¥½çļĦ":2330,"ä½łåı¯ä»¥":2331,"è¿Ķ":2332,"æīĭæľº":2333,"å±ĭ":2334,"ç»ĥä¹ł":2335,"ä¼¯":2336,"å½ĵæĹ¶":2337,"åı£æĦŁ":2338,"æĭŁ":2339,"å¿«éĢŁ":2340,"å¤ļç§į":2341,"æ°ı":2342,"æ··åĲĪ":2343,"å·¥ç¨ĭ":2344,"æĪĲæľ¬":2345,"æĥħç»ª":2346,"åħ´è¶£":2347,"å®¡":2348,"åĳĬè¯īæĪĳ":2349,"æĭ¿":2350,"print":2351,"è´§":2352,"éĿ¢çļĦ":2353,"åŃ¦æł¡":2354,"åĶ±":2355,"åĮĢ":2356,"èĥĮæĻ¯":2357,"é¥®é£Ł":2358,"æĦŁè§ī":2359,"æ·»åĬł":2360,"ate":2361,"å¹³åı°":2362,"æ¶ī":2363,"ir":2364,"åĽº":2365,"Ġl":2366,"èĢħçļĦ":2367,"åį³åı¯":2368,"ä¼ĳ":2369,"av":2370,"å¤ļå°ĳ":2371,"æľīä¸Ģ":2372,"èģļ":2373,"å¼¹":2374,"é«ĺåº¦":2375,"ç¨İ":2376,"60":2377,"æĢİ":2378,"æĥħåĨµä¸ĭ":2379,"24":2380,"é²ģ":2381,"æı¡":2382,"ĠF":2383,"for":2384,"ï¼īãĢģ":2385,"åĵ¥":2386,"æĸ¹åĲĳ":2387,"è¶ĭ":2388,"Ġå°Ĩ":2389,"å¹³è¡¡":2390,"Ġè¯·":2391,"è®¡ç®Ĺæľº":2392,"çĶ°":2393,"æĬĺ":2394,"ç©ºæ°Ķ":2395,"å¦Ĥä¸ĭ":2396,"éĢĢ":2397,"æļ´":2398,"æĪĲéķ¿":2399,"ä»¥ä¾¿":2400,"å¸Ĥéķĩ":2401,"ä¿ĥè¿Ľ":2402,"è·Ł":2403,"å¹¶åľ¨":2404,"æľīè¶£":2405,"éĢĲæ¸Ĳ":2406,"åĩĨç¡®":2407,"ç³»åĪĹ":2408,"è¿ĻéĩĮ":2409,"è®°å½ķ":2410,"¹ģ":2411,"ç»ıåİĨ":2412,"åĬ©äºİ":2413,"èĥ½æºĲ":2414,"æĦŁåıĹ":2415,"æĿĢ":2416,"çļĦå¤§":2417,"å®Ļ":2418,"çŃīæĸ¹éĿ¢":2419,"194":2420,"æ¸ħæ´ģ":2421,"åĨł":2422,"å¥ı":2423,"æĢ»ç»ĵ":2424,"èĲ¥åħ»":2425,"åİĭåĬĽ":2426,"å°ıæĹ¶":2427,"ç«ŀäºī":2428,"æ¡¥":2429,"è¾¾åĪ°":2430,"åľºæĻ¯":2431,"å®½":2432,"åķĨä¸ļ":2433,"è¯¾":2434,"ä¾§":2435,"å®¶åħ·":2436,"è¡ĮçļĦ":2437,"é©¶":2438,"å·Ŀ":2439,"å®ļæľŁ":2440,"åĮĸçļĦ":2441,"åĬªåĬĽ":2442,"è¾ĸ":2443,"çĽ¸å¯¹":2444,"çī©çĲĨ":2445,"å°ģ":2446,"æĺ¯ä»Ģä¹Ī":2447,"çİī":2448,"åĮ»çĶŁ":2449,"çĸ¾":2450,"åĲĪéĢĤ":2451,"è½½":2452,"åĳĪ":2453,"ation":2454,"ĊĠ":2455,"æĦıè¯Ĩ":2456,"197":2457,"çĸĳ":2458,"å®ĩå®Ļ":2459,"å°º":2460,"Ġ7":2461,"è¿Ļä¸Ģ":2462,"æŃ£åľ¨":2463,"çļĦçŁ":2464,"æĸĹ":2465,"urn":2466,"åŁĥ":2467,"æľĹ":2468,"éĢĤéĩı":2469,"æĪĲç«ĭ":2470,"çļĩ":2471,"å°ıæĺİ":2472,"æķ°åŃ¦":2473,"æ°´å¹³":2474,"ä¸ºæĤ¨":2475,"æİĪ":2476,"å¸Ń":2477,"çļĦç¤":2478,"åĲĪçĲĨ":2479,"æ±¡æŁĵ":2480,"ä¸Ŀ":2481,"çļĦç¬¬":2482,"ä¸ĭæĿ¥":2483,"ĠG":2484,"èĶ¬":2485,"çļĦçĪ":2486,"æī©":2487,"éĤ®":2488,"):":2489,"è¿ª":2490,"åģļåĩº":2491,"çļĦæĸ¹æ³ķ":2492,"æ¹¿":2493,"æĿ¥è¶Ĭ":2494,"æĽ´å¥½çļĦ":2495,"ç¬¬ä¸ī":2496,"ice":2497,"Ġr":2498,"éº¦":2499,"ĠĠĠĠĠ":2500,"å¤®":2501,"è·ĳ":2502,"åŃĹç¬¦ä¸²":2503,"èĪ¹":2504,"è¶ĬæĿ¥è¶Ĭ":2505,"åľ¨è¿Ļä¸ª":2506,"æİ¥åıĹ":2507,"åħ¬åħ±":2508,"è°ĥæŁ¥":2509,"æ¨¡å¼ı":2510,"ĠR":2511,"å®ģ":2512,"éĢĤåºĶ":2513,"ers":2514,"åĵªäºĽ":2515,"çŃ¾":2516,"æ¶¦":2517,"æ½ľ":2518,"å¢Ļ":2519,"æľīåĬ©äºİ":2520,"èĳ±":2521,"éĶĻè¯¯":2522,"å³°":2523,"å¤ļä¸ª":2524,"åįķä½į":2525,"è´Łè´£":2526,"éļĲ":2527,"çĽŁ":2528,"çľĭåĪ°":2529,"ä¸Ģå®ļ":2530,"Ġ[":2531,"æµĵ":2532,"è¶ĭåĬ¿":2533,"ä¸Ģä½į":2534,"ä¿Ŀè¯ģ":2535,"çĬ¶æĢģ":2536,"åĿı":2537,"è®¢":2538,"Jo":2539,"æī§è¡Į":2540,"è¯ĹæŃĮ":2541,"æ³¨éĩį":2542,"æ³°":2543,"ä¸įåı¯":2544,"è½¦ç«Ļ":2545,"æĶ¶åħ¥":2546,"æ±¤":2547,"æĭħä»»":2548,"éĴĪå¯¹":2549,"çĽ´æİ¥":2550,"ç½ª":2551,"è´¢åĬ¡":2552,"ä¼ļè®®":2553,"æĳ©":2554,"å®«":2555,"å´":2556,"ĊĠĠĠĠĠĠĠĠĠĠĠ":2557,"æĤ¨åı¯ä»¥":2558,"æĥ¯":2559,"Ġ/":2560,"æĦıå¤§åĪ©":2561,"åĿĲ":2562,"æ¬¢è¿İ":2563,"åį±":2564,"28":2565,"åĬ³":2566,"è¶³å¤Ł":2567,"èĶ¬èıľ":2568,"ex":2569,"ç¹ģ":2570,"æĮ¥":2571,"è½¯ä»¶":2572,"æĭĮ":2573,"Ġ#":2574,"å¦ĤæŀľæĤ¨":2575,"ç®ĢåįķçļĦ":2576,"AI":2577,"éĢĤå½ĵ":2578,"åº¦åĴĮ":2579,"åĲĮæĹ¶ä¹Ł":2580,"èĤĮ":2581,"op":2582,"èĻļ":2583,"è¡Įä¸ļ":2584,"æĤ£":2585,"éĺ³åħī":2586,"ä¸Ĭæµ·":2587,"æŁĶ":2588,"ä¸Ńå¤®":2589,"æĺ¯çĶ±":2590,"å»¶":2591,"æĹĭ":2592,"çĽ´åĪ°":2593,"è·³":2594,"æ¯Ĵ":2595,"æıĲåįĩ":2596,"ç¼ĸåĨĻ":2597,"æĥ³è¦ģ":2598,"turn":2599,"è¡¨éĿ¢":2600,"ä¸ĭéĿ¢":2601,"Ġx":2602,"è¿ĺåı¯ä»¥":2603,"çĬ¯":2604,"çĽ¸äºĴ":2605,"ç«¥":2606,"æĽ¼":2607,"çĹĩ":2608,"Ġ10":2609,"åł¡":2610,"éľ²":2611,"äº«åıĹ":2612,"èĤ¥":2613,"åĪĨå¸ĥ":2614,"ame":2615,"é¡¶":2616,"åĬĽéĩı":2617,"\",":2618,"ab":2619,"ãĢĭãĢģ":2620,"æľīäºĽ":2621,"è°¢è°¢":2622,"äºĪ":2623,"è´Ńçī©":2624,"æĶ¾åħ¥":2625,"é½":2626,"ç»´æĬ¤":2627,"éĻįä½İ":2628,"è®¾ç½®":2629,"å£¤":2630,"---":2631,"21":2632,"å¹´ä»£":2633,"çŃĶæ¡Ī":2634,"æģĴ":2635,"æİĴåºı":2636,"æĸ°éĹ»":2637,"åĲİçļĦ":2638,"ä¼´":2639,"èĦļ":2640,"çĪ±æĥħ":2641,"è´£ä»»":2642,"çĥ§":2643,"å¸ģ":2644,"éĵ¾":2645,"çļĦçĥ":2646,"æĹħè¡Į":2647,"ç±į":2648,"ç³ķ":2649,"è®©æĪĳä»¬":2650,"é¾Ħ":2651,"æĹ§":2652,"åħ¶æ¬¡":2653,"æĽ¿":2654,"é¢Ĩå¯¼":2655,"åģı":2656,"æĶ¿çŃĸ":2657,"Ġ9":2658,"æ³¡":2659,"è´¡":2660,"Ġ<":2661,"ä¸Ģæ®µ":2662,"ç»ıè¿ĩ":2663,"æ²ī":2664,"èĢĲ":2665,"å±Ĭ":2666,"ĠE":2667,"ç»©":2668,"ght":2669,"åı«":2670,"å¯¹æĸ¹":2671,"åĿ¦":2672,"åħ±åĴĮ":2673,"éĩįæĸ°":2674,"å±ķç¤º":2675,"±ä¹Ĳ":2676,"çĸ¾çĹħ":2677,"å®Įåħ¨":2678,"æĿ¥èĩª":2679,"æķĳ":2680,"çĲĨè®º":2681,"40":2682,"é¼ĵåĬ±":2683,"ä¸ģ":2684,"åĨħéĥ¨":2685,"ç»ĨèĬĤ":2686,"åĲįä¸º":2687,"çĶ¨çļĦ":2688,"æĶ¹åĸĦ":2689,"åıĬæĹ¶":2690,"ä½łå¥½":2691,"è¶³çĲĥ":2692,"æĥ³æ³ķ":2693,"23":2694,"çī©ä½ĵ":2695,"çī©åĵģ":2696,"Ġ*":2697,"çĸ«":2698,"è¡¥":2699,"Ġde":2700,"èĴĻ":2701,"ä¼ĺåĮĸ":2702,"Ġreturn":2703,"åĪĽå»º":2704,"çĭ¬ç«ĭ":2705,"åĳ¼åĲ¸":2706,"ç¾İä¸½":2707,"2021":2708,"æĿ°":2709,"æĮĩå¯¼":2710,"æľĢå¤§":2711,"è®¿":2712,"è£ħé¥°":2713,"è¯Ħä¼°":2714,"é¢Ħç®Ĺ":2715,"åºĨ":2716,"é»ĳæ´ŀ":2717,"ult":2718,"æĭį":2719,"æ±ĩ":2720,"æĶ¾æĿ¾":2721,"å°Ĭéĩį":2722,"åįĪ":2723,"æ±ģ":2724,"æľĢé«ĺ":2725,"åĿĩåĮĢ":2726,"æĺł":2727,"äºĭæĥħ":2728,"hn":2729,"put":2730,"èĲ¥éĶĢ":2731,"è¿ŀæİ¥":2732,"åĪĨäº«":2733,"åīĤ":2734,"èģĬ":2735,"åĭĩ":2736,"åħ¬åĽŃ":2737,"ä¸ºä»Ģä¹Ī":2738,"è§ĤçĤ¹":2739,"éĽħ":2740,"èĭ±è¯Ń":2741,"çļĦçł":2742,"ç¾İåħĥ":2743,"èĿ":2744,"æĦŁè°¢":2745,"çĶļ":2746,"åĪĨä¸º":2747,"ç¤¾åĮº":2748,"åıĸå¾Ĺ":2749,"ç¬¦åĲĪ":2750,"æĺİç¡®":2751,"æĶ¾åľ¨":2752,"éĺµ":2753,"æĢ§èĥ½":2754,"è¿½æ±Ĥ":2755,"ä¹łæĥ¯":2756,"èī¾":2757,"éĴ±":2758,"ç¨³å®ļ":2759,"å¿ħè¦ģ":2760,"è¿Ľä¸ĢæŃ¥":2761,"çĳŀ":2762,"åĶĲ":2763,"end":2764,"è°Ī":2765,"æ¦Ĥå¿µ":2766,"å°¾":2767,"å®ľ":2768,"æľīä¸Ģä¸ª":2769,"æĢĿæĥ³":2770,"çİ°è±¡":2771,"ĠN":2772,"ä¹³":2773,"è§ĦåĪĻ":2774,"æľĢä½³":2775,"åĪĺ":2776,"ç½ĳç«Ļ":2777,"æĢ¥":2778,"çľł":2779,"èµŀ":2780,"è¹":2781,"è¿·":2782,"éĵģè·¯":2783,"åĨ³çŃĸ":2784,"Ġif":2785,"çļĦæĸ¹å¼ı":2786,"æİĮæı¡":2787,"è®¨è®º":2788,"ç»ıåħ¸":2789,"è®¾æĸ½":2790,"çĤ¼":2791,"å¾·åĽ½":2792,"æ±ł":2793,"èª":2794,"åĵ²":2795,"ç»ĵæĿŁ":2796,"æľºæŀĦ":2797,"Ġv":2798,"æĪĳä¼ļ":2799,"èµı":2800,"åĪĨåŃĲ":2801,"ç¼©":2802,"æĪ¿éĹ´":2803,"500":2804,"è®©äºº":2805,"å¾ªçİ¯":2806,"çģ¾":2807,"ãĢĭãĢģãĢĬ":2808,"åºĶçļĦ":2809,"John":2810,"è¿ĶåĽŀ":2811,"èį£":2812,"æ¯ıä¸ªäºº":2813,"æĪĳåı¯ä»¥":2814,"æ·±åħ¥":2815,"22":2816,"ç»ıå¸¸":2817,"é¥Ń":2818,"å¥³æĢ§":2819,"å»ºè®¾":2820,"äº¿":2821,"ä»ª":2822,"åĪ¤æĸŃ":2823,"æıĲä¾ĽäºĨ":2824,"å¥Ĺ":2825,"åľ°æĸ¹":2826,"åı¯æĮģç»Ń":2827,"åĬĽçļĦ":2828,"çĬ¶åĨµ":2829,"èĥ½éĩı":2830,"',":2831,"éĢĴ":2832,"å¹¸ç¦ı":2833,"æĹ¥æľŁ":2834,"å¼ºè°ĥ":2835,"æ»ĳ":2836,"æĶ¹è¿Ľ":2837,"ç¢³":2838,"å¹´è½»":2839,"åºĦ":2840,"os":2841,"æĢİä¹Ī":2842,"çİĽ":2843,"æŃ£å¼ı":2844,"..":2845,"å¼ķèµ·":2846,"åŃ¦éĻ¢":2847,"é¢Ħæµĭ":2848,"åºĶå¯¹":2849,"äº¡":2850,"éķ¿åº¦":2851,"é©¾":2852,"çļĦæĸĩç«ł":2853,"99":2854,"å¡ĳ":2855,"åºĬ":2856,"åı¯ä»¥ä½¿çĶ¨":2857,"çĩĥ":2858,"ä»¥ç¡®ä¿Ŀ":2859,"éģį":2860,"å«":2861,"Ġprint":2862,"æĹ¶å°ļ":2863,"åĪ¶éĢł":2864,"éĽª":2865,"åħ±åĴĮåĽ½":2866,"å§Ķåĳĺä¼ļ":2867,"è¿Ļä¸ªéĹ®é¢ĺ":2868,"åĪº":2869,"è¸":2870,"æĬ½":2871,"å®¤åĨħ":2872,"195":2873,"ä¸ĢåĲį":2874,"æĥł":2875,"æľīçĿĢ":2876,"æĪĺäºī":2877,"ç§Ł":2878,"å¸®æĪĳ":2879,"æ¾³":2880,"çļĦçĶŁæ´»":2881,"çĿ¡":2882,"ç¬Ķ":2883,"art":2884,"ç»ĺ":2885,"ä¸įè¿ĩ":2886,"åĲįåŃĹ":2887,"éª¨":2888,"ç¬ĳ":2889,"æ°Ľ":2890,"çĦ¦":2891,"å®īè£ħ":2892,"æĲľ":2893,"æľīä»Ģä¹Ī":2894,"çĭ¬çī¹çļĦ":2895,"åŀĥ":2896,"æĭĶ":2897,"åľ¾":2898,"åŀĥåľ¾":2899,"ç¼ĸç¨ĭ":2900,"ä¹Łä¼ļ":2901,"éľĩ":2902,"ä¼½":2903,"åĲĪéĢĤçļĦ":2904,"è½¨":2905,"ä¸¥éĩį":2906,"çļĦå°ı":2907,"å¤ļæł·":2908,"nd":2909,"Ġbe":2910,"çĿ£":2911,"æ¶īåıĬ":2912,"éģµ":2913,"èĥŀ":2914,"èģĶç½ĳ":2915,"ãĢĭï¼Į":2916,"âĢĶâĢĶ":2917,"çĶľ":2918,"çĽ¸åĲĮ":2919,"éĻ¤äºĨ":2920,"æĹ¥å¸¸":2921,"æĲħ":2922,"æĹłè®º":2923,"27":2924,"ä»Ĭå¤©":2925,"åŃĹæ¯į":2926,"åĽ°éļ¾":2927,"è§£åĨ³æĸ¹æ¡Ī":2928,"ä¸Ģç¯ĩ":2929,"ext":2930,"çļĦåľ°æĸ¹":2931,"è¾£":2932,"è¯ļ":2933,"åį·":2934,"ly":2935,"å¹³æĸ¹åħ¬éĩĮ":2936,"æµ·æ´ĭ":2937,"èĭ±æĸĩ":2938,"èĽĭç³ķ":2939,"æļĹ":2940,"è§¦":2941,"çļĦä¸»è¦ģ":2942,"è¶ħè¿ĩ":2943,"å¹ķ":2944,"å²¸":2945,"çº½":2946,"èİ«":2947,"196":2948,"res":2949,"ä¸ļåĬ¡":2950,"æ²¿":2951,"æģĲ":2952,"å¹´é¾Ħ":2953,"æ°§åĮĸ":2954,"çļĦä¿¡æģ¯":2955,"ç¾İé£Ł":2956,"æ¯ķ":2957,"å°¤":2958,"ä¸ŃæľĢ":2959,"åĢ¾":2960,"æĺ¾ç¤º":2961,"æĭĽ":2962,"åģ¥èº«":2963,"80":2964,"çļĦåºĶçĶ¨":2965,"åĵģè´¨":2966,"ain":2967,"è§Ħå®ļ":2968,"èĪ°":2969,"è¿Ļæ®µ":2970,"ãĢįï¼Į":2971,"èķ":2972,"è°·":2973,"26":2974,"æĶ¯ä»ĺ":2975,"éĽĦ":2976,"éľĢè¦ģæ³¨æĦı":2977,"éĿ¢å¯¹":2978,"æ¸ħæĻ":2979,"åĢŁ":2980,"å¢ŀéķ¿":2981,"è´¹çĶ¨":2982,"åīįå¾Ģ":2983,"åĲİæĿ¥":2984,"èĴľ":2985,"Ġ==":2986,"é¢Ĺ":2987,"èĢ³":2988,"éŃĶ":2989,"ith":2990,"è°±":2991,"è´¡çĮ®":2992,"æ¬§æ´²":2993,"æĲħæĭĮ":2994,"ä¹Łæľī":2995,"ub":2996,"è¯Ĭ":2997,"çĶļèĩ³":2998,"æŃ£ç¡®çļĦ":2999,"å¹¶ä¸į":3000,"çĶ³":3001,"åı¯ä»¥è®©":3002,"æķ¬":3003,"åİĤ":3004,"å½¼":3005,"çļĦçģ":3006,"èĴĤ":3007,"æĥĬ":3008,"è§Ĥå¯Ł":3009,"ant":3010,"2019":3011,"çĽ¸ä¿¡":3012,"çī©ç§į":3013,"éķ¿æľŁ":3014,"èĻ«":3015,"ä¹Į":3016,"ä¸Ģé¦ĸ":3017,"äºĴåĬ¨":3018,"å¯Ĩåº¦":3019,"ç§»åĬ¨":3020,"æ¯ıå¤©":3021,"æľºåĻ¨äºº":3022,"ç»¿èī²":3023,"æĸ¹ä¾¿":3024,"2020":3025,"æµģè¡Į":3026,"æİ¨å¹¿":3027,"éĶ»":3028,"çĪĨ":3029,"ç¥ĸ":3030,"èªī":3031,"çļĦç¤¾":3032,"èļ":3033,"èį·":3034,"å½¢è±¡":3035,"ä¹İ":3036,"å¹»":3037,"åĴĮåħ¶ä»ĸ":3038,"åıĳå¸ĥ":3039,"æŁĲäºĽ":3040,"æ¶Īè´¹èĢħ":3041,"åĳ¨åĽ´":3042,"èĭ¥":3043,"å¥¹çļĦ":3044,"çľŁæŃ£":3045,"èĬĤçĽ®":3046,"é³":3047,"è½¬æį¢":3048,"å®īæİĴ":3049,"åĩºäºĨ":3050,"éĶ»çĤ¼":3051,"å¼Ĺ":3052,"å¯¸":3053,"29":3054,"çļĦç©":3055,"åĩºæĿ¥":3056,"é¸¡èĽĭ":3057,"å®£ä¼ł":3058,"åħ¨åĽ½":3059,"åħħåĪĨ":3060,"çĶŁæĪĲä¸Ģä¸ª":3061,"è½¦è¾Ĩ":3062,"åĬ¨ä½ľ":3063,"ç¨ĭåº¦":3064,"å°Ĩä¼ļ":3065,"åı£åĳ³":3066,"æ¢ħ":3067,"çļĦæķ°æį®":3068,"æĢĢ":3069,"hi":3070,"å¹¿åĳĬ":3071,"é£ŁæĿĲ":3072,"ä¸¹":3073,"è§īå¾Ĺ":3074,"out":3075,"æ°ĶåĢĻåıĺåĮĸ":3076,"éŀ":3077,"ľä¼½":3078,"éģŃ":3079,"æµģç¨ĭ":3080,"èĦ±":3081,"one":3082,"åĪļ":3083,"åĵ²åŃ¦":3084,"é»İ":3085,"äººçĶŁ":3086,"çĽĽ":3087,"è¯ĨåĪ«":3088,"å¿Ĩ":3089,"åŃ¦ä¼ļ":3090,"193":3091,"ĠĠĠĠĠĠ":3092,"éĩĳèŀį":3093,"çīĽå¥¶":3094,"å¸¸è§ģçļĦ":3095,"qu":3096,"åŃĲçļĦ":3097,"our":3098,"å¤§å°ı":3099,"è®©æĪĳ":3100,"éĺ¶æ®µ":3101,"å¤§éĩı":3102,"çİ°å®ŀ":3103,"å·¦åı³":3104,"æķı":3105,"éĻĲåĪ¶":3106,"ä¸Ńæĸĩ":3107,"ç»Ĩèĥŀ":3108,"æĪĲä¸ºäºĨ":3109,"ç¡¬":3110,"å²©":3111,"æ°´æŀľ":3112,"æĶ»åĩ»":3113,"åºŁ":3114,"æ®Ĭ":3115,"ä¼ĺç§Ģ":3116,"åĨħçļĦ":3117,"ĠÃ":3118,"æĹ¶ä»£":3119,"å®¾":3120,"å±ħæ°ĳ":3121,"åıĮæĸ¹":3122,"ç²¾ç¥ŀ":3123,"ä»ĸåľ¨":3124,"ç»ĵåĲĪ":3125,"åį«çĶŁ":3126,"ä¸ĬéĿ¢":3127,"ä¼ĺåĬ¿":3128,"è¯Ħä»·":3129,"åı¤ä»£":3130,"èĮĦ":3131,"åĩºçļĦ":3132,"æ³³":3133,"è£ħä¿®":3134,"ä¼ĺçĤ¹":3135,"ç±»ä¼¼":3136,"é»ĺ":3137,"é«ĺæķĪ":3138,"è§Ĥä¼Ĺ":3139,"åŃ£èĬĤ":3140,"åĪĽæĦı":3141,"çıį":3142,"ä¸įéĶĻ":3143,"python":3144,"åºĶçĶ¨ç¨ĭåºı":3145,"çļĦçłĶ":3146,"å¤§å®¶":3147,"èı²":3148,"èī²å½©":3149,"å©´":3150,"å®¶å±ħ":3151,"æģ¶":3152,"å¯¿":3153,"éħĴåºĹ":3154,"åŃ¤":3155,"æıĲåıĸ":3156,"ew":3157,"iv":3158,"èĽĭçĻ½":3159,"æ·±åĪ»":3160,"åİļ":3161,"åĺī":3162,"çªĹ":3163,"è·µ":3164,"ç¾İåĳ³":3165,"æĥħèĬĤ":3166,"çĽ¸ä¼¼":3167,"ä½ĵçļĦ":3168,"é¥¼":3169,"å·¥ä¸ļ":3170,"åĨĻä¸Ģç¯ĩåħ³äºİ":3171,"å¹ħ":3172,"çļĦæĹ¶åĢĻ":3173,"éĥ¨éĹ¨":3174,"æĦī":3175,"ç½²":3176,"èĦĤ":3177,"ä»įçĦ¶":3178,"é¦Ī":3179,"rac":3180,"å°¼äºļ":3181,"æĪĲåĪĨ":3182,"éĽ¶":3183,"çĽ®çļĦ":3184,"ä¸Ģæł·":3185,"åĳĪçİ°":3186,"éģĵå¾·":3187,"éļĶ":3188,"å¼ĥ":3189,"æİ¨åĬ¨":3190,"çļĦæĹ¶éĹ´":3191,"è¿Ĳè¡Į":3192,"å½¢çĬ¶":3193,"éķľ":3194,"æł¸å¿ĥ":3195,"åŁ¹è®Ń":3196,"æ¯«":3197,"åį¢":3198,"åĳ³éģĵ":3199,"å°½ç®¡":3200,"form":3201,"ä½łéľĢè¦ģ":3202,"çº¢èī²":3203,"ãĢĭï¼Ī":3204,"æ»©":3205,"çıł":3206,"æ½®":3207,"èİ·åıĸ":3208,"çļĦå·¥ä½ľ":3209,"ç¥ŀç§ĺ":3210,"æĢĿç»´":3211,"pp":3212,"åĨĴ":3213,"éĤ¦":3214,"Ġæĺ¯":3215,"çĶµèĦĳ":3216,"arr":3217,"åħ±æľī":3218,"æ¸ħæĻ°":3219,"çķª":3220,"ob":3221,"åį°åº¦":3222,"åı¥è¯Ŀ":3223,"ä¸ªæĢ§":3224,"ãĢįãĢĤ":3225,"éĩıåŃĲ":3226,"ç»Ļå®ļ":3227,"éĢĥ":3228,"å®ŀè·µ":3229,"èĩ³å°ĳ":3230,"æīĢéľĢ":3231,"éĹŃ":3232,"çī¹æ®Ĭ":3233,"åľ¨ä¸Ģèµ·":3234,"é¡µ":3235,"çļĦåħ³éĶ®":3236,"åįĥç±³":3237,"ç¥Ŀ":3238,"éĻĦè¿ĳ":3239,"åŃĺåĤ¨":3240,"ãĢĭãĢĤ":3241,"å¼ĢæĶ¾":3242,"çĤ¸":3243,"çĲĥéĺŁ":3244,"))":3245,"ä¸ĬæľĢ":3246,"ä¿¡ä»»":3247,"çļĦç¨":3248,"åĨ¬":3249,"ä»¤äºº":3250,"æ»¡æĦı":3251,"éļĨ":3252,"è®¤è¯Ĩ":3253,"ag":3254,"è¯Ħè®º":3255,"ess":3256,"äºĴèģĶç½ĳ":3257,"èľľ":3258,"éĿ¢ä¸´":3259,"å£°éŁ³":3260,"é©¾é©¶":3261,"ci":3262,"éº»":3263,"æį·":3264,"æĬ«":3265,"æįķ":3266,"çļĦç©º":3267,"å¯¹è¯ĿåĨħå®¹":3268,"ind":3269,"è¹Ī":3270,"æĦıè§ģ":3271,"ig":3272,"éĴ¢":3273,"Ġ`":3274,"æľīæīĢ":3275,"å§ľ":3276,"åĩī":3277,"æĪ¿å±ĭ":3278,"çļĦæķħäºĭ":3279,"æ·¡":3280,"åıįé¦Ī":3281,"ä»¥ä¸ĭæĺ¯ä¸ĢäºĽ":3282,"çļĦå»ºè®®":3283,"åĨłåĨĽ":3284,"è¯¾ç¨ĭ":3285,"è¿ĩåİ»":3286,"Ġå½ĵçĦ¶åı¯ä»¥":3287,"å¨±ä¹Ĳ":3288,"èĳĹåĲįçļĦ":3289,"ç§įç±»":3290,"çļĦçĪ±":3291,"Ġint":3292,"æķ°çļĦ":3293,"èģĶåĲĪ":3294,"ack":3295,"ä½łä»¬":3296,"äº¤æĺĵ":3297,"ĠO":3298,"èĳ¡":3299,"è¿ĽæŃ¥":3300,"åĩºçĶŁ":3301,"ä½łèĥ½":3302,"èĪŀè¹Ī":3303,"åĨįæ¬¡":3304,"éģĵè·¯":3305,"å¯»æ±Ĥ":3306,"çĶ¨æĿ¥":3307,"ass":3308,"ä¿Ħ":3309,"å¤ıåŃ£":3310,"åĦ¿ç«¥":3311,"çļĦçİ¯å¢ĥ":3312,"åıĺéĩı":3313,"éĥ½ä¼ļ":3314,"2022":3315,"äº§åĵģçļĦ":3316,"å®Ŀå®Ŀ":3317,"æĸ¹ç¨ĭ":3318,"æ³½":3319,"ld":3320,"ans":3321,"ï¼ĮâĢľ":3322,"æĿ¥æºĲ":3323,"çĹĽ":3324,"å·®å¼Ĥ":3325,"'s":3326,"è¯ģæį®":3327,"oo":3328,"åĹ":3329,"æ¶Ĥ":3330,"ä¾ĭåŃĲ":3331,"ç»ĦåĲĪ":3332,"çļĦçłĶç©¶":3333,"èĢĹ":3334,"NA":3335,"åĮ¹":3336,"æĴ°":3337,"å¼Ł":3338,"æ¸©æļĸ":3339,"æİ¢è®¨":3340,"äººæ°ĳåħ±åĴĮåĽ½":3341,"æĮĩåįĹ":3342,"å¿«ä¹Ĳ":3343,"åħ¼":3344,"çĳľä¼½":3345,"åĿĢ":3346,"æİ¥ä¸ĭæĿ¥":3347,"è¡¨æ¼Ķ":3348,"çļĦéľĢæ±Ĥ":3349,"ç¾İçļĦ":3350,"2000":3351,"ä¾µ":3352,"è§Ī":3353,"ç»¼åĲĪ":3354,"çĴ":3355,"å¤ļçļĦ":3356,"Ġli":3357,"æ£®æŀĹ":3358,"Ġel":3359,"åįĸ":3360,"åħ¬å¼ı":3361,"çļĦç¼":3362,"ç¼ºçĤ¹":3363,"2010":3364,"è¿¹":3365,"çĶŁæĢģç³»ç»Ł":3366,"æ°ĽåĽ´":3367,"çĽ¸åºĶçļĦ":3368,"éĢ»":3369,"ç»ķ":3370,"åŁ¹åħ»":3371,"æ·±åº¦":3372,"æĲľç´¢":3373,"åĶ¯":3374,"æĹĹ":3375,"æĦıåĳ³":3376,"å®£å¸ĥ":3377,"å¦»":3378,"ä½ľèĢħ":3379,"Ġch":3380,"elf":3381,"ä½ĵèĤ²":3382,"æģĭ":3383,"åľŁå£¤":3384,"all":3385,"åŃĻ":3386,"åĢĴåħ¥":3387,"åģĩè®¾":3388,"ä»Ķ":3389,"pt":3390,"èĲĦ":3391,"çļ®èĤ¤":3392,"èĳ¡èĲĦ":3393,"Ġit":3394,"str":3395,"å·§åħĭ":3396,"åĲĪåĲĮ":3397,"ä¸Ńåįİäººæ°ĳåħ±åĴĮåĽ½":3398,"æ®ĸ":3399,"æĢ»çļĦ":3400,"åĢ¼å¾Ĺ":3401,"èĭ¦":3402,"æİī":3403,"å¡«":3404,"ç»Ļå®ļçļĦ":3405,"æĩ":3406,"éĵ¶è¡Į":3407,"çĶŁåŃĺ":3408,"ç¤¾äº¤åªĴä½ĵ":3409,"çļĦæĥħæĦŁ":3410,"æĦŁåıĹåĪ°":3411,"åľ°çĲĨ":3412,"éªĳ":3413,"å¯º":3414,"æĿ¨":3415,"æĢ»ç»Ł":3416,"éĹ®é¢ĺçļĦ":3417,"2018":3418,"ount":3419,"æľīå¾Īå¤ļ":3420,"çģ°":3421,"æ¡£":3422,"**":3423,"èħ¿":3424,"éĢĤå½ĵçļĦ":3425,"è¯ģæĺİ":3426,"70":3427,"è¯»èĢħ":3428,"åı¦ä¸Ģ":3429,"åıĤèĢĥ":3430,"å¼±":3431,"å§¿":3432,"å¤ªéĺ³ç³»":3433,"éĨĴ":3434,"æ¡Į":3435,"å±ķçİ°":3436,"ard":3437,"çī¹èī²":3438,"è¶³å¤ŁçļĦ":3439,"åı¯ä»¥éĢīæĭ©":3440,"å¦Ĩ":3441,"æĺ¯ä¸ŃåĽ½":3442,"âĢĭ":3443,"åıĹæ¬¢è¿İ":3444,"age":3445,"åįģåĪĨ":3446,"åīª":3447,"é½Ĳ":3448,"åĨĮ":3449,"ä»°":3450,"åİŁçĲĨ":3451,"ä¹ı":3452,"å±ı":3453,"ak":3454,"è®²è¿°":3455,"è®¯":3456,"æľīæĹ¶":3457,"ç¦ģ":3458,"æ¬£":3459,"45":3460,"èĴ¸":3461,"æı´":3462,"ax":3463,"éŁ©":3464,"æī¬":3465,"çĨĬ":3466,"çļĦç²":3467,"æīĢè¿°":3468,"åİ¨":3469,"æĶ¶éĽĨ":3470,"ç»¼ä¸Ĭ":3471,"æ°ĳåĽ½":3472,"å½¹":3473,"ĠJ":3474,"éŀĭ":3475,"åĪĩæĪĲ":3476,"æ°Ķæ¸©":3477,"æĢ»çļĦæĿ¥è¯´":3478,"èµĸ":3479,"ä¸ĭçļĦ":3480,"port":3481,"æľºåĻ¨åŃ¦ä¹ł":3482,"åŃ¦èĢħ":3483,"èĩªä¿¡":3484,"ä¸īè§Ĵ":3485,"æ£Ĵ":3486,"æĸ¯çī¹":3487,"æµ·æĭĶ":3488,"å½ĵåīį":3489,"å¤§éĩıçļĦ":3490,"è§Ĵåº¦":3491,"è¡¨æĺİ":3492,"ä¸ºä¸»":3493,"è§Ħæ¨¡":3494,"ç¿°":3495,"éľĢè¦ģèĢĥèĻĳ":3496,"èıĮ":3497,"Ġæł¹æį®":3498,"åĮ»åŃ¦":3499,"æĬµ":3500,"________________":3501,"é£ŀè¡Į":3502,"ä»ģ":3503,"è¿ĩåº¦":3504,"èĤ¯":3505,"åı¦ä¸Ģä¸ª":3506,"ity":3507,"ä¹Ļ":3508,"å¤§éĻĨ":3509,"è¿ģ":3510,"Ġthat":3511,"è¿Ŀ":3512,"è´ŁéĿ¢":3513,"ç´«":3514,"ä¸Ģæ¬¾":3515,"Ġå¦Ĥæŀľ":3516,"pl":3517,"Ġon":3518,"ä»ĸäºº":3519,"åĨĻä½ľ":3520,"Ġcon":3521,"ĠçļĦ":3522,"åĿļæĮģ":3523,"å§ĵ":3524,"Ġle":3525,"åĴ¨":3526,"ange":3527,"çļĦçĭ":3528,"æĪ´":3529,"âĢĭâĢĭ":3530,"åħ·ä½ĵçļĦ":3531,"é©»":3532,"èģĺ":3533,"Ġj":3534,"90":3535,"ç±»åŀĭçļĦ":3536,"æĦıåĳ³çĿĢ":3537,"æĢģåº¦":3538,"èħĲ":3539,"åĮĹéĥ¨":3540,"éĥģ":3541,"æĸ°é²ľ":3542,"éĥ¡":3543,"ä¿Ŀéļľ":3544,"31":3545,"æıĴ":3546,"ï¼īï¼ļ":3547,"æ³ķéĻ¢":3548,"per":3549,"æķĮ":3550,"æŀª":3551,"æĻĭ":3552,"çķħ":3553,"è£ģ":3554,"æ¸¸æ³³":3555,"ç§įæ¤į":3556,"è¯·ä½ł":3557,"å¦Ļ":3558,"ä¹±":3559,"å©´åĦ¿":3560,"å¿ł":3561,"åı¯èĥ½æĺ¯":3562,"pe":3563,"å©ļç¤¼":3564,"èĩªè¡Į":3565,"éĢ»è¾ĳ":3566,"æľīéĻĲ":3567,"è¢«ç§°ä¸º":3568,"è¿Ĳç®Ĺ":3569,"ç²Ĵ":3570,"è¦":3571,"åĪĳ":3572,"å£ģ":3573,"è®ºæĸĩ":3574,"æ¼Ķåĳĺ":3575,"æĭ¼":3576,"çĶŁå¹³":3577,"è¿Ļç¯ĩ":3578,"35":3579,"def":3580,"æĪĳä»¬åºĶè¯¥":3581,"çĪ¶æ¯į":3582,"ç»Łè®¡":3583,"åıĬåħ¶":3584,"åĬŀåħ¬":3585,"åĴ¨è¯¢":3586,"åĩ¯":3587,"æĽ¾ç»ı":3588,"ä¸°å¯ĮçļĦ":3589,"å½¼æŃ¤":3590,"åıĺæĪĲ":3591,"å¾Īå¥½":3592,"Ġ}":3593,"éĢīé¡¹":3594,"å·§åħĭåĬĽ":3595,"çĶŁæ´»ä¸Ń":3596,"çļĦä¸Ģç§į":3597,"çļĦç½":3598,"æĹ¶éĹ´åĴĮ":3599,"ä¸¾è¡Į":3600,"åĲĮæł·":3601,"éĺ»":3602,"éĤ®ä»¶":3603,"éģĩåĪ°":3604,"å®ŀæĸ½":3605,"åĩºçīĪ":3606,"æ¯ķä¸ļ":3607,"åĪĹåĩº":3608,"æŃ£å¸¸":3609,"çĲ´":3610,"ia":3611,"å¿ĺ":3612,"æĬĢæľ¯çļĦ":3613,"å¤§æ°Ķ":3614,"éĤ£äºĽ":3615,"åįĹéĥ¨":3616,"è½»æĿ¾":3617,"çĵľ":3618,"iz":3619,"èµ¢":3620,"ula":3621,"åıªæĺ¯":3622,"ä¼¸":3623,"äºĭé¡¹":3624,"é¢ĺçĽ®":3625,"æľµ":3626,"èµĦäº§":3627,"çļĦè®¾è®¡":3628,"åĪĨéħį":3629,"å¯¹è±¡":3630,"è¥¿çıŃ":3631,"æµ®":3632,"ç»¼ä¸ĬæīĢè¿°":3633,"è¥¿çıŃçīĻ":3634,"çģŃ":3635,"2016":3636,"éĩĳå±ŀ":3637,"ç¦»å¼Ģ":3638,"è¦Ĩ":3639,"ä¿ĿéĻ©":3640,"ç¢İ":3641,"ä¸¤ç§į":3642,"æīĢåľ¨":3643,"å°¤åħ¶":3644,"ç¬¬ä¸Ģä¸ª":3645,"èĵĿèī²":3646,"åħīçº¿":3647,"ä¹Ķ":3648,"è·¨":3649,"çĲĥåĳĺ":3650,"æĻ¯çĤ¹":3651,"åŃ©åŃĲçļĦ":3652,"ill":3653,"çŃīäºİ":3654,"æľīæķĪçļĦ":3655,"å¿ħè¦ģçļĦ":3656,"Ġwith":3657,"çļĦä¸Ģéĥ¨åĪĨ":3658,"åŁºåĽł":3659,"èĦī":3660,"åĲ´":3661,"æħ§":3662,"ä¸Ģåıª":3663,"åıĳæĮ¥":3664,"é¥®æĸĻ":3665,"åĢº":3666,"æ¢ģ":3667,"èµ«":3668,"åľ°çļĦ":3669,"èĩªèº«":3670,"ine":3671,"æ¯Ķä¾ĭ":3672,"æĪĳä»¬å°Ĩ":3673,"åľ¨çº¿":3674,"è¢ĭ":3675,"å§»":3676,"éĺ²æŃ¢":3677,"åľ¨ä¸Ģä¸ª":3678,"æģĴæĺŁ":3679,"èĬĿ":3680,"éĺ´":3681,"å¦Ī":3682,"æķ¦":3683,"å°½åı¯èĥ½":3684,"ist":3685,"å¸ķ":3686,"èµĦæĸĻ":3687,"çļĦåŁºç¡Ģ":3688,"':":3689,"äººç±»çļĦ":3690,"åķĬ":3691,"è¾ħ":3692,"æİ¨çĲĨ":3693,"æ°Ķä½ĵ":3694,"å¼ºçĥĪ":3695,"æ¡Īä»¶":3696,"åľĪ":3697,"é»Ħèī²":3698,"èİī":3699,"åĪĢ":3700,"è§Ĩè§ī":3701,"å¹¶å°Ĩ":3702,"çĵ¶":3703,"å¤ļæķ°":3704,"çļĦç¥":3705,"ä¿®æĶ¹":3706,"çĥ¹":3707,"ome":3708,"äºĭå®ŀ":3709,"tr":3710,"çļĦçĥŃ":3711,"åĸľæ¬¢çļĦ":3712,"çĽ¸åħ³çļĦ":3713,"æĦıæĢĿ":3714,"=\"":3715,"éĩįå¤į":3716,"Ġres":3717,"ang":3718,"The":3719,"æĬ«èĲ¨":3720,"ä¸ľè¥¿":3721,"ä»·åĢ¼è§Ĥ":3722,"éĢīä¸¾":3723,"Ġ\\":3724,"éī":3725,"å®ĭ":3726,"ç»´æĮģ":3727,"å½¢çļĦ":3728,"çº½çº¦":3729,"çĥŁ":3730,"çĦ¦èĻĳ":3731,"è·¯çº¿":3732,"æĹ¢":3733,"è´¦":3734,"2017":3735,"åįļçī©":3736,"çŁ¿":3737,"åŃĶ":3738,"æĤ¨éľĢè¦ģ":3739,"éī´":3740,"Tom":3741,"æĺ¯éĿŀå¸¸":3742,"ĊĠĠ":3743,"æĪĲç»©":3744,"ava":3745,"éļıæľº":3746,"å©ļå§»":3747,"åĲĦä¸ª":3748,"é¥ª":3749,"ment":3750,"æĶ¯åĩº":3751,"éķ¿çļĦ":3752,"å®¶äºº":3753,"æķ´æķ°":3754,"æľªæĿ¥çļĦ":3755,"æĺŁæľŁ":3756,"æľīçļĦ":3757,"çī©çļĦ":3758,"æİĴæĶ¾":3759,"èľĤ":3760,"è±ª":3761,"ç¼ĵè§£":3762,"æĸ¹éĿ¢çļĦ":3763,"åĪĻæĺ¯":3764,"uc":3765,"åħ¹":3766,"å½ĵçĦ¶":3767,"äººå£«":3768,"äººéĻħ":3769,"èĢĮä¸įæĺ¯":3770,"è°ĥåĳ³":3771,"åı¯ä»¥æł¹æį®":3772,"âĢ¦":3773,"å¸¦æĿ¥äºĨ":3774,"åŃ¦åĲį":3775,"åĲĮå¹´":3776,"âĦ":3777,"æĤ£èĢħ":3778,"åıĤæķ°":3779,"åİĺ":3780,"æ²ĥ":3781,"éĻ·":3782,"app":3783,"åĪĹè½¦":3784,"åĨħå¿ĥ":3785,"æī°":3786,"ĠâĢľ":3787,"Ch":3788,"ie":3789,"æķ°ç»Ħ":3790,"æģ¢":3791,"2011":3792,"çķªèĮĦ":3793,"æľīè¶£çļĦ":3794,"åĪ©æ¶¦":3795,"èģĶçĽŁ":3796,"åĵªä¸ª":3797,"ore":3798,"åıĳè¡Į":3799,"å®Įæķ´":3800,"æľ±":3801,"è®¾æľī":3802,"å¤º":3803,"ç±»åĪ«":3804,"ç¼ºä¹ı":3805,"éĽĨä¸Ń":3806,"è¿Ļæĺ¯ä¸Ģä¸ª":3807,"éĿ¢åĮħ":3808,"Ġpro":3809,"çĤİ":3810,"åľ¨äºİ":3811,"èĽĭçĻ½è´¨":3812,"çº·":3813,"è¿ĲåĬ¨åĳĺ":3814,"ç¾İä¸½çļĦ":3815,"ç»ĻäºĪ":3816,"åĴĮæĸĩåĮĸ":3817,"éĶĢåĶ®é¢Ŀ":3818,"è¯ŃéŁ³":3819,"âĦĥ":3820,"æ¸ħåįķ":3821,"è¯Ńæ³ķ":3822,"é¡¾å®¢":3823,"ä½©":3824,"åĲ«æľī":3825,"çļĦæ°´":3826,"æķ´ä½ĵ":3827,"é¼ł":3828,"å¤ıå¤©":3829,"ure":3830,"ä¸įè¶³":3831,"ç¯®":3832,"åĨ²çªģ":3833,"æĢ»æĺ¯":3834,"å¼ķåĬĽ":3835,"æľºåĪ¶":3836,"è½¨éģĵ":3837,"éļĲç§ģ":3838,"ä»¿":3839,"ï¼ļ\"":3840,"ä¹ĭå¤ĸ":3841,"çº¹":3842,"èĸĦ":3843,"ä¸ĵè¾ĳ":3844,"Ġlo":3845,"36":3846,"æ´ª":3847,"éĤ»":3848,"éļıæĹ¶":3849,"æĢ§è´¨":3850,"2015":3851,"åĢį":3852,"å¢¨":3853,"çļĦä¸»":3854,"å¹³æĸ¹åįĥç±³":3855,"æĹ¨":3856,"èĬ¬":3857,"çļĦåĨħå®¹":3858,"äºĴçĽ¸":3859,"æ¼Ķè®²":3860,"è¢«è®¤ä¸º":3861,"çº¯":3862,"èıľåĵģ":3863,"å®¶æĹı":3864,"å¾Ĵ":3865,"æĽ´æĸ°":3866,"ç¾İå¥½çļĦ":3867,"äºĮåįģ":3868,"è¯·è¾ĵåħ¥":3869,"åĪ°è¾¾":3870,"ere":3871,"å®ĹæķĻ":3872,"æĤ¦":3873,"ç»ĵè®º":3874,"æłĩå¿Ĺ":3875,"åĩıè½»":3876,"å¤©ç©º":3877,"æĺİæĺ¾":3878,"åºĻ":3879,"è´´":3880,"èº«ä»½":3881,");":3882,"éĿ¢ç§¯ä¸º":3883,"æģ¢å¤į":3884,"æ»¤":3885,"ç¿»è¯ĳæĪĲ":3886,"ç§ĳåŃ¦å®¶":3887,"æ¶µ":3888,"Ġ---":3889,"è¯¸":3890,"åģ¶":3891,"çĻ½èī²":3892,"</":3893,"å¤§çº¦":3894,"åı¯éĿł":3895,"çļĦè¯Ŀ":3896,"å¤§åŀĭ":3897,"2012":3898,"zh":3899,"å¯Ĩçłģ":3900,"é¢Ħéĺ²":3901,"åįļçī©é¦Ĩ":3902,"æ°¢":3903,"âĢĿãĢģ":3904,"ç¼ĸåĨĻä¸Ģä¸ª":3905,"è¯Ńåı¥":3906,"çľĭèµ·æĿ¥":3907,"äºİæĺ¯":3908,"éĿ©åĳ½":3909,"éļ¾ä»¥":3910,"æºª":3911,"te":3912,"æĪĺæĸĹ":3913,"çļĦåŁºæľ¬":3914,"ĠãĢĬ":3915,"èģĶèµĽ":3916,"é£ŁçĶ¨":3917,"åĽ½æ°ĳ":3918,"åĮ»éĻ¢":3919,"åĬłä¸Ĭ":3920,"æľĢå¤§çļĦ":3921,"æĿľ":3922,"éĩįéĩı":3923,"å¤ªç©º":3924,"ä¸Ģå¹´":3925,"word":3926,"æĭľ":3927,"2014":3928,"å£®":3929,"çļĦä¸»é¢ĺ":3930,"é¡ºåºı":3931,"ç¬¬åĽĽ":3932,"æĴĴ":3933,"çī©çĲĨåŃ¦":3934,"å¦ĤæŃ¤":3935,"çī¹å®ļ":3936,"æĮĩåĩº":3937,"æĽ´æį¢":3938,"æĪª":3939,"æµĭéĩı":3940,"èĭ¹":3941,"åħħè¶³":3942,"2013":3943,"å¤ĸè§Ĥ":3944,"åĮĻ":3945,"å¨ľ":3946,"ĠV":3947,"ç«¹":3948,"åŃ¦ä¹łåĴĮ":3949,"åĸĿ":3950,"è¿ĺéľĢè¦ģ":3951,"ç½Ĺæĸ¯":3952,"çº¦ç¿°":3953,"äººåľ¨":3954,"ç¼ĸçłģ":3955,"åĽŀçŃĶéĹ®é¢ĺ":3956,"è®¤çŁ¥":3957,"éĽĨåĽ¢":3958,"åĿ¡":3959,"è¿ħ":3960,"è´¾":3961,"èĤ¡ç¥¨":3962,"æĬ¥éģĵ":3963,"éĿ¢è¯ķ":3964,"åħ·å¤ĩ":3965,"çł´åĿı":3966,"ud":3967,"å¤±åİ»":3968,"èī¯å¥½":3969,"33":3970,"éĿ¢ä¸Ĭ":3971,"çĶ·åŃĲ":3972,"æĭĵ":3973,"èĥģ":3974,"çĪµ":3975,"èĭ¹æŀľ":3976,"èĢĮæĺ¯":3977,"åº¦çļĦ":3978,"å¦ĩ":3979,"å®ĥæĺ¯":3980,"ive":3981,"æĳĨ":3982,"è£Ĥ":3983,"åĪ©äºļ":3984,"èĪªç©º":3985,"çĮª":3986,"çļĦè¿ĩç¨ĭ":3987,"æŁ¥è¯¢":3988,"èį¯çī©":3989,"å·¨å¤§çļĦ":3990,"åľ¨å®¶":3991,"è¿«":3992,"çļĦåİĨåı²":3993,"èµĦéĩĳ":3994,"ä¸Ģå®ļçļĦ":3995,"åľ°çĤ¹":3996,"èĻļæĭŁ":3997,"åĬ¨åĬĽ":3998,"å·´é»İ":3999,"ç»ıèĲ¥":4000,"åĨľä¸ļ":4001,"ç¥ŀç»ı":4002,"å¾¡":4003,"Ġ20":4004,"åįıè®®":4005,"%ãĢĤ":4006,"å°ıçļĦ":4007,"oc":4008,"ft":4009,"èĤĮèĤī":4010,"ction":4011,"ç´¯":4012,"ç¡®è®¤":4013,"æ´¥":4014,"ä¹¦ç±į":4015,"åĴĮè°":4016,"are":4017,"èĢĮè¨Ģ":4018,"è¡£æľį":4019,"çīĪæľ¬":4020,"åį±éĻ©":4021,"ä¸İåħ¶ä»ĸ":4022,"è¯ĬæĸŃ":4023,"ç½Ĺé©¬":4024,"æ¶¯":4025,"å»·":4026,"ä»¥ä¸ĭåĩłä¸ª":4027,"æĤ¬":4028,"çļĦçŁ¥":4029,"ber":4030,"çľŁå®ŀ":4031,"åĴĮç¤¾ä¼ļ":4032,"ä½¿çĶ¨çļĦ":4033,"æ¨¡æĭŁ":4034,"\"ï¼ī":4035,"èĬĤå¥ı":4036,"çļĦéĢīæĭ©":4037,"éĿŀå¸¸éĩįè¦ģ":4038,"äºĨä¸ĢäºĽ":4039,"ä»Ļ":4040,"çļĦæĥħåĨµ":4041,"æĮĤ":4042,"æľºåľº":4043,"çļĦçĬ":4044,"æļĤ":4045,"æ¸ł":4046,"2009":4047,"è¯¦ç»ĨçļĦ":4048,"æŃ»äº¡":4049,"ä¸ĭè¾ĸ":4050,"è¢Ń":4051,"åī©":4052,"ä¼Ł":4053,"ä¼łæĴŃ":4054,"èĢģå¸Ī":4055,"çļĦæĸ°":4056,"ç¢į":4057,"å¨ģèĥģ":4058,"ust":4059,"éĩįçĤ¹":4060,"åĪ·":4061,"èİİ":4062,"çĪ±å¥½":4063,"ĠéĿŀå¸¸":4064,"å¯¹æīĭ":4065,"åįıè°ĥ":4066,"åĲ¸æĶ¶":4067,"æ¡Ĩ":4068,"æª":4069,"å°±ä¼ļ":4070,"åıĺå¾ĹæĽ´åĬł":4071,"input":4072,"è¥¿äºļ":4073,"2008":4074,"Ġtr":4075,"âĢĿãĢģâĢľ":4076,"ä»¥æĿ¥":4077,"åıĳè¡¨":4078,"ĠK":4079,"åľŁåľ°":4080,"æłĸ":4081,"è§£åĨ³éĹ®é¢ĺ":4082,"ä¼ĳæģ¯":4083,"list":4084,"è¿ĲçĶ¨":4085,"åİŁåŃĲ":4086,"æīĢæľīçļĦ":4087,"å¿Ļ":4088,"æĪĲå°±":4089,"ä¸Ńåħ±":4090,"æĻ®éĢļ":4091,"éĩĮçļĦ":4092,"åĶ¯ä¸Ģ":4093,"éľį":4094,"åŃ¤çĭ¬":4095,"çļĦå®īåħ¨":4096,"Ã©":4097,"åĳ¨æľŁ":4098,"Ġwe":4099,"æľĢå¥½":4100,"é£ŀæľº":4101,"Ġç»ĻæĪĳ":4102,"çĶµè¯Ŀ":4103,"ä»Ģä¹Īæĺ¯":4104,"Al":4105,"é»ĳèī²":4106,"å¿ĥåĴĮ":4107,"ç£ģ":4108,"æĻļä¸Ĭ":4109,"ç¼ĺ":4110,"ç£¨":4111,"å¹¶æıĲä¾Ľ":4112,"åĨĽäºĭ":4113,"åĨĻä¸Ģä»½":4114,"æ©Ļ":4115,"ä¿¡ä»°":4116,"çļĦä½¿çĶ¨":4117,"çļĦé¢ľèī²":4118,"Ġä½¿çĶ¨":4119,"çºªå¿µ":4120,"èĢ¶":4121,"çļĦè´¨éĩı":4122,"å·¡":4123,"å¸¸å¸¸":4124,"é¦ĸæ¬¡":4125,"åĴĮåıĳå±ķ":4126,"å¾Ģå¾Ģ":4127,"æĻºæħ§":4128,"Ġex":4129,"æ¢¦æĥ³":4130,"æ°ĳä¸»":4131,"è°ĥèĬĤ":4132,"ä½¿åħ¶":4133,"çļĦç²¾":4134,"75":4135,"è¸ª":4136,"çĽ¾":4137,"æķĻæİĪ":4138,"çļĦéŁ³ä¹Ĳ":4139,"åĵģç§į":4140,"ç®Ģæ´ģ":4141,"å¹¶æ²¡æľī":4142,"ä¿Ĺ":4143,"éĺĲ":4144,"æŀĦæĪĲ":4145,"æī®":4146,"å°±åı¯ä»¥":4147,"çĿ¡çľł":4148,"å¯Ĵ":4149,"åħ¬è·¯":4150,"çĬ¬":4151,"æľīæľº":4152,"è®¿éĹ®":4153,"Ġä¸į":4154,"Ġare":4155,"æĴ¤":4156,"ff":4157,"Ġ100":4158,"å°½éĩı":4159,"}-":4160,"éĶ¦":4161,"éĩĬæĶ¾":4162,"çİ»":4163,"çŁ¥åĲį":4164,"éĺ¿å°Ķ":4165,"å¾ĹåĪ°äºĨ":4166,"èĮ¨":4167,"ace":4168,"å¥ĭ":4169,"xx":4170,"éĵľ":4171,"éĵº":4172,"çŁ©":4173,"ç§¯æŀģçļĦ":4174,"æĽ´ä¸º":4175,"ime":4176,"çļĦä½įç½®":4177,"éĹª":4178,"æ³¥":4179,"è¦ģæ³¨æĦı":4180,"å»ºéĢł":4181,"è¾ĥä¸º":4182,"æīĵå¼Ģ":4183,"æµªæ¼«":4184,"æ£ĭ":4185,"çļĦéĩįè¦ģæĢ§":4186,"æĳĩ":4187,"åĪ¶åº¦":4188,"åį³ä½¿":4189,"ata":4190,"ä¼ĺæĥł":4191,"åĲ¬èµ·æĿ¥":4192,"è§ĦèĮĥ":4193,"å¹¼":4194,"Ġä½ľä¸º":4195,"è²":4196,"190":4197,"48":4198,"æİ¨åĩº":4199,"çĶµæ±ł":4200,"çĥ¹é¥ª":4201,"å¤Ħäºİ":4202,"éļ¶":4203,"ä¸¾åĬŀ":4204,"éĢĬ":4205,"æ¯ģ":4206,"ence":4207,"æįŁå¤±":4208,"æİĴåĪĹ":4209,"ç¾Ĭ":4210,"Ġcom":4211,"å±ħä½ı":4212,"ç¤ºä¾ĭ":4213,"ä¼łéĢĴ":4214,"æĢ§æł¼":4215,"é©±":4216,"ä¼į":4217,"éĶħä¸Ń":4218,"Ġwh":4219,"ight":4220,"æĺ¯ä¸Ģä½į":4221,"çĶŁç´ł":4222,"æĦŁåĴĮ":4223,"äººä»¬çļĦ":4224,"æīĭæ®µ":4225,"ä»¥ä¸ĭæĺ¯ä¸Ģä¸ª":4226,"ell":4227,"è§Ħå¾ĭ":4228,"çĽĨ":4229,"æ¯įäº²":4230,"æĬķåħ¥":4231,"ç½ļ":4232,"çĥ¤ç®±":4233,"åľ¨æŃ¤":4234,"éĩįè§Ĩ":4235,"ç§Ĵ":4236,"Ġme":4237,"Â°":4238,"åħĭæĸ¯":4239,"è¦ĨçĽĸ":4240,"åĵº":4241,"åĽłä¸ºå®ĥ":4242,"è½»è½»":4243,"çŀ":4244,"è½¬åĮĸ":4245,"ç¢Ĺ":4246,"å¥³åŃĲ":4247,"çĶ³è¯·":4248,"çĶŁæ¶¯":4249,"æķ°ä¸º":4250,"èĩªçĦ¶è¯Ńè¨Ģ":4251,"åįģäºĮ":4252,"åľ¨è¿Ļ":4253,"ĠåĴĮ":4254,"è·ĥ":4255,"é«ĺåħ´":4256,"æıĲç¤º":4257,"çĲĨè§£åĴĮ":4258,"çļĦäº§åĵģ":4259,"è§Ĩä¸º":4260,"æĶ¾ç½®":4261,"ma":4262,"ĠéĤ£":4263,"ä¸Ĭè¿°":4264,"å®¿":4265,"æ³ī":4266,"æ°§æ°Ķ":4267,"æ¥ļ":4268,"åį§":4269,"èĥ¡æ¤Ĵ":4270,"äººå·¥æĻºèĥ½æĬĢæľ¯":4271,"èµ¢å¾Ĺ":4272,"ä¸Ģä¸ªäºº":4273,"åİĺç±³":4274,"èĻİ":4275,"ä¸ĢæĿ¡":4276,"XXX":4277,"Ġ12":4278,"è´·":4279,"æ¬£èµı":4280,"Ġas":4281,"æº¶":4282,"çĥŃå¸¦":4283,"çļĨ":4284,"æĴŀ":4285,"è¯įæ±ĩ":4286,"çļĦåħ³ç³»":4287,"åĲĪçī©":4288,"è®¾ç«ĭ":4289,"Ġcan":4290,"èģĮåľº":4291,"1000":4292,"æ°ĳæĹı":4293,"çļĦçľŁ":4294,"ç¾½":4295,"èĲĿ":4296,"äºļæ´²":4297,"çļĦåİŁåĽł":4298,"æĽ´å®¹æĺĵ":4299,"Ġan":4300,"ç©Ĩ":4301,"å®¶éķ¿":4302,"çļĦç»ĵæŀľ":4303,"ä¸Ģç»Ħ":4304,"èŃ¦å¯Ł":4305,"-{":4306,"æŁĲä¸ª":4307,"èĭĹ":4308,"çļĦç¤¾ä¼ļ":4309,"åĪ©çĽĬ":4310,"å®ŀçĶ¨":4311,"æİ¥è§¦":4312,"èĬ±åĽŃ":4313,"æĪ·å¤ĸ":4314,"åĸ·":4315,"çīĽèĤī":4316,"çĮİ":4317,"å·¥èīº":4318,"ä¸»å¸Ń":4319,"æ´ĭèĳ±":4320,"æķ¢":4321,"ä¸»æķĻ":4322,"æĸĩåŃĹ":4323,"çļĦè¡Įä¸º":4324,"ne":4325,"å¿½":4326,"å¹´èĩ³":4327,"éŁ¦":4328,"äºĨè®¸å¤ļ":4329,"çļĦæĢ»":4330,"çĶµåĻ¨":4331,"åĴĮæľįåĬ¡":4332,"åľºæīĢ":4333,"æł¼åħ°":4334,"æľ¬ä¹¦":4335,"åİŁåĪĻ":4336,"æ¦Ħ":4337,"è¾Ĳ":4338,"ä¸Ģå®¶":4339,"æ°´ä¸Ń":4340,"éĹ²":4341,"æĺ¯æľĢ":4342,"ĠThe":4343,"åĴĮè°Ĳ":4344,"çĶĺ":4345,"éĤĢ":4346,"æĥ³è±¡":4347,"æ¢°":4348,"ĠY":4349,"åĸľå¥½":4350,"æ¸łéģĵ":4351,"åħ¨éĿ¢":4352,"çĶ·æĢ§":4353,"æķĻåŃ¦":4354,"æĬ±":4355,"æī£":4356,"%ï¼Į":4357,"èĥ½åĬĽåĴĮ":4358,"----------------":4359,"ï¼Įï¼īï¼Į":4360,"æ°´åĪĨ":4361,"éĽķ":4362,"æĦŁæŁĵ":4363,"ï¼ĮãĢĬ":4364,"ä¹ĭå¤Ħ":4365,"æĹ©æľŁ":4366,"æİĴåĲį":4367,"è¿Ļé¦ĸ":4368,"rom":4369,"å®¶çļĦ":4370,"åıªèĥ½":4371,"åĵºä¹³":4372,"ter":4373,"éĢĤéĩıçļĦ":4374,"åĮĸåĴĮ":4375,"text":4376,"è¿ĲèĲ¥":4377,"åľ°éľĩ":4378,"å¤±è´¥":4379,"æ®¿":4380,"èĩªè¡Įè½¦":4381,"çļĦçĽ®æłĩ":4382,"åĸĤ":4383,"ä¼ļåľ¨":4384,"éĥİ":4385,"ä¸įæĸŃåľ°":4386,"çķĻä¸ĭ":4387,"åı¬":4388,"äº§ä¸ļ":4389,"è²Į":4390,"è¿Ļæł·çļĦ":4391,"Ġor":4392,"è¿ĩäºİ":4393,"åĮºçļĦ":4394,"DNA":4395,"Ġè¿Ļä¸ª":4396,"æ¤ħ":4397,"å®ĮåĸĦ":4398,"å±ķå¼Ģ":4399,"æŁľ":4400,"çĴĥ":4401,"çº¦ä¸º":4402,"æĪĳè®¤ä¸º":4403,"çĪ±çļĦ":4404,"æĦŁæĥħ":4405,"æĺĮ":4406,"åįıä½ľ":4407,"äººåı£å¯Ĩåº¦":4408,"çŃīæĸ¹å¼ı":4409,"æŀĿ":4410,"Ġresult":4411,"éĥ¨çĶµå½±":4412,"æµ·åĨĽ":4413,"èµµ":4414,"åģ¥åº·çļĦ":4415,"å¹²åĩĢ":4416,"å¸ĿåĽ½":4417,"Ġal":4418,"ç¢ĳ":4419,"åĲĽ":4420,"çĲĨå¿µ":4421,"èİ·å¾ĹäºĨ":4422,"formula":4423,"æĺ¯å¤ļå°ĳ":4424,"æ®ĭ":4425,"}{":4426,"çĬ¯ç½ª":4427,"æħ¢æħ¢":4428,"çģµæ´»":4429,"è°ĭ":4430,"2007":4431,"è®°å¿Ĩ":4432,"è¡ĮæĶ¿åĮº":4433,"Ċĉ":4434,"éļıåĲİ":4435,"300":4436,"è´¸":4437,"éĩĳé¢Ŀ":4438,"è¿Ľè¡ĮäºĨ":4439,"æľīæķĪåľ°":4440,"çĽ¸å½ĵ":4441,"æľįè£ħ":4442,"æ©Ħ":4443,"æīİ":4444,"æĸĩåĮĸåĴĮ":4445,"çĶŁåĳ½çļĦ":4446,"é¸£":4447,"è¯ķåĽ¾":4448,"å°ºå¯¸":4449,"æĶ¹ä¸º":4450,"æĺĨ":4451,"ä¸ĭéĻį":4452,"çĩ¥":4453,"çļĦçī¹çĤ¹":4454,"Ġmy":4455,"æ©Ħæ¦Ħ":4456,"åıĳåĬ¨":4457,"æ¸ħæ´Ĺ":4458,"è¾Ľ":4459,"åı¯æĮģç»Ńåıĳå±ķ":4460,"çľģä»½":4461,"ave":4462,"å¹¿ä¸ľ":4463,"ç¼ĸè¾ĳ":4464,"èİĵ":4465,"è½¬æį¢ä¸º":4466,"å¤įæĿĤçļĦ":4467,"æ»ļ":4468,"çĮľ":4469,"é¸¡èĤī":4470,"ç¾İå¥½":4471,"èµĽäºĭ":4472,"åĪºæ¿Ģ":4473,"æĳĺ":4474,"Ġhe":4475,"ast":4476,"çģ¾å®³":4477,"è¿Ļå°Ĩ":4478,"çļĦè¿ĩç¨ĭä¸Ń":4479,"è§Ĩé¢ĳ":4480,"åĨĴéĻ©":4481,"æĸľ":4482,"åľ°çĲĥçļĦ":4483,"éĻ¶":4484,"è¾ŀ":4485,"åī²":4486,"éĢīæĭ©éĢĤåĲĪ":4487,"ç»´çĶŁç´ł":4488,"è°ģ":4489,"éĥ¨éĺŁ":4490,"çļĦçŁ¥è¯Ĩ":4491,"æĺĤ":4492,"åľºåĲĪ":4493,"è¿ħéĢŁ":4494,"ä¸Ģå¤©":4495,"èģĬå¤©":4496,"AP":4497,"æıĲä¾Ľä¸ĢäºĽ":4498,"ä¾ĽåºĶ":4499,"éģµå®Ī":4500,"åŁİå¸ĤçļĦ":4501,"ĠÃĹ":4502,"æµħ":4503,"æ³ķè§Ħ":4504,"Ġk":4505,"å¡ĳæĸĻ":4506,"åİ¨æĪ¿":4507,"çİ°åľº":4508,"éĥĳ":4509,"é¦¨":4510,"æ¨ª":4511,"åŃ¦å®¶":4512,"æ¯ıæ¬¡":4513,"æ·ĭ":4514,"ä½ĵç³»":4515,"è¿Ĳè¾ĵ":4516,"ound":4517,"åį«æĺŁ":4518,"æĸ°åŀĭ":4519,"éĿ¢ç²ī":4520,"äºĶä¸ª":4521,"çºł":4522,"frac":4523,"åĨĽéĺŁ":4524,"åħįçĸ«":4525,"è¾ĥé«ĺ":4526,"èĪį":4527,"åıįæĺł":4528,"å¥ī":4529,"çŃīé¢ĨåŁŁ":4530,"æķ°æį®åĪĨæŀĲ":4531,"å¤©ä½ĵ":4532,"èĤ´":4533,"è¿Ļæĺ¯ä¸Ģ":4534,"åħĶ":4535,"äºĭä¸ļ":4536,"name":4537,"èıľåįķ":4538,"æĮĩç¤º":4539,"çĿĽ":4540,"èĩ³åħ³":4541,"èĦ¸":4542,"ä¸įåĨį":4543,"çİ¯å¢ĥçļĦ":4544,"ä¸ĬéĿ¢çļĦéĹ®é¢ĺ":4545,"ä¿¡åı·":4546,"å£³":4547,"åĽŀçŃĶä¸ĬéĿ¢çļĦéĹ®é¢ĺ":4548,"å¤§å¤ļæķ°":4549,"åĬłçĥŃ":4550,"ä¸»è§Ĵ":4551,"ä¸ĸçķĮä¸ĬæľĢ":4552,"çĽĹ":4553,"æĻ¶":4554,"æĪĸåħ¶ä»ĸ":4555,"èĤª":4556,"èĦĤèĤª":4557,"äºīè®®":4558,"æŁł":4559,"2006":4560,"ä¸įå°ĳ":4561,"çĪ½":4562,"åįľ":4563,"ph":4564,"æĹģ":4565,"æĿĲè´¨":4566,"åĮºä¸º":4567,"è¡¨çİ°åĩº":4568,"çļĦç½ĳ":4569,"æ£Ģæµĭ":4570,"og":4571,"Ġé¦ĸåħĪ":4572,"æĭįæĳĦ":4573,"åľ°åĮºçļĦ":4574,"ä¸Ģéģĵ":4575,"cl":4576,"åħģ":4577,"è¾£æ¤Ĵ":4578,"èĥľåĪ©":4579,"åĲĪå¹¶":4580,"ä½Ĩåľ¨":4581,"åĪĽå»ºä¸Ģä¸ª":4582,"èĨľ":4583,"çĹħæ¯Ĵ":4584,"åľ°éĿ¢":4585,"æŁ¥çľĭ":4586,"è®©ä½ł":4587,"æ½ľåľ¨":4588,"åħ³éĶ®è¯į":4589,"çĺ":4590,"æĤī":4591,"ä¸ĭéĿ¢æĺ¯":4592,"çŃīå¾ħ":4593,"èĩ£":4594,"äººéĻħåħ³ç³»":4595,"å®ĥåı¯ä»¥":4596,"åĽĽä¸ª":4597,"æµĻ":4598,"55":4599,"çİ»çĴĥ":4600,"æ¦ľ":4601,"æ²³æµģ":4602,"æĦ¿æĦı":4603,"Ġä½ł":4604,"ä½ĵéĩį":4605,"Ġ----":4606,"Ġen":4607,"è¢«åĳĬ":4608,"æħĪ":4609,"åħħæ»¡äºĨ":4610,"è¿Ļæ¬¡":4611,"du":4612,"æ¼ı":4613,"ç¨į":4614,"çļĦæĥħåĨµä¸ĭ":4615,"èģª":4616,"ç¨¿":4617,"å¤§èĩªçĦ¶":4618,"é«ĺçº§":4619,"åħ¨éĥ¨":4620,"é«ĺéĢŁ":4621,"ç»ıçĲĨ":4622,"åıįå¯¹":4623,"çľŁçļĦ":4624,"èĦı":4625,"ä¸»æĮģ":4626,"ç¿¼":4627,"æī®æ¼Ķ":4628,"ä¼łç»ŁçļĦ":4629,"åĲ¹":4630,"æĺĵäºİ":4631,"ä»¥ä¸ĭæĺ¯ä¸Ģ":4632,"æľīè®¸å¤ļ":4633,"æª¬":4634,"Ġyour":4635,"çĹĩçĬ¶":4636,"çĳŁ":4637,"è±¡å¾ģ":4638,"ä¸ŃåŃ¦":4639,"å¾Ĺåĩº":4640,"éĢıæĺİ":4641,"Java":4642,"SE":4643,"æ¯ıå¹´":4644,"æŁłæª¬":4645,"æĭĨ":4646,"æķ°æį®éĽĨ":4647,"æī¹è¯Ħ":4648,"åŁºéĩĳ":4649,"èµĭ":4650,"æĳĦåħ¥":4651,"æ¼Ķåĩº":4652,"æµ´":4653,"ath":4654,"åĬĽåŃ¦":4655,"ä¼Ĳ":4656,"åħĦ":4657,"çļĦåīį":4658,"ä¸»ä»»":4659,"Ġpl":4660,"æıŃ":4661,"æ®µèĲ½":4662,"è¿Ļç¯ĩæĸĩç«ł":4663,"åĴĮå¹³":4664,"çĶ¨éĢĶ":4665,"æ¬²":4666,"åľ°ä½į":4667,"é¸Ń":4668,"å¤ļæ¬¡":4669,"ç¬¬äºĮä¸ª":4670,"çĪ¬":4671,"åĴĮæĶ¯æĮģ":4672,"ä¼¦æķ¦":4673,"å½¢æĢģ":4674,"ä¸¥æł¼":4675,"åĮºåĿĹ":4676,"br":4677,"åĽºå®ļ":4678,"åıĳæĺİ":4679,"äº§çĶŁäºĨ":4680,"å¥³åŃ©":4681,"æ³¨æĦıäºĭé¡¹":4682,"ĠéĤ£ä¹Ī":4683,"æķ´çĲĨ":4684,"ç¾İåĳ³çļĦ":4685,"èĤĮèĤ¤":4686,"åĪ°çļĦ":4687,"ello":4688,"èĥ½åĲ¦":4689,"çİ°éĩĳ":4690,"éľľ":4691,"Ġse":4692,"æĹ¶çļĦ":4693,"åĨ³èµĽ":4694,"ä¸ĩåħĥ":4695,"ä¸»äºº":4696,"éĤ£éĩĮ":4697,"çŃīéĹ®é¢ĺ":4698,"èĥ¸":4699,"ä¼¤å®³":4700,"å¤ĩçĶ¨":4701,"çļĦç¼ĸ":4702,"æĸĩçī©":4703,"ry":4704,"ĊĠĠĠĠĠĠĠĠĠĠĠĠĠĠĠ":4705,"æĢª":4706,"åĽŀåĪ°":4707,"åĪ¸":4708,"32":4709,"æĶ¶çĽĬ":4710,"æľĢåĪĿ":4711,"èģĮä½į":4712,"34":4713,"éĢĤçĶ¨äºİ":4714,"38":4715,"æŁ±":4716,"åĮĸåĲĪçī©":4717,"å¼¦":4718,"çļĦå¥½":4719,"æİ¢éĻ©":4720,"æī©å¤§":4721,"ä¸Ńåįİæ°ĳåĽ½":4722,"ake":4723,"æ¯ıä¸Ģä¸ª":4724,"å®ļå¾ĭ":4725,"åı¯ä»¥å°Ĩ":4726,"æł·çļĦ":4727,"èĥ¶":4728,"åħĪçĶŁ":4729,"å§¿åĬ¿":4730,"å¸ĥå±Ģ":4731,"å±ıå¹ķ":4732,"æŀļ":4733,"ä¸Ģåľº":4734,"åħ¬ä¼Ĺ":4735,"åĨ³äºİ":4736,"è¡Ĺéģĵ":4737,"æĢ§åĪ«":4738,"äººä½ĵ":4739,"æ¡ĥ":4740,"éĶģ":4741,"ä¹ŁéľĢè¦ģ":4742,"Ġim":4743,"ance":4744,"('":4745,"æµĩ":4746,"çļĦçĬ¶":4747,"éģµå¾ª":4748,"ĽçĽ¾":4749,"ĠCh":4750,"çĤ®":4751,"è¡Įé©¶":4752,"çº²":4753,"æıĲä¾ĽçļĦ":4754,"å¹´æĿ¥":4755,"ä¸¤äºº":4756,"åģ¥åº·åĴĮ":4757,"çĪ¶äº²":4758,"orld":4759,"åıĸåĨ³äºİ":4760,"ä»ĸä»¬åľ¨":4761,"æĮĩæĮ¥":4762,"ä½ĵçİ°":4763,"æĻ®éģį":4764,"æĵ¦":4765,"å¹²çĩ¥":4766,"çªģçĦ¶":4767,"æ¬¡æķ°":4768,"ä¼ĺç§ĢçļĦ":4769,"å°ıåŀĭ":4770,"les":4771,"é½¿":4772,"æĤ²":4773,"æłĸæģ¯":4774,"çļĦåŁİå¸Ĥ":4775,"èĬĴ":4776,"ä¸įçŁ¥éģĵ":4777,"2005":4778,"èĳ£":4779,"ä¹¦è®°":4780,"èĤº":4781,"å¿ĥæĢģ":4782,"Ġun":4783,"çĶ¨åĵģ":4784,"äºĭçī©":4785,"å«Į":4786,"åı°åĮĹ":4787,"ĠæĤ¨":4788,"å¤©çĦ¶":4789,"æĺ¯ä½įäºİ":4790,"ä¸ºæĪĳ":4791,"65":4792,"åģļå¥½":4793,"æľīä¸ĢäºĽ":4794,"æ¸©é¦¨":4795,"éŃĶæ³ķ":4796,"åĮĸå¦Ĩ":4797,"æĶ¾å¼ĥ":4798,"æ¸¸å®¢":4799,"åĲ¦åĪĻ":4800,"67":4801,"æľ¬èº«":4802,"Ġ30":4803,"å¹¿å·ŀ":4804,"èĢĢ":4805,"Ġrange":4806,"å§ĭç»Ī":4807,"çļĦäºĭæĥħ":4808,"åħ¶ä¸ŃçļĦ":4809,"è®¤çľŁ":4810,"ç»Ļä½ł":4811,"Ġus":4812,"ä¸Ģå¼ł":4813,"æīĵåį°":4814,"å®ĺæĸ¹":4815,"æ°´çļĦ":4816,"row":4817,"ary":4818,"åħ¬å¼Ģ":4819,"äºĭæķħ":4820,"éħįåĲĪ":4821,"åĪĬ":4822,"åľ¨ä¸ŃåĽ½":4823,"æĮ¯":4824,"åºĶçĶ¨äºİ":4825,"çļĦåıĺåĮĸ":4826,"åĪĿåŃ¦èĢħ":4827,"ä½ľå®¶":4828,"æİĺ":4829,"è¾ĵåĩºç»ĵæŀľ":4830,"éĻµ":4831,"æ¦Ĥçİĩ":4832,"åĲ«ä¹ī":4833,"æĸ¯åĿ¦":4834,"con":4835,"åºıåĪĹ":4836,"èµ¤":4837,"èº«å¿ĥ":4838,"åĩĿ":4839,"Ġelse":4840,"éļľç¢į":4841,"å¹´åº¦":4842,"çĽ¸æ¯Ķ":4843,"çİ¯å¢ĥä¿ĿæĬ¤":4844,"å¾ĭå¸Ī":4845,"æĭĴ":4846,"éĻª":4847,"åıĳåĩº":4848,"å¾Ĳ":4849,"ï¼į":4850,"éĺĶ":4851,"88":4852,"æ°¸è¿ľ":4853,"éĢĿ":4854,"2023":4855,"çŃīåĽłç´ł":4856,"ä¹Łåľ¨":4857,"å¤§éĥ¨åĪĨ":4858,"æµªè´¹":4859,"çİ©åħ·":4860,"åŃĲåĴĮ":4861,"çļĦçĹ":4862,"å´ĩ":4863,"ĠU":4864,"ase":4865,"çħİ":4866,"å±±èĦī":4867,"åī§æĥħ":4868,"çĶŁæĹ¥":4869,"æľĢéĩįè¦ģçļĦ":4870,"Ġä»İ":4871,"è¾¾æĪĲ":4872,"å¢ĵ":4873,"éľĢæ±ĤåĴĮ":4874,"ç¿»çĤĴ":4875,"up":4876,"ies":4877,"ator":4878,"æĸĩæĺİ":4879,"è±ĨèħĲ":4880,"åįıä¼ļ":4881,"çļĦçĶµå½±":4882,"Ġself":4883,"çĩķ":4884,"ong":4885,"è¿Ļæ¬¾":4886,"37":4887,"ä¹Łå¾Ī":4888,"æ¶ĪèĢĹ":4889,"æ¯ĶèµĽä¸Ń":4890,"åŃ©åŃĲä»¬":4891,"ä¼Ļ":4892,"çļĦä¸Ģä¸ªå¸Ĥéķĩ":4893,"my":4894,"åı¤åħ¸":4895,"æľĢå¥½çļĦ":4896,"åįıåĬ©":4897,"çº¤":4898,"æµ·æ»©":4899,"èĬ³":4900,"æĿ¥çľĭ":4901,"éĥ½åı¯ä»¥":4902,"åħ¬åħ±äº¤éĢļ":4903,"å¼ºå¤§çļĦ":4904,"æľªçŁ¥":4905,"åĿĳ":4906,"ĠTh":4907,"ä¸īå¹´":4908,"çĽĪ":4909,"ä¿Ŀåģ¥":4910,"ib":4911,"ach":4912,"å»ī":4913,"çī¹å®ļçļĦ":4914,"é¸Łç±»":4915,"æŁı":4916,"æıĲéĨĴ":4917,"èĩªçĦ¶è¯Ńè¨Ģå¤ĦçĲĨ":4918,"èħĬ":4919,"éŃħ":4920,"å¼ķåıĳ":4921,"è®®åĳĺ":4922,"æĹ¶åĢĻ":4923,"åıĻ":4924,"çļĦæĦŁè§ī":4925,"åĲĮæĦı":4926,"ĠSt":4927,"èĢĮåľ¨":4928,"çļĦèĥ½åĬĽ":4929,"åĬłæĭ¿":4930,"å®ª":4931,"ick":4932,"éĨĭ":4933,"åĴĮå»ºè®®":4934,"èıĩ":4935,"æĬĢæľ¯åĴĮ":4936,"ä¸ľåĮĹ":4937,"æİ¥è¿ĳ":4938,"æ¡ĳ":4939,"ä¸ĭåįĪ":4940,"æĦīå¿«":4941,"çĭ®":4942,"åľ°éĵģ":4943,"æĭĽèģĺ":4944,"ä¿®å¤į":4945,"æĿ¥å®ŀçİ°":4946,"æĹ¦":4947,"åĲĮäºĭ":4948,"æ³Ĭ":4949,"ode":4950,"çłĸ":4951,"èĥİ":4952,"çĸ²":4953,"è½´":4954,"ä¼ĺè´¨":4955,"ç¬¦åı·":4956,"çļĦé£İéĻ©":4957,"2001":4958,"Ġ15":4959,"æĹ¨åľ¨":4960,"å¥ĸåĬ±":4961,"èıľèĤ´":4962,"ä¼ļå¯¼èĩ´":4963,"å¼ķå¯¼":4964,"èĬĤçĤ¹":4965,"å½ĵåľ°çļĦ":4966,"çļĦçĿ":4967,"åħ±äº§":4968,"ç´§å¼ł":4969,"æķ°åĪĹ":4970,"so":4971,"å®ŀéĻħä¸Ĭ":4972,"è®®ä¼ļ":4973,"æĺ¯ä¸ĢåĲį":4974,"èĩªæ²»":4975,"ä¿Ħç½Ĺæĸ¯":4976,"æ»¨":4977,"çĶ¨æĪ·çļĦ":4978,"æĦīæĤ¦":4979,"ä¸ĵæ³¨":4980,"éħª":4981,"æīĵéĢł":4982,"æĹłéĻĲ":4983,"è¿Ī":4984,"ç¼ĸçłģä¸º":4985,"æ¤įçī©çļĦ":4986,"å¼Ĥå¸¸":4987,"æŃĮè¯į":4988,"è°Ĭ":4989,"æĮĩæłĩ":4990,"è®¾å®ļ":4991,"æ¼Ĥ":4992,"æĺŁçĲĥ":4993,"æµ¸":4994,"æĲħæĭĮåĿĩåĮĢ":4995,"åģļæ³ķ":4996,"äººæķ°":4997,"act":4998,"è¿Ľè¡ĮåĪĨç±»":4999,"Â¥":5000,"èĻ¾":5001,"å°Ķæĸ¯":5002,"æĢ»ä½ĵ":5003,"åľ¨åĮ»çĸĹ":5004,"çļĦä»·æł¼":5005,"èµ·æºĲ":5006,"IN":5007,"è¢«è®¤ä¸ºæĺ¯":5008,"é£İæĻ¯":5009,"å°ĸ":5010,"å°ĺ":5011,"åĵºä¹³åĬ¨çī©":5012,"è¿Ļä¸¤ä¸ª":5013,"æł¼å¼ı":5014,"åı¯ä»¥æıĲé«ĺ":5015,"ä¿ĿçķĻ":5016,"æĵİ":5017,"æµĻæ±Ł":5018,"ä¾Ŀèµĸ":5019,"æĺİçĻ½":5020,"å¾Īå¤§çļĦ":5021,"åĮºåĿĹéĵ¾":5022,"ä¹ĭéĹ´çļĦåħ³ç³»":5023,"64":5024,"è´¢äº§":5025,"æŃĮæīĭ":5026,"éķ¿æĹ¶éĹ´":5027,"ç¾İæ´²":5028,"æĪĲæŀľ":5029,"å¹´éĹ´":5030,"å°ĨåĨĽ":5031,"éªĮè¯ģ":5032,"ä¸Ģç³»åĪĹ":5033,"åħģè®¸":5034,"åĽĽå·Ŀ":5035,"çĽĳæµĭ":5036,"ç¬¬ä¸Ģæ¬¡":5037,"\":":5038,"æ¶īåıĬåĪ°":5039,"æķ°æį®çļĦ":5040,"çī¹æĢ§":5041,"è®¾è®¡ä¸Ģä¸ª":5042,"äºĮæ°§åĮĸ":5043,"é¢ĳçİĩ":5044,"æīĢéľĢçļĦ":5045,"æĴĳ":5046,"çļĦäººåı£":5047,"çļĦç¥ŀ":5048,"æĺ¯æĪĳä»¬":5049,"æĺ¯åĲ¦æľī":5050,"å¯¼æ¼Ķ":5051,"åĭ¤":5052,"å¼¯":5053,"èģĶéĤ¦":5054,"èĩĤ":5055,"åķĨåĬ¡":5056,"ra":5057,"éĢīæĭ©åĲĪéĢĤçļĦ":5058,"åį°è±¡":5059,"å¼ķæĵİ":5060,"æ²Ļåıĳ":5061,"è·ĳæŃ¥":5062,"å®ļä½į":5063,"é£İæļ´":5064,"log":5065,"æĶ¯æĮģåĴĮ":5066,"|--------":5067,"åĵªéĩĮ":5068,"ect":5069,"æĿĥåĪ©":5070,"åĪ¶æĪĲ":5071,"åľ¨è¿ĻéĩĮ":5072,"å¤ĸçļĦ":5073,"éĤĢè¯·":5074,"æ¯Ķäºļ":5075,"æĲº":5076,"èĤł":5077,"ä¸ªæľĪ":5078,"å¼ºåº¦":5079,"å¿ĥæĥħ":5080,"com":5081,"éĿĴå¹´":5082,"åĩ¡":5083,"å±±ä¸ľ":5084,"å®ħ":5085,"Ġsh":5086,"å¤ªå¹³":5087,"åıł":5088,"ä¾¿åĪ©":5089,"ï¼ŁâĢĿ":5090,"å¥ĳ":5091,"äºĭåĬ¡":5092,"è´¸æĺĵ":5093,"å¦¹":5094,"åħĭæľį":5095,"åĭĩæ°Ķ":5096,"æĩĤ":5097,"å°Ĭæķ¬":5098,"ä¸Ģèĩ´":5099,"æĶ¿æ²»äººçī©":5100,"æľīåĵªäºĽ":5101,"ear":5102,"çļĦç©ºéĹ´":5103,"åģľæŃ¢":5104,"å¿ĥçģµ":5105,"ç§ĳå¹»":5106,"æĢķ":5107,"æĪĸæĺ¯":5108,"æĪĲåĬŁçļĦ":5109,"åıĹæ¬¢è¿İçļĦ":5110,"åīĳ":5111,"åĴĮæ°´":5112,"åįĵ":5113,"å¼Ģå±ķ":5114,"åĨ¥":5115,"å¸¦æľī":5116,"åĬłéĢŁ":5117,"ich":5118,"åĵģå°Ŀ":5119,"èŀº":5120,"å¯ĵ":5121,"å²Ĺ":5122,"åı¯èĥ½çļĦ":5123,"ä½¿çĶ¨äºĨ":5124,"åĬĽäºİ":5125,"é¢ĦæĬ¥":5126,"ç³Ĭ":5127,"ark":5128,"æĦŁåħ´è¶£":5129,"est":5130,"çĶµè§Ĩåī§":5131,"éĢļå¸¸æĺ¯":5132,"å¯¿åĳ½":5133,"ens":5134,"è¯įè¯Ń":5135,"æŁ¥æī¾":5136,"åłµ":5137,"èĬĤæĹ¥":5138,"çļĦæķ°éĩı":5139,"åįĹæŀģ":5140,"Bob":5141,"Ġad":5142,"èĸª":5143,"åħ±äº«":5144,"å¿ĥçĲĨåŃ¦":5145,"èĲ¥éĢł":5146,"çĤī":5147,"ï¼ļ\")":5148,"çºªå½ķ":5149,"åıĸåĩº":5150,"æĪĳå¾Ī":5151,"Ġ--------":5152,"æ¸¡":5153,"åĳ½åĲį":5154,"åĪĨæĪĲ":5155,"æŃ£éĿ¢":5156,"æķĪçİĩåĴĮ":5157,"ily":5158,"è¯·åĳĬè¯īæĪĳ":5159,"2004":5160,"æĹ¶åĪ»":5161,"Ġâ":5162,"åľºåľ°":5163,"æī¿æĭħ":5164,"æİ¥å£¤":5165,"æĪĪ":5166,"èīĩ":5167,"çľŁæŃ£çļĦ":5168,"39":5169,"Ġ//":5170,"çĶµåĬ¨":5171,"èģªæĺİ":5172,"äº¤äºĴ":5173,"çĶŁæ´»æĸ¹å¼ı":5174,"åı¯ä»¥å¸®åĬ©ä½ł":5175,"æĽ´æľī":5176,"éĿŀæ´²":5177,"é£Łè°±":5178,"å½±çīĩ":5179,"ä¼¼ä¹İ":5180,"æĹĭè½¬":5181,"å¤ªéĺ³èĥ½":5182,"Ġåı¯ä»¥":5183,"æĹ¥åľ¨":5184,"å¾ĹåĪĨ":5185,"è£ħå¤ĩ":5186,"èīºæľ¯å®¶":5187,"è¿ŀç»Ń":5188,"åĦ¿åŃĲ":5189,"ç¾¤ä½ĵ":5190,"æĬĳ":5191,"æľĢä½İ":5192,"å¹¶ä¸įæĺ¯":5193,"è´·æ¬¾":5194,"éĢīæīĭ":5195,"æīĢå±ŀ":5196,"å®¶åºŃæĪĲåĳĺ":5197,"ç³»ç»ŁçļĦ":5198,"çº¿è·¯":5199,"æľĪçĲĥ":5200,"ç»´ä¿®":5201,"æŃ¦åĻ¨":5202,"ä¸Ĭåįĩ":5203,"éľĢè¦ģåľ¨":5204,"ip":5205,"å¯¹æ¯Ķ":5206,"çļĦå¤©æ°Ķ":5207,"æī©å±ķ":5208,"è®¢åįķ":5209,"åĩłä¹İ":5210,"é£ĺ":5211,"çĶ¨æĪ·è¾ĵåħ¥":5212,"å¯¹æĸ¹çļĦ":5213,"å°¿":5214,"ä¸Ĭä¸ĭ":5215,"çªģåĩº":5216,"çļĦçĿ¡":5217,"æŃ¤æĹ¶":5218,"æ¢¯":5219,"çŃ¹":5220,"æĻ´":5221,"çĲĨè´¢":5222,"åŃ¦æľ¯":5223,"Ġæĺ¯çļĦ":5224,"åĬłæĭ¿å¤§":5225,"èĮĥåĽ´åĨħ":5226,"âĢĵ":5227,"âĢĿï¼Ī":5228,"å¹³æĸ¹ç±³":5229,"åĩºè¡Į":5230,"åİ»ä¸ĸ":5231,"éĢıè¿ĩ":5232,"åıªè¦ģ":5233,"æĺİäº®":5234,"å¥¥è¿Ĳ":5235,"æĬ¹":5236,"èĿ¶":5237,"éĺĲè¿°":5238,"æ©Ħæ¦Ħæ²¹":5239,"andom":5240,"æ¿ĢåĬ±":5241,"å¢ĥåĨħ":5242,"çļĦçĭ¬":5243,"åĿĽ":5244,"ä¹īè¯į":5245,"è¯Ŀé¢ĺ":5246,"ç¤¾ä¼ļçļĦ":5247,"åĪĨå¸ĥäºİ":5248,"åĽ¾ä¹¦":5249,"ä¼łè¾¾":5250,"ide":5251,"èĩªä¸»":5252,"çº¿çļĦ":5253,"è§£æĶ¾":5254,"ä¸ĵå®¶":5255,"åĲ¬è¯´":5256,"æ°´åĴĮ":5257,"400":5258,"èĢĥè¯ķ":5259,"é»Ľ":5260,"éĥ¨éķ¿":5261,"è¯Ńè¨Ģæ¨¡åŀĭ":5262,"èħ¹":5263,"å¼ºçļĦ":5264,"ĠåĬłåħ¥":5265,"æĸĳ":5266,"åĲĪæ³ķ":5267,"ä¸īç§į":5268,"ana":5269,"åı¯èĥ½å¯¼èĩ´":5270,"å¹¿åľº":5271,"ç´§æĢ¥":5272,"äººåĴĮ":5273,"æĪĺçķ¥":5274,"æ¼ĶåĶ±":5275,"æľŁæľĽ":5276,"åħ½":5277,"æĦıå¤§åĪ©éĿ¢":5278,"åĵģçīĮçļĦ":5279,"Ġ50":5280,"åĴĮä¸į":5281,"Ġby":5282,"èŀįåĲĪ":5283,"åģ¿":5284,"éģįåİĨ":5285,"äº§çĶŁçļĦ":5286,"å°ĳå¹´":5287,"æııç»ĺ":5288,"åĴĮæĮĳæĪĺ":5289,"Ġä»¥ä¸ĭæĺ¯":5290,"ook":5291,"åºĶè¯¥æĺ¯":5292,"æĻĴ":5293,"è´«":5294,"çĶŁæĪĲä¸Ģä»½":5295,"åĴª":5296,"è¢ĸ":5297,"è¿ĽæĶ»":5298,"æĿ¥çļĦ":5299,"åİŁå§ĭ":5300,"åĮºåĪ«":5301,"æĬĢèĥ½åĴĮ":5302,"Ġè°¢è°¢":5303,"ä¸įä»ħä»ħ":5304,"èĬĿå£«":5305,"æĤł":5306,"æ¼ł":5307,"able":5308,"åĪł":5309,"è¿ĻæĦıåĳ³çĿĢ":5310,"æľīéĻĲåħ¬åı¸":5311,"æĽ´å¥½åľ°çĲĨè§£":5312,"ä¸Ģé¡¹":5313,"æ¶Īæģ¯":5314,"åĪĽä¸ļ":5315,"å¿ĹæĦ¿":5316,"æĺ¯åĽłä¸º":5317,"åĽ½åĨħ":5318,"å·²çŁ¥":5319,"ood":5320,"åŀĤ":5321,"éľĢè¦ģæ³¨æĦıçļĦæĺ¯":5322,"åĩ¤":5323,"ä¸ľåįĹ":5324,"ç¿ħ":5325,"åįĹäº¬":5326,"è®©äººä»¬":5327,"èĦĨ":5328,"èĭ±éĽĦ":5329,"éŃı":5330,"çĽ¸åıį":5331,"ä¸ºä½ł":5332,"ç¬¬äºĶ":5333,"44":5334,"æĮĩå®ļ":5335,"ç¯®çĲĥ":5336,"æĬļ":5337,"ä¹Łå°±æĺ¯":5338,"ç¼ĸåĨĻä¸Ģä»½":5339,"ep":5340,"ç®¡è¾ĸ":5341,"éħįæĸĻ":5342,"æµĵéĥģ":5343,"æ»´":5344,"è¿ĲåĬ¨ä¼ļ":5345,"ãĢĢ":5346,"çĵ£":5347,"å¤§åĮº":5348,"èº«ä½ĵçļĦ":5349,"ç»ĦæĪĲçļĦ":5350,"åľ°ä¸ĭ":5351,"åŁºæľ¬çļĦ":5352,"éľĢè¦ģè¿Ľè¡Į":5353,"å°ıç»Ħ":5354,"$$":5355,"ä»ªå¼ı":5356,"åĴĮæĥħæĦŁ":5357,"ç®Ń":5358,"æľŁå¾ħ":5359,"åı¯ä»¥è¢«":5360,"è£¤":5361,"çļĦåĢ¼":5362,"ä¸Ńæľī":5363,"åħ¬æŃ£":5364,"åĲĪçĲĨçļĦ":5365,"çļĦçĬ¶æĢģ":5366,"å¤§ä¼ļ":5367,"åŀ«":5368,"é¢ĨåŁŁçļĦ":5369,"å¹³åĿĩåĢ¼":5370,"çļĦçĪ±æĥħ":5371,"ng":5372,"ç§¦":5373,"ç»ĦæĪĲéĥ¨åĪĨ":5374,"æľºæ¢°":5375,"æĭīæĸ¯":5376,"ä¸ľéĥ¨":5377,"çº¤ç»´":5378,"ĠĠĠĠĠĠĠĠĠĠĠ":5379,"äºĮæ°§åĮĸç¢³":5380,"èĽĩ":5381,"æľ¬è´¨":5382,"ä»¥åħį":5383,"åĽ¢éĺŁæĪĲåĳĺ":5384,"ä¸ĢåĪĩ":5385,"å¹¶äºİ":5386,"çļĦçĿ¡çľł":5387,"è¾ĥä½İ":5388,"ä¿Ŀåħ»":5389,"çļĦç¨ĭ":5390,"Ġ>":5391,"è¿Ļåı¥è¯Ŀ":5392,"æĿ¥åĪ°":5393,"æ²Ļæĭī":5394,"åĢ¾åĲ¬":5395,"åħ³éĹŃ":5396,"è°ĵ":5397,"æĻºèĥ½å®¶å±ħ":5398,"èº«ä½ĵåģ¥åº·":5399,"å·´å£«":5400,"ä½ĵç§¯":5401,"åı¹":5402,"èĲĿåįľ":5403,"å¿§":5404,"çĽĴ":5405,")ï¼Į":5406,"ç¡®å®ŀ":5407,"åıĭè°Ĭ":5408,"æ¼Ķå¥ı":5409,"çĬ¹":5410,"çĭĹçĭĹ":5411,"yst":5412,"çĽĲåĴĮ":5413,"çİĽä¸½":5414,"ä¸ºäºº":5415,"çļĦå¤§å°ı":5416,"æł¹æį®èĩªå·±çļĦ":5417,"èĺ":5418,"æĽ´å¥½åľ°äºĨè§£":5419,"çĶ»éĿ¢":5420,"gr":5421,"æľĢæĸ°":5422,"åıĸä»£":5423,"åŁİåĮº":5424,"ä»Ķç»Ĩ":5425,"åľ°ä¸Ĭ":5426,"æĻ®æŁ¥":5427,"æµģåĬ¨":5428,"ç¥ŀç§ĺçļĦ":5429,"loat":5430,"é¼»":5431,"çĽ®çļĦåľ°":5432,"éŁ©åĽ½":5433,"ä½ĽæķĻ":5434,"åĽŀå¿Ĩ":5435,"æķĻåłĤ":5436,"çļĦçŁŃ":5437,"LE":5438,"æ°Ķæģ¯":5439,"èµĽåŃ£":5440,"çļĦä¸ĢäºĽ":5441,"èŃ¦æĸ¹":5442,"æıĲä¾Ľä¸Ģä¸ª":5443,"é«ĺè´¨éĩı":5444,"Ġne":5445,"get":5446,"è¯¢éĹ®":5447,"å½»":5448,"èĥ½å¤Łåľ¨":5449,"],":5450,"æŀĦå»º":5451,"ç¬¬åįģ":5452,"å¹¶ä¸º":5453,"ç©¿çĿĢ":5454,"åı¯ä»¥çĶ¨":5455,"Ġstr":5456,"æĢ»äººåı£":5457,"cri":5458,"å¹¿æĴŃ":5459,"çļĦé¦ĸ":5460,"æŁĶè½¯":5461,"é¢ģ":5462,"å§ĵåĲį":5463,"ï¼ļãĢĮ":5464,"è¯¥åĽ½":5465,"Ġä¸Ń":5466,"å¾½":5467,"åı«åģļ":5468,"å±ŀæĢ§":5469,"å¹¶å°Ĩåħ¶":5470,"åİ¦":5471,"åįĩçº§":5472,"ãĢĤ\"":5473,"Ġè®¡ç®Ĺ":5474,"é¬":5475,"è°¨":5476,"åĽ½çİĭ":5477,"çģ«å±±":5478,"èĩªåĬ¨åĮĸ":5479,"åı¤èĢģ":5480,"æħİ":5481,"è¥¿éĥ¨":5482,"Ġ25":5483,"ä¸§":5484,"66":5485,"ial":5486,"ĠĠĠĠĠĠĠĠĠĠĠĠĠĠĠĠĠĠĠĠĠĠĠĠĠĠĠĠĠĠĠĠ":5487,"åĽ¢ä½ĵ":5488,"å½ĵä¸Ń":5489,"åıī":5490,"çķĮéĿ¢":5491,"åĳĪçİ°åĩº":5492,"åĩ»è´¥":5493,"èĪĴéĢĤçļĦ":5494,"è®²è§£":5495,"import":5496,"150":5497,"çĪĨåıĳ":5498,"æ·Ģ":5499,"æłĩé¢ĺ":5500,"æĸĩæľ¬åĨħå®¹":5501,"åĽ¾æ¡Ī":5502,"ä»ĸäººçļĦ":5503,"åĽŀæĶ¶":5504,"ll":5505,"åĬŀåħ¬å®¤":5506,"æĬĵ":5507,"èµł":5508,"å¥¶æ²¹":5509,"è¾©":5510,"æĭĴç»Ŀ":5511,"æĴŃæĶ¾":5512,"å°ıçº¢":5513,"çģ«æĺŁ":5514,"right":5515,"å¯Įæľī":5516,"åĨ¬åŃ£":5517,"ä¼ı":5518,"low":5519,"cm":5520,"æĻ¨":5521,"å¤ĸéĥ¨":5522,"éĴ®":5523,"å®īåħ¨æĢ§":5524,"èĬ±è´¹":5525,"çŃīåľ°":5526,"ç®Ģçº¦":5527,"çŃĽ":5528,"æ¯ıä¸ªäººéĥ½":5529,"å¸Ĥæ°ĳ":5530,"å¹¶ç»Ļåĩº":5531,"å»ºçŃĳçī©":5532,"âĢĭâĢĭâĢĭâĢĭ":5533,"å¦Ĥä½ķåľ¨":5534,"èĭ±å°º":5535,"Ġarr":5536,"ç»Łä¸Ģ":5537,"è¶ħçº§":5538,"çİ¯å¢ĥåĴĮ":5539,"Ġå¯¹äºİ":5540,"æĳĦæ°ı":5541,"å°Ĩä»¥ä¸ĭ":5542,"å¸ĮèħĬ":5543,"çºµ":5544,"85":5545,"æ¿Ģåıĳ":5546,"éĢĨ":5547,"æľĢå°ı":5548,"å¤ľæĻļ":5549,"éĻĪè¿°":5550,"çļĦé£Łçī©":5551,"éļ¾åº¦":5552,"çļĦç³":5553,"ä¿¡çĶ¨":5554,"æ»ĭ":5555,"è¡ĮæĶ¿åĮºåĪĴ":5556,"æĻ¯è§Ĥ":5557,"å¹½":5558,"éĶĭ":5559,"å°¤åħ¶æĺ¯":5560,"å¤«å¦»":5561,"ä¸įå¾Ĺ":5562,"è§Ĥæµĭ":5563,"ah":5564,"åħ¬åħĥ":5565,"ä¿±ä¹Ĳ":5566,"ä¼ĺåħĪ":5567,"åĭĩæķ¢":5568,"è¿ĩæ»¤":5569,"æµģéĩı":5570,"çŁĽçĽ¾":5571,"å®Įç¾İ":5572,"ä¼ļå¯¹":5573,"æĦıè¯ĨåĪ°":5574,"æĶ¹éĿ©":5575,"åºĶå½ĵ":5576,"åı¯èĥ½ä¼ļå¯¼èĩ´":5577,"éĿŀå¸¸éĩįè¦ģçļĦ":5578,"\"ï¼Į":5579,"é³į":5580,"ĠĠĠĠĠĠĠĠĠ":5581,"åľ°åĽ¾":5582,"éħįç½®":5583,"ä¸ĵä¸ļçļĦ":5584,"ä¿±ä¹Ĳéĥ¨":5585,"åįģå¹´":5586,"è¡¨è¾¾äºĨ":5587,"è´§å¸ģ":5588,"ç¢±":5589,"æĢĿè·¯":5590,"éģĹä¼ł":5591,"ous":5592,"å±Ĥæ¬¡":5593,"åľĨå½¢":5594,"æķĻå¸Ī":5595,"val":5596,"ĠPro":5597,"éĶ¡":5598,"é¹¿":5599,"è½¬åĮĸä¸º":5600,"éĩĮæĸ¯":5601,"å·¨å¤§":5602,"çļĦåĬŁèĥ½":5603,"que":5604,"49":5605,"èĢĥèĻĳåĪ°":5606,"åı·çº¿":5607,"å¤ļæł·æĢ§":5608,"æµ·æĭĶé«ĺåº¦":5609,"åłĨ":5610,"åħĪè¿Ľ":5611,"è¾Ĳå°Ħ":5612,"$ï¼Į":5613,"å¹¶å¯¹":5614,"ä¸īè§Ĵå½¢":5615,"è¥¿åĮĹ":5616,"è¿Ľå±ķ":5617,"çłĶåıĳ":5618,"è´ŁéĿ¢å½±åĵį":5619,"è´¯":5620,"çĵ·":5621,"çļĦçĻ":5622,"éĿ¢åĽ¢":5623,"æ¼ĶåĮĸ":5624,"è¥¿åįĹ":5625,"Ph":5626,"äº²åŃĲ":5627,"ton":5628,"çļĦç´":5629,"åı¯ä»¥ä¸º":5630,"é¢Ī":5631,"æĺİå¤©":5632,"èĭ±å¯¸":5633,"æĪĳéľĢè¦ģ":5634,"åı¯ä»¥å¸®åĬ©æĪĳä»¬":5635,"çħ§é¡¾":5636,"ost":5637,"æĺ¯æ³ķåĽ½":5638,"èī²è°ĥ":5639,"çĶŁæĪĲä¸Ģé¦ĸ":5640,"ä¸ªä½ĵ":5641,"ä¼łè¯´":5642,"éģĹäº§":5643,"æĺ¯ä¸Ģæ¬¾":5644,"')":5645,"æİ¥çĿĢ":5646,"åĮ¹éħį":5647,"çĽ¸äºĴä½ľçĶ¨":5648,"æ¯«ç±³":5649,"ç½©":5650,"æ¡Īä¾ĭ":5651,"äºķ":5652,"çļĦæµ·":5653,"æĺ¯çļĦ":5654,"çī§":5655,"å°ıè¡ĮæĺŁ":5656,"å°Ķçľģ":5657,"æİ¨è¿Ľ":5658,"èī³":5659,"å»ºäºİ":5660,"èİ²":5661,"lic":5662,"çº¿ä¸Ĭ":5663,"çĭ±":5664,"ä½łåľ¨":5665,"èįīèİĵ":5666,"ä¸ĺ":5667,"æĦıå¿Ĺ":5668,"2003":5669,"89":5670,"ä¸įèī¯":5671,"éĤ£ä¸ª":5672,"å¤§æĪĺ":5673,"ä¸įéľĢè¦ģ":5674,"åħ¬å¸ĥ":5675,"åıĺæļĸ":5676,"Ġhave":5677,"çļĦä½ľçĶ¨":5678,"è°ľ":5679,"æĥľ":5680,"æľ¬æĸĩ":5681,"çī¹åĪ«æĺ¯":5682,"è¾ī":5683,"ystem":5684,"å¸¦æĿ¥çļĦ":5685,"æĽ´é«ĺçļĦ":5686,"åı¯ä»¥æĺ¯":5687,"æ¸ħæĸ°":5688,"æ·±è¿ľ":5689,"ä¸Ģä»¶":5690,"çľĭçľĭ":5691,"æī«":5692,"æĹĭå¾ĭ":5693,"oice":5694,"ç«ĭåį³":5695,"æĻ®åıĬ":5696,"åĩºèī²":5697,"åĲĦèĩª":5698,"åŀĭåı·":5699,"ĠĠĠĠĠĠĠĠĠĠ":5700,"å¾Īå¥½çļĦ":5701,"47":5702,"æĹłçº¿":5703,"çļĦé«ĺ":5704,"æĺ¯ä¸Ģéĥ¨":5705,"åı¯ä»¥èĢĥèĻĳ":5706,"æĽ´å¿«":5707,"æĿĤå¿Ĺ":5708,"Ġnew":5709,"è¿Ľå£«":5710,"ov":5711,"åĩĨå¤ĩå¥½":5712,"å¤ļåħĥ":5713,"é©¬æĿ¥":5714,"éĢĤå®ľ":5715,"åĨĻä¸Ģé¦ĸ":5716,"Ġä½łå¥½":5717,"ä¸ŃéĹ´":5718,"ä»¥ä¸ĭåĩłä¸ªæĸ¹éĿ¢":5719,"ish":5720,"ork":5721,"ç¼ĸç¨ĭè¯Ńè¨Ģ":5722,"ç¾İè§Ĥ":5723,"æ³¨æĦıåĬĽ":5724,"ther":5725,"å°Ĭæķ¬çļĦ":5726,"æķ£æĸĩ":5727,"hile":5728,"æĸ¹çļĦ":5729,"çļĦåĲĮæĹ¶":5730,"çļĦä¸ĸçķĮ":5731,"æĪĳå°Ĩ":5732,"äº¤å¾Ģ":5733,"çĳ°":5734,"æ³Ħ":5735,"æŀģç«¯":5736,"çĽĳç®¡":5737,"å°ıåĿĹ":5738,"åº¦è¿ĩ":5739,"åģľè½¦":5740,"çļĦæľįåĬ¡":5741,"ä¸Ģéĥ¨":5742,"æŃ§":5743,"éĩįåĬĽ":5744,"æıĲåīį":5745,"å±±å³°":5746,"éŃĤ":5747,"èĥ½å¤Łå¸®åĬ©":5748,"ç»³":5749,"çĥŃæĥħ":5750,"æķĻç»ĥ":5751,"æĮīéĴ®":5752,"å·¥ç¨ĭå¸Ī":5753,"çļĦçľĭ":5754,"é»ĳæļĹ":5755,"æĹłè®ºæĺ¯":5756,".ãĢĬ":5757,"çĻĮ":5758,"ç¦ıåĪ©":5759,"å®ļåĪ¶":5760,"GB":5761,"åĭĥ":5762,"ä»£çłģå®ŀçİ°":5763,"æ¶µçĽĸ":5764,"ï¼Įï¼ī":5765,"æ¡¶":5766,"rt":5767,"è®©ä»ĸä»¬":5768,"çĲ³":5769,"èįĴ":5770,"ann":5771,"èĢĮæĪĲ":5772,"è°ĥçĶ¨":5773,"ç¦»åŃĲ":5774,"çĶŁæ´»çļĦ":5775,"å¤ĸäº¤":5776,"åĮĸåŃ¦åıįåºĶ":5777,"æĥ§":5778,"å½ĵéĢī":5779,"æī¾åĩº":5780,"Alice":5781,"è¯·æ±Ĥ":5782,"éĩĩçĶ¨äºĨ":5783,"æ¡Ĥ":5784,"åħ±äº§åħļ":5785,"ä¸ľäº¬":5786,"ä¸įå¤ª":5787,"Ġword":5788,"åĬ£":5789,"ä½łæĺ¯":5790,"æµģçķħ":5791,"åĬ¨çĶ»":5792,"åıĹä¼¤":5793,"æĺŁç³»":5794,"çļĦè¯Ńè¨Ģ":5795,"ä¿ĿåŃĺ":5796,"ä¸ĭåĪĹ":5797,"çļĦéĢŁåº¦":5798,"çļĦæĬĢæľ¯":5799,"olor":5800,"Ġ:":5801,"æĳĺè¦ģ":5802,"åħ¶å®ĥ":5803,"åĽĽå¹´":5804,"åĨ¥æĥ³":5805,"Ġå¤§":5806,"èķī":5807,"ä¸įä¹ħ":5808,"å³¡":5809,"éģĩåĪ°äºĨ":5810,"æ¾³å¤§åĪ©":5811,"æ¸¸æĪıçļĦ":5812,"éĺŁä¼į":5813,"æĺ¾èĳĹ":5814,"å¤ĦçļĦ":5815,"å¼ºå¤§":5816,"é±¼ç±»":5817,"åĪ¤åĨ³":5818,"å§Ĳ":5819,"æ§":5820,"å«©":5821,"sort":5822,"æĪĳæĺ¯":5823,"æ¾³å¤§åĪ©äºļ":5824,"èĩªçĦ¶çģ¾å®³":5825,"ä¸ªäººçļĦ":5826,"éĢļå¸¸ä¼ļ":5827,"Ġï¼Ī":5828,"åĪĨæŀĲåĴĮ":5829,"æ¡Ĩæŀ¶":5830,"è§£çŃĶ":5831,"éĩįå¤§":5832,"è´Ŀå°Ķ":5833,"St":5834,"æĺ¯ä¸Ģé¡¹":5835,"æĪĳä»¬åı¯ä»¥ä½¿çĶ¨":5836,"åŃĺåľ¨çļĦ":5837,"å¦Ĥä½ķåĪ¶ä½ľ":5838,"æĿĥçĽĬ":5839,"800":5840,"æ¸ħçĲĨ":5841,"åı¯èĥ½éľĢè¦ģ":5842,"å¦®":5843,"çŃīäºº":5844,"cript":5845,"åıĳçİ°äºĨ":5846,"æģĭçĪ±":5847,"å¾Īæľī":5848,"æııåĨĻ":5849,"åĳĺå·¥çļĦ":5850,"åĺ´":5851,"è®¤åı¯":5852,"çĸı":5853,"åĬłå¯Ĩ":5854,"åĴĮåĪĨæŀĲ":5855,"ä¸ªæĢ§åĮĸ":5856,"ĠæĬĬ":5857,"æľīæ²¡æľī":5858,"åĴĮè¡Įä¸º":5859,"ck":5860,"ä¸ºä¸Ģä¸ª":5861,"å½ĵä»£":5862,"åºĨç¥Ŀ":5863,"ä¹ĭä¸Ń":5864,"Ġso":5865,"åĨįçĶŁ":5866,"è¢«å¹¿æ³Ľ":5867,"ä¸ºæĤ¨æıĲä¾Ľ":5868,"æ²³åįĹ":5869,"ä½Ĳ":5870,"åĲĮä¸Ģ":5871,"å¥Ī":5872,"åįļå£«":5873,"äº¤æį¢":5874,"è´¨éĩıåĴĮ":5875,"çļĦçľ¼":5876,"è¶ĬåįĹ":5877,"åŃ¦ç§ĳ":5878,"æ¸¸æĪıä¸Ń":5879,"ĠTr":5880,"æµĩæ°´":5881,"åĪłéĻ¤":5882,"æ°Ķè±¡":5883,"ire":5884,"å·¾":5885,"ç»Łæ²»":5886,"åĩºåıĳ":5887,"ress":5888,"æĸĻéħĴ":5889,"self":5890,"çº¢æ¥¼":5891,"çļĦç¾İå¥½":5892,"æĪĲçĨŁ":5893,"éĥ½åľ¨":5894,"æĸĩåĮĸçļĦ":5895,"æķ°åĢ¼":5896,"Ġç¡®å®ļ":5897,"In":5898,"çļĦçĪ¶":5899,"çłĤ":5900,"Th":5901,"æĸĩçĮ®":5902,"ĠX":5903,"åıĤèµĽ":5904,"ign":5905,"éĺģ":5906,"æ¸©å®¤":5907,"æĽ¹":5908,"ä¸ŃåĽ½å¤§éĻĨ":5909,"éªĹ":5910,"çĩĥæĸĻ":5911,"âĢĻ":5912,"æĮĸ":5913,"çĽ¸åĲĮçļĦ":5914,"æĪĺå½¹":5915,"èµĦæł¼":5916,"ç»Īäºİ":5917,"ç²®":5918,"è¾¹çļĦ":5919,"åĪ«äºº":5920,"èĢĲå¿ĥ":5921,"æ¯ıåĳ¨":5922,"77":5923,"++":5924,"åľ¨æľªæĿ¥":5925,"å¤§èĦĳ":5926,"å¾Īå¿«":5927,"æµĨ":5928,"Ġab":5929,"count":5930,"èĺĳ":5931,"çļĦæľºä¼ļ":5932,"æĬ¤çĲĨ":5933,"çĥĤ":5934,"å¥Ķ":5935,"äººåı£æĻ®æŁ¥":5936,"åħ¶ä¸ŃåĮħæĭ¬":5937,"ä»ĭç»įä¸Ģä¸ĭ":5938,"åĴĮç®¡çĲĨ":5939,"æĪĴ":5940,"TC":5941,"å°±ä¸ļ":5942,"éĢīæĭ©ä¸Ģä¸ª":5943,"çĭĤ":5944,"68":5945,"éħµ":5946,"éŃħåĬĽ":5947,"çľ¼çĿĽ":5948,"èį·åħ°":5949,"2002":5950,"ä»¥ä¸ĭåĩł":5951,"èīºæľ¯åĵģ":5952,"åľ°äº§":5953,"åĳ½ä»¤":5954,"è¿Ļä¸ªè¡¨æł¼":5955,"çļĦçĮ":5956,"æł½":5957,"ple":5958,"èĦĬ":5959,"å¤©æĸĩåŃ¦":5960,"ä¸ĢæĿ¯":5961,"æĿĨ":5962,"è¿Ļéĥ¨çĶµå½±":5963,"åħ¶åĲİ":5964,"ç®Ģç§°":5965,"çļĦç¾İé£Ł":5966,"ä¸Ģåº§":5967,"ç»§æī¿":5968,"éĻ¤æŃ¤":5969,"åĪĨåĪ«ä¸º":5970,"Ġinput":5971,"æĹłäºº":5972,"èĺĳèıĩ":5973,"åĲĳéĩı":5974,"åĲĦåľ°":5975,"æ¾³éĹ¨":5976,"åĸĤåħ»":5977,"èĩ³ä»Ĭ":5978,"è¿Ļæĺ¯åĽłä¸º":5979,"èĵĦ":5980,"ä»¥åĲİ":5981,"ç»ĵæŀĦåĴĮ":5982,"èīĺ":5983,"æĽ¿ä»£":5984,"çļĦçģµ":5985,"ä»¿ä½Ľ":5986,"æ³¨åĨĮ":5987,"Ġäººå·¥æĻºèĥ½":5988,"æĪĳä»¬ä¼ļ":5989,"äºĶå¹´":5990,"me":5991,"çļĦè¯ĹæŃĮ":5992,"åĨ°ç®±":5993,"çĲĨæĥ³":5994,"çļĦçľĭæ³ķ":5995,"çŃīå¤ļç§į":5996,"æĿĲæĸĻåĴĮ":5997,"å¹³çŃī":5998,"èĥ¡èĲĿåįľ":5999,"eb":6000,"æ²Ļæ»©":6001,"æ£ķ":6002,"ä»¥ä¸Ĭè¿Ļæ®µ":6003,"Ġnot":6004,"åı¯ä»¥ä½¿":6005,"éŁµ":6006,"åİĭåĬĽåĴĮ":6007,"æµ¦":6008,"åīįæĻ¯":6009,"æĹ¶éĹ´çļĦ":6010,"ç§ĭå¤©":6011,"éĽ¾":6012,"åĽ¢éĺŁåĲĪä½ľ":6013,"åı£è¯Ń":6014,"å¾Īå¤§":6015,"42":6016,"èĤ©":6017,"èħ¾":6018,"95":6019,"è´¦æĪ·":6020,"æĭħå¿ĥ":6021,"èį¡":6022,"æº¯":6023,"å®¢åİħ":6024,"ok":6025,"å¿łè¯ļ":6026,"åĽŀçŃĶè¿Ļä¸ªéĹ®é¢ĺ":6027,"æĬĢå·§åĴĮ":6028,"1990":6029,"ä¼ĳéĹ²":6030,"æĹ©é¤Ĳ":6031,"åıĳåĬ¨æľº":6032,"çİ¯èĬĤ":6033,"Ġå°ı":6034,"åħ¶ä»ĸçļĦ":6035,"èĨĢ":6036,"æĺ¯ç¾İåĽ½":6037,"éħ±æ²¹":6038,"çĨŁæĤī":6039,"æĺ¯éĿŀå¸¸éĩįè¦ģçļĦ":6040,"æľĢæĸ°çļĦ":6041,"ä¾¯":6042,"éľĢè¦ģçļĦ":6043,"æįĲ":6044,"å¤ıæĹ¥":6045,"æ³ķè¯Ń":6046,"çº¢æ¥¼æ¢¦":6047,"Ġå¯¹":6048,"ä»¥ä¸Ĭæĺ¯":6049,"æĸĩç«łä¸Ń":6050,"é²¸":6051,"è´¢å¯Į":6052,"æĹ©ä¸Ĭ":6053,"è®¼":6054,"ä¹Łä¸į":6055,"åĬ³åĬ¨":6056,"ä¼ģä¸ļçļĦ":6057,"âĢ¦âĢ¦":6058,"åĽŀå½Ĵ":6059,"åİĨåı²ä¸Ĭ":6060,"ç¥Ń":6061,"åĻª":6062,"ä»ĵ":6063,"äº«çĶ¨":6064,"å¥¶éħª":6065,"åĵªç§į":6066,"åķĨåºĹ":6067,"è®¾è®¡å¸Ī":6068,"åģ·":6069,"æµģè¡ĮçļĦ":6070,"å¹´åľ¨":6071,"ä¼ļæľī":6072,"æŀĦéĢł":6073,"Ġå»ºç«ĭ":6074,"æĽ¿æį¢":6075,"own":6076,"æĺİæľĿ":6077,"è£Ķ":6078,"é¡ºåĪ©":6079,"æĿ¥è®¡ç®Ĺ":6080,"å¥¥æŀĹ":6081,"æĢİä¹Īæł·":6082,"ãĢĤãĢį":6083,"æĿ¡æ¬¾":6084,"Ġçº¢":6085,"ä¸»è¦ģæĺ¯":6086,"æĢ»éĿ¢ç§¯":6087,"åĴĮçĲĨè§£":6088,"æĸĩèīº":6089,"é¦Ļèķī":6090,"ä¸Ģæľ¬":6091,"æĭĸ":6092,"æŃ£æĸ¹":6093,"åĩºçİ°åľ¨":6094,"çļĦçĸ":6095,"æ±Łèĭı":6096,"Ġfloat":6097,"è¾ħåĬ©":6098,"å¤ıå¤©çļĦ":6099,"eng":6100,"ä¼Ĺå¤ļ":6101,"åĩºçİ°çļĦ":6102,"æĸĩæ¡£":6103,"æķ£æŃ¥":6104,"sum":6105,"æ¿ĢçĥĪ":6106,"éĵĥ":6107,"ER":6108,"46":6109,"æķ°æį®åºĵ":6110,"å¤§äºİ":6111,"éĢĲæŃ¥":6112,".\"":6113,"é¬¼":6114,"æ±Ĺ":6115,"é»ĳèĥ¡æ¤Ĵ":6116,"æİ¥æĶ¶":6117,"ç«ĭæ³ķ":6118,"åŃ¦ä½į":6119,"ç¦ıå»º":6120,"å¹¶è¿Ľè¡Į":6121,"è¿ĺèĥ½":6122,"çĮ«åĴª":6123,"duct":6124,"æĽ´é«ĺ":6125,"åŃķ":6126,"æľĪåı°":6127,"æµ·å²¸":6128,"æ··åĲĪçī©":6129,"åħĶåŃĲ":6130,"å·´è¥¿":6131,"åĩŃ":6132,"èĴĻåı¤":6133,"èĲ§":6134,"æľĢæĹ©":6135,"åĩºçİ°äºĨ":6136,"åıĳå°Ħ":6137,"Ġ18":6138,"èĩ´åĬĽäºİ":6139,"ä¸įå¤Ł":6140,"åįī":6141,"ä»İäºĭ":6142,"æ¬º":6143,"åĲķ":6144,"ĠæĪĳæĥ³":6145,"å°ıåŃ¦":6146,"çİĭæĺŁ":6147,"é¢ĦçĥŃ":6148,"è°ĥæĸĻ":6149,"çļĦçĤ":6150,"çĶ·åŃ©":6151,"ä¾Ŀæį®":6152,"éĻ¤æŃ¤ä¹ĭå¤ĸ":6153,"æłĩçŃ¾":6154,"åĴĮä½¿çĶ¨":6155,"é¡µéĿ¢":6156,"å¹´è½»äºº":6157,"æ²¸":6158,"Em":6159,"åĩĮ":6160,"åĩºèī²çļĦ":6161,"æŁ¯":6162,"ç¼ĸåı·":6163,"å¡ĺ":6164,"åŀĭçļĦ":6165,"å®ı":6166,"éĴ»":6167,"æľĪçļĦ":6168,"åħįè´¹":6169,"è£Ļ":6170,"è¯ĦåĪĨ":6171,"èĬ±åįī":6172,"å¹´ä»½":6173,"æľīäºº":6174,"ert":6175,"æł¹æį®ä»¥ä¸ĭ":6176,"çİ«":6177,"éĹ´çļĦ":6178,"ç»ıéªĮåĴĮ":6179,"APP":6180,"ite":6181,"æĦıå¤ĸ":6182,"åĪĨè§£":6183,"é¢Ħè®¡":6184,"æĶ¯æĴĳ":6185,"éĢĤçĶ¨":6186,"åĨ·éĿĻ":6187,"éĴ¢çĲ´":6188,"ä¼ª":6189,"æĦĪ":6190,"çĶŁåĬ¨":6191,"è¯īè®¼":6192,"è¾½":6193,"çĥ¤çĽĺ":6194,"ä¸ĩç¾İåħĥ":6195,"å·¥èµĦ":6196,"ä¹ŁéĿŀå¸¸":6197,"å¦ĤæŀľæĪĳä»¬":6198,"æ·±åĪ»çļĦ":6199,"æľºåħ³":6200,")ãĢĤ":6201,"çļĦæŃ¥éª¤":6202,"\">":6203,"åĪĨæķ°":6204,"éĢĶå¾Ħ":6205,"åģıå¥½":6206,"åŁºçĿ£":6207,"æĽ´å¤§çļĦ":6208,"çĩĥçĥ§":6209,"ç»ĺçĶ»":6210,"æł·æľ¬":6211,"æĮĩçļĦæĺ¯":6212,"æķıæĦŁ":6213,"åŁİéķĩ":6214,"åĲĪæĪĲ":6215,"èħ»":6216,"æ¸ħæ¥ļ":6217,"ä¼Ļä¼´":6218,"æħķ":6219,"98":6220,"å¤©çļĦå¤©æ°Ķ":6221,"ä¸ŃåĽ½çļĦ":6222,"ç´łè´¨":6223,"ä»¥éģ¿åħį":6224,"æ¹¿åº¦":6225,"å®ŀéĻħæĥħåĨµ":6226,"å¥¥æŀĹåĮ¹":6227,"çļĦç¼ĸç¨ĭ":6228,"åŃĲéĩĮ":6229,"åĪĿæľŁ":6230,"ST":6231,"ä¸ĵéĹ¨":6232,"ç±³é¥Ń":6233,"åĴĮå®īåħ¨":6234,"ĠÂ¥":6235,"çļĦæķĪæŀľ":6236,"åľ¨ä½¿çĶ¨":6237,"åıĤè§Ĥ":6238,"åĮħè£ħ":6239,"åľ°æĿ¿":6240,"éĻ¤ä»¥":6241,"ç¨³å®ļçļĦ":6242,"æģ°":6243,"çĶ¨æĪ·ä½ĵéªĮ":6244,"åīįçļĦ":6245,"78":6246,"Ċĉĉ":6247,"åĪĿå§ĭ":6248,"æĮ«":6249,"çĽĳçĿ£":6250,"çļĦå½¢å¼ı":6251,"èĬĤçº¦":6252,"å·ŀå¸Ĥ":6253,"è®°èĢħ":6254,"åħĦå¼Ł":6255,"ä¸»åĬ¨":6256,"ç¹ģæ®ĸ":6257,"180":6258,"è´ŁåĢº":6259,"éĥŃ":6260,"å²Ń":6261,"çŃīä¿¡æģ¯":6262,"åı¯èĥ½æĢ§":6263,"åĢ¾åĲĳ":6264,"éĥ½èĥ½":6265,"çļĦä»£è¡¨":6266,"åĭº":6267,"ä¾£":6268,"åĵ¦":6269,"æ¨¡åĿĹ":6270,"å¤ªå¹³æ´ĭ":6271,"ãĢįï¼Ī":6272,"çİ«çĳ°":6273,"åı¸ä»¤":6274,"èĬ±æľµ":6275,"å±ķè§Ī":6276,"][":6277,"çħ®çĨŁ":6278,"åĪĹä¸¾":6279,"ãĢĤãĢĬ":6280,"åŃ¦çĶŁçļĦ":6281,"å¦Īå¦Ī":6282,"åĪĨåĪ«æĺ¯":6283,"è¥¿åĵ¥":6284,"Ġthis":6285,"ç©ºè°ĥ":6286,"ä¸Ńéĥ¨":6287,"è¢«è§Ĩä¸º":6288,"çİ°åľ¨è¯·ä½ł":6289,"ä»£è°¢":6290,"èµĶ":6291,"åıĳçĶµ":6292,"çŁ©éĺµ":6293,"æ¦Ĥæĭ¬":6294,"Ġour":6295,"å«Įçĸĳ":6296,"æĮĩä»¤":6297,"åĽ¾ä¹¦é¦Ĩ":6298,"è§Ĥçľĭ":6299,"çĽ´èĩ³":6300,"æľĪä»½":6301,"ÃĹ":6302,"Ġ+=":6303,"å¨ĺ":6304,"åĪĨç±»ä¸º":6305,"å®Ŀçİī":6306,"å¹²æī°":6307,"å¥³åĦ¿":6308,"ç§ģäºº":6309,"åıĳå±ķçļĦ":6310,"å¿ĥçĲĨåģ¥åº·":6311,"æŁĶåĴĮ":6312,"èĭıèģĶ":6313,"åĩºçĶŁäºİ":6314,"åħĪåĲİ":6315,"è¯ŀ":6316,"è®¾è®¡åĴĮ":6317,"Ġå®ļä¹ī":6318,"ä½ĨæĪĳ":6319,"å¤ıä»¤":6320,"ĊĠĠĠĠ":6321,"æ»¡æĦıåº¦":6322,"åĨ·åį´":6323,"æĹ¶åħī":6324,"å²©çŁ³":6325,"æ½ľåĬĽ":6326,"äº¨":6327,"çĸ«æĥħ":6328,"1999":6329,"éĶ¦æłĩ":6330,"å¤§æ¥¼":6331,"åŃŁ":6332,"éĩıåŃĲåĬĽåŃ¦":6333,"\"ãĢĤ":6334,"ĊĠĠĠĠĠ":6335,"åĲĬ":6336,"ee":6337,"ç¥¥":6338,"çļĦç¡":6339,"éĢļä¿¡":6340,"èĲ¥éĶĢçŃĸçķ¥":6341,"é¹ħ":6342,"èº«ä½ĵåĴĮ":6343,"è¿ĻäºĽéĹ®é¢ĺ":6344,"èĢĮä¸į":6345,"æģĲé¾Ļ":6346,"æıĲåĩºäºĨ":6347,"çģµæĦŁ":6348,"å¢¨è¥¿åĵ¥":6349,"ä¼ļå½±åĵį":6350,"Ġat":6351,"è¿Ļæł·åı¯ä»¥":6352,"åħħçĶµ":6353,"ç§įåŃĲ":6354,"åħ¶å®ŀ":6355,"å¤§æ°Ķå±Ĥ":6356,"æ¯ıä¸Ģ":6357,"èĶ¡":6358,"èħ°":6359,"ç¾¤å²Ľ":6360,"ä¸ĢæĹ¦":6361,"èĪŀåı°":6362,"åĲ¬åĪ°":6363,"æ¹ĸåįĹ":6364,"æĬķç¥¨":6365,"ä»¥æŃ¤":6366,"1998":6367,"ition":6368,"èĭ±æł¼åħ°":6369,"æĬ¢":6370,"åħĭçļĦ":6371,"åĲ¯åĬ¨":6372,"è¿ĳå¹´æĿ¥":6373,"ç©ºä¸Ń":6374,"æĳĦæ°ıåº¦":6375,"æĹ¥èĩ³":6376,"æī¾åĪ°äºĨ":6377,"æĬķèµĦèĢħ":6378,"ä¸Ģä¸ªéĹ®é¢ĺ":6379,"åĮĸå¦Ĩåĵģ":6380,"å®¢æĪ·çļĦ":6381,"çľĭåĪ°äºĨ":6382,"BC":6383,"äºĳåįĹ":6384,"éĤ®æĶ¿":6385,"è¯·éĹ®æĤ¨":6386,"åĪĹè¡¨ä¸Ń":6387,"æ¶Į":6388,"å¼łä¸ī":6389,"ä¸ĸçķĮçļĦ":6390,"çĽ¸çŃī":6391,"æĸĲ":6392,"æĭĵå±ķ":6393,"åĴĮéľĢæ±Ĥ":6394,"å¾Ĺä»¥":6395,"è§£éĩĬä¸Ģä¸ĭ":6396,"ç¬¬äºĮæ¬¡":6397,"å¤§åľ°":6398,"è©":6399,"å¤¹":6400,"æıĲåĪ°":6401,"çļĦçľģ":6402,"æľīæĹ¶åĢĻ":6403,"æłĳæľ¨":6404,"åħ¨çĲĥåıĺæļĸ":6405,"ç©·":6406,"ç«ŀäºīåĬĽ":6407,"åĬ¨æĢģ":6408,"æĺ¯éĢļè¿ĩ":6409,"ç®ĢåİĨ":6410,"è½¬ç§»":6411,"æĢĴ":6412,"å¹³éĿ¢":6413,"AT":6414,"ç¢°":6415,"çĽ´å¾Ħ":6416,"çļĦç¤¾äº¤":6417,"ä¹Ĳè¶£":6418,"æĵħ":6419,"ä¾¿æį·":6420,"å¥¥æŀĹåĮ¹åħĭ":6421,"å®īéĿĻ":6422,"æ°´åŁŁ":6423,"æ³¨éĩĬ":6424,"å¤©æ´¥":6425,"åĲ¨":6426,"ä»¥ä¸ĭæŃ¥éª¤":6427,"å¹¿æ³ĽçļĦ":6428,"åıĽ":6429,"io":6430,"äººç¾¤":6431,"ç®¡çĲĨåĴĮ":6432,"èĤīç±»":6433,"èĢį":6434,"æĺ¾å¾Ĺ":6435,"æŁĲç§į":6436,"...":6437,"ä½łä¼ļ":6438,"çĽĳæİ§":6439,"è§Ĥå¿µ":6440,"ä¹ĲåĻ¨":6441,"è¾ĥå¤§":6442,"ç§ĺå¯Ĩ":6443,"æĽ¾ä»»":6444,"è¿Ļä¹Ł":6445,"å½¢æĪĲäºĨ":6446,"çĤ¹çļĦ":6447,"|----":6448,"ä¼¦çĲĨ":6449,"èģĮè´£":6450,"æĴŃåĩº":6451,"æī¿è®¤":6452,"æĮĳæĪĺåĴĮ":6453,"æĪĳä»¬åľ¨":6454,"çļĦçģ«":6455,"æĦŁçŁ¥":6456,"æĬ¥è¡¨":6457,"é£İæł¼çļĦ":6458,"æ²Ļæ¼ł":6459,"ĠåĪ¶ä½ľ":6460,"å®¹åĻ¨":6461,"éĢīçĶ¨":6462,"åĳ½è¿Ĳ":6463,"é»Ħæ²¹":6464,"ä¸ĩäºº":6465,"è¾¨":6466,"åĲĳä¸Ĭ":6467,"éĺ¿æĭī":6468,"çİ¯å¢ĥä¸Ń":6469,"è®¡ç®Ĺåĩº":6470,"åĮĹæŀģ":6471,"éĽĨåĲĪ":6472,"ç»ĵå©ļ":6473,"çļĦæ´»åĬ¨":6474,"å®¶çĶµ":6475,"åľŁè±Ĩ":6476,"åĬ©æīĭ":6477,"çļĦæ¤įçī©":6478,"å¹´èµ·":6479,"å¸ĥç½®":6480,"Ġdo":6481,"æĪĳåľ¨":6482,"åı¯ä»¥æıĲä¾Ľ":6483,"å¼ºçĥĪçļĦ":6484,"åºŀ":6485,"ä¹ĺå®¢":6486,"æīĢå¾Ĺ":6487,"ç¿ł":6488,"å¯¹åħ¶":6489,"æ¸ħæľĿ":6490,"ä¹Ķæ²»":6491,"BA":6492,"æīĭæľ¯":6493,"ç»ĵæĿŁåĲİ":6494,"ould":6495,"è®¡ç®ĹåĻ¨":6496,"åĴĮä¸Ģä¸ª":6497,"çģ°èī²":6498,"çļĦæ°ĽåĽ´":6499,"è£ħç½®":6500,"åĲĳåīį":6501,"éľĢè¦ģæł¹æį®":6502,"éĨī":6503,"æĹº":6504,"æīĭè¡¨":6505,"åľ¨è¿Ļç§į":6506,"å®ļçĲĨ":6507,"å¹¶ä¸İ":6508,"åĲįåįķ":6509,"ä¸įç¡®å®ļ":6510,"éĻĨåľ°":6511,"æįŁåĿı":6512,"å®¢äºº":6513,"II":6514,"åĴĮçĽ®æłĩ":6515,"Ġelif":6516,"76":6517,"ä¸Ģå®ļè¦ģ":6518,"'t":6519,"æĴĴä¸Ĭ":6520,"æīĭå·¥":6521,"ont":6522,"ox":6523,"åıįå°Ħ":6524,"åĮĹäº¬å¸Ĥ":6525,"ç»Ŀå¯¹":6526,"å°±åĥı":6527,"èĬĤèĥ½":6528,"å±¿":6529,"åĽ´ç»ķ":6530,"çļĦä¸įåĲĮ":6531,"èľĤèľľ":6532,"']":6533,"åĪ©çİĩ":6534,"æıŃç¤º":6535,"æĿī":6536,"æ´Ĺè¡£":6537,"ä¸īåįģ":6538,"åıĳéĢģ":6539,"ID":6540,"éĿ¢æĿ¡":6541,"æķ°åŃĹåĮĸ":6542,"èº«é«ĺ":6543,"æľĿé²ľ":6544,"åĩĢåĮĸ":6545,"å¹´ç¾İåĽ½":6546,"å°Ķå¾·":6547,"å®ĥåľ¨":6548,"åĸ»":6549,"åĤ¨åŃĺ":6550,"éĻķ":6551,"åĶ®åĲİ":6552,"é£İæł¼åĴĮ":6553,"å¹´åĲİ":6554,"ble":6555,"çĥĺ":6556,"å®´":6557,"åı¯ä»¥ä»İ":6558,"é»Ľçİī":6559,"åħ¬æ°ĳ":6560,"ç«ŀäºīå¯¹æīĭ":6561,"ĠÃ·":6562,"å®¹éĩı":6563,"éĽĩ":6564,"éĻªä¼´":6565,"ä¹Łè¦ģ":6566,"éĨĩ":6567,"éĿŀå¸¸æľī":6568,"å¯Ħ":6569,"AIè¯Ńè¨Ģæ¨¡åŀĭ":6570,"çĶµæºĲ":6571,"ove":6572,"éħįå¤ĩ":6573,"erson":6574,"åĨĻä¸Ģä¸ª":6575,"åĽłä¸ºå®ĥä»¬":6576,"åıĭå¥½":6577,"éĿłè¿ĳ":6578,"1980":6579,"æĪ¿äº§":6580,"çļĦåĬĽéĩı":6581,"vers":6582,"çļĦè¿ĲåĬ¨":6583,"ä¸Ģçīĩ":6584,"åĮĸçŁ³":6585,"æĪĲä¸ºä¸Ģä¸ª":6586,"çļĦæ¦Ĥå¿µ":6587,"è©¹":6588,"å¨ģå»ī":6589,"çĶŁäºİ":6590,"çıĬ":6591,"æ¬¾å¼ı":6592,"é»Ħéĩĳ":6593,"é¦Ļèįī":6594,"çĨĻ":6595,"au":6596,"ä½ľåĩº":6597,"åŃĹçļĦ":6598,"56":6599,"æ²ŁéĢļåĴĮ":6600,"åĲ«éĩı":6601,"çĦ¶åĲİå°Ĩ":6602,"Ġbre":6603,"æĸĩæľ¬ä¸Ń":6604,"ï¼ļãĢĬ":6605,"éĢļçŁ¥":6606,"120":6607,"åĴ¸":6608,"æ¢³":6609,"æĻºèĥ½åĮĸ":6610,"åľ¨ç¾İåĽ½":6611,"æĤŁ":6612,"çļĦæł¸å¿ĥ":6613,"çīµ":6614,"è¿Ļåº§":6615,"è¿ĺè¦ģ":6616,"æĢĸ":6617,"43":6618,"éĹ°":6619,"æĭ¥åłµ":6620,"data":6621,"æĻļé¤Ĳ":6622,"ç¼Ŀ":6623,"è¡¥åħħ":6624,"çļĦç¨³":6625,"èĤĸ":6626,"çİ©èĢį":6627,"æĪªèĩ³":6628,"è·¯ä¸Ĭ":6629,"åħ¬å¹³":6630,"æķħéļľ":6631,"çĽ®çļĦæĺ¯":6632,"æıĴåħ¥":6633,"å¼ķåħ¥":6634,"ç½ĳä¸Ĭ":6635,"è¿½æº¯":6636,"ĠPython":6637,"èŁ":6638,"ize":6639,"çļĩå¸Ŀ":6640,"æīĭæ³ķ":6641,"çĸ²åĬ³":6642,"æ²Ī":6643,"Luc":6644,"ç²¾åĬĽ":6645,"01":6646,"å®īåħ¨åĴĮ":6647,"èĳ¬":6648,"çļĦåħ·ä½ĵ":6649,"æģĲæĥ§":6650,"æĸ½å·¥":6651,"å®¢æľį":6652,"å¯ĮåĲ«":6653,"Ġsu":6654,"æľĢå¤ļ":6655,"èģļä¼ļ":6656,"åĬłåĿ¡":6657,"æľªèĥ½":6658,"éĺŁçļĦ":6659,"äºĨå¾Īå¤ļ":6660,"ä½ıå®ħ":6661,"åĨĪ":6662,"æģĲæĢĸ":6663,"Ġqu":6664,"æĭĤ":6665,"å¸½":6666,"ä¸įæĸŃåıĳå±ķ":6667,"ç´§å¯Ĩ":6668,"Ġsum":6669,"æľ¨æĺŁ":6670,"lass":6671,"bers":6672,"åįĬå¾Ħ":6673,"çŁŃè¯Ń":6674,"ç¾½æ¯Ľ":6675,"äººæĢ§":6676,"çĶµåŃĲéĤ®ä»¶":6677,"æŁ³":6678,"Ġ&":6679,"çļĦç¨ĭåºı":6680,"è®·":6681,"ç»ĨèıĮ":6682,"å¤§è§Ħæ¨¡":6683,"ä¹Łèĥ½":6684,"æĸ¤":6685,"åĩºä»»":6686,"ç¬¼":6687,"åħĥç´łçļĦ":6688,"der":6689,"çĸ«èĭĹ":6690,"èµ°åĲĳ":6691,"èĸ¯":6692,"æ¶Īå¤±":6693,"èĳ¡èĲĦéħĴ":6694,"ublic":6695,"åİ»éĻ¤":6696,"SS":6697,"è¿Ļé¡¹":6698,"Ġdef":6699,"å°½å¿«":6700,"èĤ¢":6701,"çŃīçº§":6702,"ä»¥ä¸ĬçļĦ":6703,"å¾Īé«ĺåħ´":6704,"é«ĺä¸Ń":6705,"éĢļé£İ":6706,"åĢĻéĢī":6707,"ä»¥å¸®åĬ©":6708,"ä½ľæĪĺ":6709,"79":6710,"çŁ³å¤´":6711,"æĥĳ":6712,"è§£è¯»":6713,"éģ¥":6714,"åİŁæľ¬":6715,"è¿Ļåľº":6716,"çĥ¦":6717,"ä¼ĺç¼ºçĤ¹":6718,"å¸Ĥä¸Ńå¿ĥ":6719,"è¿Ĳç®Ĺç¬¦":6720,"ian":6721,"æłı":6722,"result":6723,"å¥¥æĸ¯":6724,"èµ´":6725,"çļĩå®¶":6726,"eg":6727,"å®Įæķ´çļĦ":6728,"éħįæĸ¹":6729,"å¤©ä¸»æķĻ":6730,"ãĢī":6731,"ãĢĪ":6732,"key":6733,"åĴĮå·¥ä½ľ":6734,"åı¶åŃĲ":6735,"ĠåĩĨå¤ĩ":6736,"èĤ¥æĸĻ":6737,"é«ĺæ¸©":6738,"æĹ¥èµ·":6739,"ç»ĻæĤ¨":6740,"åħ´å¥ĭ":6741,"),":6742,"ict":6743,"ä¸ŃåĽ½åı¤ä»£":6744,"Ġwas":6745,"åĳ¨è¾¹":6746,"æ¶ħ":6747,"Â²":6748,"ç¢Ĺä¸Ń":6749,"ç»ıåħ¸çļĦ":6750,"æ³¢åħ°":6751,"åĸľçĪ±":6752,"orus":6753,"çľģçļĦä¸Ģä¸ªå¸Ĥéķĩ":6754,"å§Ĩæĸ¯":6755,"ä¹ĥ":6756,"æ·ĺ":6757,"åĬłå·¥":6758,"çī¹æ®ĬçļĦ":6759,"æŁ¿":6760,"ç¿Ķ":6761,"ç»µ":6762,"çĶŁæĪĲä¸Ģæ®µ":6763,"åı¯è¾¾":6764,"æĸ°åĬłåĿ¡":6765,"åĴĮæĬĢæľ¯":6766,"æŃ¤åĲİ":6767,"çļĦçĥ¤":6768,"çļĦç²¾ç¥ŀ":6769,"å½ĵä»Ĭ":6770,"å¸¸çĶ¨çļĦ":6771,"èĥĥ":6772,"éĥ½éľĢè¦ģ":6773,"èĭ±éĩĮ":6774,"èĻ¹":6775,"è¿Ł":6776,"é¦Ļæ°Ķ":6777,"ä»ĸæĺ¯":6778,"å½¢å®¹":6779,"åĴĮå¯¹":6780,"èĤ¯å®ļ":6781,"æ´»åĬĽ":6782,"åĩıèĤ¥":6783,"é¹°":6784,"add":6785,"æĭ³":6786,"1997":6787,"ä¸Ĭæĺł":6788,"åħ¬äº¤":6789,"è¿Ļæľ¬ä¹¦":6790,"éģŃåĪ°":6791,"æĹ±":6792,"çļĦæĹ¶åĮºä¸º":6793,"åĲįçļĦ":6794,"çĭ¼":6795,"åį±æľº":6796,"é¾Ł":6797,"________________________________":6798,"å®ĥä»¬åľ¨":6799,"ç²Ĺ":6800,"åıĸæ¶Ī":6801,"çİ¯å¢ĥæ±¡æŁĵ":6802,"æľīä»»ä½ķ":6803,"çŃĽéĢī":6804,"å¼¥":6805,"ç¦ģæŃ¢":6806,"éģ®":6807,"è®¾è®¡çļĦ":6808,"æĪĳä»¬åı¯ä»¥éĢļè¿ĩ":6809,"Phone":6810,"éĻĨåĨĽ":6811,"è®°è½½":6812,"ä»¥æıĲé«ĺ":6813,"åľ°åĿĢ":6814,"åıĪç§°":6815,"é¤Ĳé¥®":6816,"ç©¿è¿ĩ":6817,"Ġå¹´":6818,"éĩĮéĿ¢":6819,"Ġ11":6820,"çļĦä»»åĬ¡":6821,"å¿ĥèĦı":6822,"Ġoper":6823,"æĺİæ²»":6824,"æīĵåĩ»":6825,"å¯ĨåĪĩ":6826,"çķªèĮĦéħ±":6827,"çŃĸåĪĴ":6828,"XXXX":6829,"çļĦç¾İä¸½":6830,"èĿ´":6831,"æĿ°åħĭ":6832,"åĴĮå°ı":6833,"ï¼ļ\",":6834,"èĿ´èĿ¶":6835,"çļĦåħī":6836,"å¾Īéļ¾":6837,"é¥®åĵģ":6838,"ä»²":6839,"åĪ©äºİ":6840,"åħ³å¿ĥ":6841,"çļĦå¤ĸ":6842,"çªĥ":6843,"åħ»çĶŁ":6844,"æļ´åĬĽ":6845,"çİĭåĽ½":6846,"ç«ĭæĸ¹":6847,"è´µçļĦ":6848,"åİĨç¨ĭ":6849,"æĹ¶éĹ´åĨħ":6850,"åĩºä¸Ģä¸ª":6851,"é©¬åħĭ":6852,"æ£ī":6853,"æŁ´":6854,"éĶ¦æłĩèµĽ":6855,"ç®ĢçŁŃ":6856,"åħĥå¹´":6857,"å¤©æĸĩ":6858,"Ġè¦ģ":6859,"å½¢æĪĲçļĦ":6860,"ank":6861,"ĠIn":6862,"è¿Ŀåıį":6863,"æĪ¿åľ°äº§":6864,"èħĶ":6865,"éŁ§":6866,"ern":6867,"2024":6868,"çĽ®æłĩåĴĮ":6869,"æĻ¯èī²":6870,"çļĦç©ºæ°Ķ":6871,"æ±¤åĮĻ":6872,"æīĭåĨĮ":6873,"reat":6874,"éĻĦè¿ĳçļĦ":6875,"ç²ĴåŃĲ":6876,"è·¯å¾Ħ":6877,"æĢĿèĢĥåĴĮ":6878,"çĥŃéĹ¨":6879,"é¦Ļåĳ³":6880,"And":6881,"ä»»åĳ½":6882,"çļĦçĶŁæ´»æĸ¹å¼ı":6883,"èµ¶":6884,"ä»¥åħ¶":6885,"è´º":6886,"é¢Ĩè¢ĸ":6887,"Ġ16":6888,"æķĪåºĶ":6889,"ä¾¦":6890,"è®²ä¸Ģä¸ª":6891,"æĺ¥å¤©":6892,"åĢ¡":6893,"æıĲäº¤":6894,"æĢİæł·":6895,"è®©åŃ©åŃĲ":6896,"æ±¤å§Ĩ":6897,"æł¹æį®ç»Ļå®ļçļĦ":6898,"åŁİåł¡":6899,"æłĩè®°":6900,"è¿Ĳä½ľ":6901,"å¹¶ç¡®ä¿Ŀ":6902,"å°ĶçļĦ":6903,"èĥĨ":6904,"åıĹåĪ°äºĨ":6905,"æĿ¥è§£åĨ³":6906,"å¹¶ä½¿çĶ¨":6907,"æľīçĤ¹":6908,"ï¼ħ":6909,"æĪĳä¹Ł":6910,"è¡°":6911,"çļĦæĸĩæľ¬":6912,"å¯Ĥ":6913,"Ġname":6914,"è¯´æ³ķ":6915,"çī©æµģ":6916,"æ¼Ĩ":6917,"å¸ĺ":6918,"åľ³":6919,"è¯Ĺäºº":6920,"oy":6921,"é©¬æĿ¥è¥¿äºļ":6922,"é¥°æ¼Ķ":6923,"æ³¢åĬ¨":6924,"çļĦåĬ¨çī©":6925,"çļĦç¨³å®ļ":6926,"ç®Ģä»ĭ":6927,"éĿŀå¸¸éĢĤåĲĪ":6928,"äºĮå¹´":6929,"åŁºåľ°":6930,"æĦŁæ¿Ģ":6931,"äººå¿ĥ":6932,"å¸ĤåĮº":6933,"å¦»åŃĲ":6934,"åĪĽéĢłåĬĽ":6935,"é¢Ħè®¢":6936,"ä¸ĢçĽ´åľ¨":6937,"å¤ķ":6938,"éĿŀæ³ķ":6939,"ä»İå°ı":6940,"è¯¥åľ°":6941,"å¡ĳéĢł":6942,"è¾¹çķĮ":6943,"æľºè½¦":6944,"ä¼łæī¿":6945,"Ġå°Ĭæķ¬çļĦ":6946,"åįķæĽ²":6947,"å¡«åĨĻ":6948,"ä¸ĸçķĮä¸Ĭ":6949,"è¿ĺæľīåħ¶ä»ĸ":6950,"æĺĨèĻ«":6951,"èĳ£äºĭ":6952,"çļĦåħĥç´ł":6953,"string":6954,"ãĢįãĢģ":6955,"px":6956,"åį§å®¤":6957,"58":6958,"åĽ¾åĥı":6959,"çŁ¥è¯ĨåĴĮ":6960,"gle":6961,"æµı":6962,"æĳĩæ»ļ":6963,"é¥±":6964,"ike":6965,"æĪıåī§":6966,"æĸĩçī©ä¿ĿæĬ¤":6967,"æ¸´":6968,"åĪĩæĪĲå°ıåĿĹ":6969,"åº¦åģĩ":6970,"è¿ĽåĮĸ":6971,"æľīå®³":6972,"ä¸´æĹ¶":6973,"æĿ¥æıĲé«ĺ":6974,"åŃĿ":6975,"æĽ¾åľ¨":6976,"èĳĹä½ľ":6977,"pro":6978,"å½Ĵç±»":6979,"æľīæīĢä¸įåĲĮ":6980,"åħ¥åı£":6981,"ĠéĢīæĭ©":6982,"æĪĳä»¬çļĦäº§åĵģ":6983,"å½°":6984,"çĶŁçĲĨ":6985,"ä¾į":6986,"Ġlike":6987,"å·²ç»ıæĪĲä¸º":6988,"åĽŀåºĶ":6989,"åĳ¨æľ«":6990,"æ·±åº¦åŃ¦ä¹ł":6991,"sq":6992,"åı¯åĨįçĶŁ":6993,"å¹´è½»çļĦ":6994,"son":6995,"å°½åĬĽ":6996,"()`":6997,"ç§įæĹı":6998,"åıĸå¾ĹäºĨ":6999,"ç¬¬åħŃ":7000,"è¡¨è¾¾å¼ı":7001,"çĪĨçĤ¸":7002,"æĬ¼":7003,"é¢ĳéģĵ":7004,"éĩįå»º":7005,"çļĦè¡¨çİ°":7006,"æľĢåĸľæ¬¢çļĦ":7007,"æīĩ":7008,"æľĢé«ĺçļĦ":7009,"åħ»æĬ¤":7010,"åĴĮåºĶçĶ¨":7011,"è¥¿æĸ¹":7012,"å¥ĸé¡¹":7013,"çģ¯åħī":7014,"æĺ¯äººç±»":7015,"æ¯«åįĩ":7016,"çļĦæīĢæľī":7017,"ec":7018,"çģ«è½¦":7019,"day":7020,"æī¹åĩĨ":7021,"çģĮ":7022,"èĩªè½¬":7023,"æĳĦå½±":7024,"ĠæľĢåĲİ":7025,"çĤ¹åĩ»":7026,"Hello":7027,"éĺ²å¾¡":7028,"åıįæĢĿ":7029,"ä¸ĭçļĦä¸Ģä¸ª":7030,"æ³ķå®ĺ":7031,"çĹħäºº":7032,"CT":7033,"çĶµåĬĽ":7034,"èĩ³åħ³éĩįè¦ģ":7035,"è¥¿çľģ":7036,"å¢ŀåĬłäºĨ":7037,"å·ŀçļĦ":7038,"æĸĩåŃ¦ä½ľåĵģ":7039,"åĽŀæĬ¥":7040,"ree":7041,"åįłé¢Ĩ":7042,"åĪĽéĢłä¸Ģä¸ª":7043,"åĪ¶åĵģ":7044,"å²ģçļĦ":7045,"åĴĮé«ĺ":7046,"è¥¿åħ°":7047,"ä¸ºä¸»é¢ĺ":7048,"41":7049,"æĹ¥å¸¸çĶŁæ´»ä¸Ń":7050,"ä¸ĭè¾ĸçļĦä¸Ģä¸ª":7051,"æĺİçĻ½äºĨ":7052,"æĿ¥è¿Ľè¡Į":7053,"è¿ĽèĢĮ":7054,"äº²å¯Ĩ":7055,"çīĽé¡¿":7056,"çº¿æĿ¡":7057,"ical":7058,"è¾¹ç¼ĺ":7059,"éĤĵ":7060,"çĶŁæĬ½":7061,"ç¤¼çī©":7062,"è¡Ķ":7063,"å®ŀä½ĵ":7064,"åı¯ä»¥å¸®åĬ©æĤ¨":7065,"çĶľçĤ¹":7066,"lex":7067,"çĥŃéĩı":7068,"è®¸å¤ļäºº":7069,"åħ¬åı¸åľ¨":7070,"å®ĺåĳĺ":7071,"1996":7072,"ä¸įåĪ°":7073,"ç²¾ç¡®":7074,"å½ĵæĪĳä»¬":7075,"çĶŁæ´»ä¸ŃçļĦ":7076,"æī¶":7077,"ä¸ĭä¸Ģä¸ª":7078,"èĮĤ":7079,"pr":7080,"åħ¬å°º":7081,"æĲ¬":7082,"æĺŃ":7083,"æĬ¤èĤ¤":7084,"æµ·é²ľ":7085,"æŃ¥è¡Į":7086,"åĿĲæłĩ":7087,"é¢ĦæľŁ":7088,"å¿ĥä¸Ń":7089,"æ·ĩ":7090,"è¡¨è¾¾èĩªå·±çļĦ":7091,"åľ°çĲĥä¸Ĭ":7092,"sc":7093,"éĢļè¿ĩå¯¹":7094,"çĽ¸åĬł":7095,"æĶĢ":7096,"Ġ%":7097,"è¯Ħæµĭ":7098,"åĩĨç¡®åľ°":7099,"æ¶¨":7100,"æĽ´æĺ¯":7101,"èĤ²åĦ¿":7102,"éĩİçĶŁ":7103,"Ġlove":7104,"å¿į":7105,"è¿Ļä»½":7106,"çķĶ":7107,"åĪĽç«ĭ":7108,"åŁĶ":7109,"çıįæĥľ":7110,"åīįè¿Ľ":7111,"ows":7112,"æĿŃ":7113,"ä¸Ľ":7114,"æĪĸç¼º":7115,"æĶ¹ç¼ĸ":7116,"éī´åĪ«":7117,"éĢĴå½Ĵ":7118,"ä¸ºä¸Ģ":7119,"è¿Ń":7120,"çļĦæĦıä¹ī":7121,"è¯Ī":7122,"èĳĽ":7123,"èĢģæĿ¿":7124,"æ¯ħ":7125,"æĺ¯ä½įäºİç¾İåĽ½":7126,"æľ¬åľ°":7127,"åį¡å°Ķ":7128,"åĩºåı£":7129,"çªĹæĪ·":7130,"éģ£":7131,"çİ°ä»£ç¤¾ä¼ļ":7132,"1994":7133,"å·¥åİĤ":7134,"æĪĺæľ¯":7135,"æľīäºĨ":7136,"ä¸įå¿ħè¦ģçļĦ":7137,"çĭ®åŃĲ":7138,"96":7139,"çļĦçħ":7140,"å¥¹åľ¨":7141,"åįıåķĨ":7142,"å®ĿèĹı":7143,"ĠãĢĤ":7144,"ä¹ĺä»¥":7145,"çļĦåŃĺåľ¨":7146,"AR":7147,"åıĳçĶŁäºĨ":7148,"åµ":7149,"å±ķç¤ºäºĨ":7150,"æĪĳä»¬è¦ģ":7151,"äººå·¥æĻºèĥ½çļĦ":7152,"ä¹īåĬ¡":7153,"ä¾ĿçĦ¶":7154,"ä¼łè¾ĵ":7155,"åħīåĲĪ":7156,"å¸ĤçļĦ":7157,"è¿Ļå®¶":7158,"ç§ĭå¤©çļĦ":7159,"æĥ©":7160,"çĲĥåľº":7161,"åı¯ä»¥çĶ¨äºİ":7162,"å¿ĹæĦ¿èĢħ":7163,"ç»ĻäºĨ":7164,"æľĢä¸º":7165,"å¹´åīį":7166,"å£«åħµ":7167,"ç¼ĵæħ¢":7168,"ä¸Ģç¯ĩåħ³äºİ":7169,"çļĦä½ľåĵģ":7170,"éĿ¢åĲĳ":7171,"alse":7172,"å¸®åĬ©ä½ł":7173,"æĸĩçī©ä¿ĿæĬ¤åįķä½į":7174,"è´Łæĭħ":7175,"è§£æĶ¾åĨĽ":7176,"å§Ķä¼ļ":7177,"æµıè§Ī":7178,"è´¢æĶ¿":7179,"åĨħåŃĺ":7180,"çĭĲ":7181,"å®Įç¾İçļĦ":7182,"çļĦåıĳçĶŁ":7183,"æľĪäº®":7184,"æ°Ķæ°Ľ":7185,"Ġadd":7186,"ä¸ĬäºĨ":7187,"çħ¸":7188,"å»ºè®®æĤ¨":7189,"ä½įäºİæ³ķåĽ½":7190,"ä¼ĺç¾İ":7191,"æĸ°çĶŁ":7192,"å©Ĩ":7193,"ĠIt":7194,"çļĦçĭĹ":7195,"86":7196,"èį£èªī":7197,"åĹ¯":7198,"ç¨Ģ":7199,"çĨĬçĮ«":7200,"ä¼ĺéĽħ":7201,"æĥħæĦŁåĴĮ":7202,"çĶº":7203,"å¯¹äººç±»":7204,"åĿĩè¡¡":7205,"åħ¬å¯ĵ":7206,"72":7207,"å®ŀéªĮå®¤":7208,"å°Ĩåľ¨":7209,"æĵįä½ľç³»ç»Ł":7210,"æĹ¥çļĦ":7211,"æĹħç¨ĭ":7212,"ä¸»æ¼Ķ":7213,"è¿ĩçļĦ":7214,"ç§ĳæĬĢçļĦ":7215,"å¹¶éĿŀ":7216,"åľ¨éĢīæĭ©":7217,"å®ĩå®ĻçļĦ":7218,"æī¿åıĹ":7219,"ä¸ĸçķĮæĿ¯":7220,"è¥¿æ´ĭ":7221,"æŃī":7222,"å®¶ä¸Ń":7223,"çĶŁçī©åŃ¦":7224,"æİ¨èįĲä¸ĢäºĽ":7225,"å¤ļå½©":7226,"åĽ½ä¼ļ":7227,"1995":7228,"è¶ħè¶Ĭ":7229,"åı¸æ³ķ":7230,"Ġlen":7231,"Chorus":7232,"åħĭåħ°":7233,"è¿ĩå¤ļ":7234,"Ġæ¸¸æĪı":7235,"èĩ³åħ³éĩįè¦ģçļĦ":7236,"éĢļè®¯":7237,"åĲŀ":7238,"è±ªåįİ":7239,"èĤĿ":7240,"ä¹ĲéĺŁ":7241,"å®ŀæĹ¶":7242,"èĤĥ":7243,"å®ĿçŁ³":7244,"é¢ĨåŁŁä¸Ń":7245,"äº¿ç¾İåħĥ":7246,"Ġå®ļæľŁ":7247,"æħĪåĸĦ":7248,"éĿŀå¸¸æĦŁè°¢":7249,"æ¶²ä½ĵ":7250,"å®ĮæĪĲä»»åĬ¡":7251,"ä¼¯çī¹":7252,"ink":7253,"æķĻä¼ļ":7254,"èħĮ":7255,"ä¹ĭä¸ĭ":7256,"æĪĳå¯¹":7257,"ev":7258,"æĺ¯ä¸į":7259,"åŃĹåħ¸":7260,"åĵįåºĶ":7261,"åĶ®åĲİæľįåĬ¡":7262,"])":7263,"ç»Ļäºº":7264,"åī©ä½Ļ":7265,"çŃīå¤ļä¸ª":7266,"ä¸ŃåĽ½ä¼łç»Ł":7267,"çļĦåģ¥åº·":7268,"ä¸ĢçĤ¹":7269,"æİ¢æµĭ":7270,"åŃĹä½ĵ":7271,"çº¬":7272,"ä½Ĩä»ĸ":7273,"åħ´å»º":7274,"ä¸įåĲĮç±»åŀĭçļĦ":7275,"è¾ĥé«ĺçļĦ":7276,"å¥´":7277,"è¡Ģåİĭ":7278,"åħ¬çĽĬ":7279,"æĸ°å¢ŀ":7280,"è¸ı":7281,"old":7282,"äº¿åħĥ":7283,"ç±»ä¼¼äºİ":7284,"åĤ¨èĵĦ":7285,"åĴĮç»´æĬ¤":7286,"èĴĭ":7287,"çªģçł´":7288,"çļĦå¼Ģ":7289,"Ġå¦Ĥæŀľä½ł":7290,"èįīåİŁ":7291,"æķĳæı´":7292,"ĮçĶŁ":7293,"åĿĬ":7294,"æĮ«æĬĺ":7295,"æĸĩä»¶":7296,"çĽ¸åºĶ":7297,"æ®ĸæ°ĳ":7298,"æĪĳä»¬å¿ħé¡»":7299,"éĩĳé»Ħèī²":7300,"ä½łå¯¹":7301,"çļĦæ¸¸æĪı":7302,"ions":7303,"éļ§":7304,"arn":7305,"å¼¯æĽ²":7306,"div":7307,"ç¨³å®ļæĢ§":7308,"åıªéľĢè¦ģ":7309,"æĺ¯ä¸ºäºĨ":7310,"ä¸»å¼ł":7311,"å¸®æĪĳæĥ³":7312,"Ġla":7313,"é©¬æĭī":7314,"ï¼ļ\"))":7315,"åĲİæŀľ":7316,"é¤Ĳé¦Ĩ":7317,"Ġworld":7318,"Ġçĥ¤":7319,"è¿Ļä½¿å¾Ĺ":7320,"ç»´å°Ķ":7321,"ä½įäºİè¯¥åĽ½":7322,"æĲºå¸¦":7323,"æ¸ħæ°´":7324,"æĸ¹ç¨ĭå¼ı":7325,"èº«è¾¹":7326,"å¤´åıĳ":7327,"ĠéĢĤéĩı":7328,"æİ¢ç©¶":7329,"å®¡æŁ¥":7330,"éĴł":7331,"å¾·éĩĮ":7332,"ç°":7333,"çļĦè¯¦ç»Ĩ":7334,"å¯¹çİ¯å¢ĥ":7335,"ä¸ºæ¯ı":7336,"ä¸įåı¯æĪĸç¼º":7337,"ä¸ĵæ³¨äºİ":7338,"æīĳ":7339,"å¯¼èĩ´äºĨ":7340,"åĳ¨åĽ´çļĦ":7341,"ĠæıĲä¾Ľ":7342,"æ·±åľ³":7343,"å¯¹è¯Ŀä¸Ń":7344,"INSE":7345,"æ´ĹåĩĢ":7346,"æĪĳä»¬çļĦçĶŁæ´»":7347,"Ġfe":7348,"sh":7349,"åĲĲ":7350,"æĴ°åĨĻ":7351,"èĻļæĭŁçİ°å®ŀ":7352,"éĢīè´Ń":7353,"å®ģéĿĻ":7354,"æ¹ĸæ³Ĭ":7355,"åĻ¨æĿĲ":7356,"ä¸ºæŃ¢":7357,"ç§ĺä¹¦":7358,"Ġä¿ĿæĮģ":7359,"äººä¸İ":7360,"oogle":7361,"æħ°":7362,"æ·ĩæ·ĭ":7363,"åĴĸåķ¡è±Ĩ":7364,"arg":7365,"ä¸Ģå±Ĥ":7366,"åĴĮåģ¥åº·":7367,"å²Ĺä½į":7368,"åĴĮæ²»çĸĹ":7369,"è¿Ļä¹Łæĺ¯":7370,"çļĦç¿":7371,"é«ĺåĵģè´¨":7372,"æĻĵ":7373,"çļĦæĦıæĢĿ":7374,"æº¶æ¶²":7375,"ä»İä¸Ń":7376,"çļĦåĲįåŃĹ":7377,"åİ¿çļĦä¸Ģä¸ª":7378,"èĮ¶åĮĻ":7379,"åħ¥ä¾µ":7380,"æī¿è¯º":7381,"å±±åĮº":7382,"ç²ĺ":7383,"æĺ¯å¦Ĥä½ķ":7384,"èĬĤçľģ":7385,"çļĦæĸĩåĮĸ":7386,"åĨ°æ·ĩæ·ĭ":7387,"é£İåĲ¹":7388,"è´¤":7389,"åĶ±çīĩ":7390,"åİĦ":7391,"æĪĳåĸľæ¬¢":7392,"åĲ¯ç¤º":7393,"é¥®çĶ¨":7394,"æĮīæĳ©":7395,"æĸ¹æ³ķåĴĮ":7396,"å°¼æĸ¯":7397,"åħīçħ§":7398,"ç§¯ç´¯":7399,"åĨ¯":7400,"åĪĨæķ£":7401,"æľĢè¿ĳçļĦ":7402,"çļĦéķ¿åº¦":7403,"ä¸ŃåĽ½äººæ°ĳ":7404,"è¡į":7405,"å£°æĺİ":7406,"çĸĨ":7407,"æ¶ĪéĻ¤":7408,"600":7409,"å¼ºè°ĥäºĨ":7410,"ä»¥åīį":7411,"æııè¿°ä¸Ģä¸ĭ":7412,"çļĦäººçī©":7413,"å°ıäºİ":7414,"ĠçĶ¨":7415,"é¡¹çĽ®çļĦ":7416,"é¥²":7417,"å¹¶éĢļè¿ĩ":7418,"åįĵè¶Ĭ":7419,"çĪµå£«":7420,"Ġfrom":7421,"å»¶éķ¿":7422,"éĺ²æĻĴ":7423,"æ¶Īè´¹èĢħçļĦ":7424,"fer":7425,"çİīç±³":7426,"ä¸»äººåħ¬":7427,"æĪĸæľįåĬ¡":7428,"rou":7429,"èĥĢ":7430,"ä¿ĥéĶĢ":7431,"æ¼«çĶ»":7432,"çĶµåķĨ":7433,"åĴĮå¤§":7434,"enc":7435,"çĳŀå£«":7436,"è¿Ľç¨ĭ":7437,"alc":7438,"çļĦåŃ£èĬĤ":7439,"ä¸ĬåįĪ":7440,"æ·±åĳ¼åĲ¸":7441,"çŁ¶":7442,"Ġam":7443,"å¥¥æŀĹåĮ¹åħĭè¿ĲåĬ¨ä¼ļ":7444,"åĪļåĪļ":7445,"Âł":7446,"å¢Ļå£ģ":7447,"çĽ¸å¯¹è®º":7448,"å°ıçĭĹ":7449,"åĪĨç¦»":7450,"Ġæ°´":7451,"æĪĳè§īå¾Ĺ":7452,"ä¸ªäººä¿¡æģ¯":7453,"éĿĴå°ĳå¹´":7454,"äººæīį":7455,"è¯»ä¹¦":7456,"åıĺéĿ©":7457,"éĶĲ":7458,"å±ķçİ°äºĨ":7459,"åħ¶ä¸Ńä¸Ģä¸ª":7460,"èģĮä¸ļçĶŁæ¶¯":7461,"æ¸Ķ":7462,"çļĦç¬ĳ":7463,"èĳ±å§ľ":7464,"å¼ºåĮĸ":7465,"çļĦå¸Ĥéķĩ":7466,"æĪĳä»¬ä¹Ł":7467,"Ġä»·æł¼":7468,"å¸¦é¢Ĩ":7469,"åĪĽéĢłåĩº":7470,"æ°ĳéĹ´":7471,"åĩłä½ķ":7472,"Ġsc":7473,"æ¯¯":7474,"ĠåĪ¶å®ļ":7475,"åĴĮæĹ¶éĹ´":7476,"æĪĳä¸ºæĤ¨":7477,"æĬĺæī£":7478,"å¤įåħ´":7479,"åĶĩ":7480,"åºķéĥ¨":7481,"é¢ĸ":7482,"æĪĲå¹´":7483,"1992":7484,"Ġå¥½":7485,"å½Ń":7486,"èŀįåħ¥":7487,"åįĳ":7488,"æīĵçł´":7489,"ĠSystem":7490,"Ġimport":7491,"éĻĮçĶŁ":7492,"çľĭåĩº":7493,"èļģ":7494,"æĢ»éĥ¨":7495,"çļĦäººåı£æķ°éĩı":7496,"äººä»¬å¯¹":7497,"Ġup":7498,"é»ĳæ´ŀçļĦ":7499,"imes":7500,"é«ĺäºİ":7501,"åĵĪåĪ©":7502,"éĿĸ":7503,"çļĦåı¯":7504,"97":7505,"we":7506,"è°ĪåĪ¤":7507,"åį¢çĵ¦":7508,"çŃīæĸ¹éĿ¢çļĦ":7509,"æ´Ĵ":7510,"æĺİäºĨ":7511,"å½ĵä½ł":7512,"ä¸ºæĪĳä»¬":7513,"ä½ıå®¿":7514,"åįłæį®":7515,"1950":7516,"å¤§å¤§":7517,"éĢłåŀĭ":7518,"ä¸¤äººçļĦ":7519,"Ġrandom":7520,"OS":7521,"ä»ĳ":7522,"çĸĳéĹ®":7523,"åĭĭ":7524,"ug":7525,"èªīä¸º":7526,"åĽ½æ°ĳåħļ":7527,"å»ºæĪĲ":7528,"æľīæīĢå¸®åĬ©":7529,"åĴĮçİ¯å¢ĥ":7530,"åĻ¨çļĦ":7531,"æ·±æ·±":7532,"è·¯æĺĵ":7533,"ç¡ķ":7534,"æĮĸæİĺ":7535,"Ġåĩ½æķ°":7536,"çļĦå»ºçŃĳ":7537,"ä»ĺåĩº":7538,"è°¨æħİ":7539,"ä»£æĽ¿":7540,"ç²¾åĩĨ":7541,"æľ¬æ¬¡":7542,"åĲ¯åıĳ":7543,"æľ´":7544,"å¤´éĥ¨":7545,"è¶ħå¸Ĥ":7546,"ä¸įä»ħåı¯ä»¥":7547,"87":7548,"Ġ40":7549,"æĪĲç«ĭäºİ":7550,"çļĦäººçĶŁ":7551,"åĽ½åĬ¡":7552,"ech":7553,"èķ¾":7554,"ä¸ĢèĪ¬æĿ¥è¯´":7555,"çļĦå°ıè¯´":7556,"çŃ¾ç½²":7557,"åĩłç§į":7558,"æķ°æį®åĴĮ":7559,"èº«ä¸Ĭ":7560,"çĮĽ":7561,"Ġgo":7562,"ç¢§":7563,"æĴ°åĨĻä¸Ģç¯ĩ":7564,"utton":7565,"ä¸ĢäºĽåħ³äºİ":7566,"ä½łè®¤ä¸º":7567,"å¥½å¤Ħ":7568,"æİ¨æĸŃ":7569,"å¤įåĪ¶":7570,"Ġ200":7571,"åŀĥåľ¾åĪĨç±»":7572,"ps":7573,"åĲįåı«":7574,"very":7575,"å»ºç«ĭä¸Ģä¸ª":7576,"éģĹåĿĢ":7577,"ĠWh":7578,"çļĦä¸į":7579,"åĨħæ¶µ":7580,"åĮħåĲ«äºĨ":7581,"é«ĺæķĪçļĦ":7582,"çļĦå£°éŁ³":7583,"ä¸ºæ³ķåĽ½":7584,"åıĹä¼Ĺ":7585,"å¸Ĥåľºä¸Ĭ":7586,"çº¿æĢ§":7587,"åĽ¾å½¢":7588,"å¹³éĿĻ":7589,"æĸ°äº§åĵģ":7590,"é©±åĬ¨":7591,"ail":7592,"å¤©æ°Ķé¢ĦæĬ¥":7593,"åĪĩç¢İ":7594,"ä»»æĦı":7595,"Ġäº§åĵģ":7596,"Ġhas":7597,"å¼ķçĶ¨":7598,"åıĳèĤ²":7599,"è®¡ç®Ĺæľºç§ĳåŃ¦":7600,"é¢ĳç¹ģ":7601,"åĿİ":7602,"æŃĩ":7603,"çļĦæĹ¥":7604,"èī°":7605,"å¢ĻéĿ¢":7606,"æ¶ĪåĮĸ":7607,"åĬŁæķĪ":7608,"æ½ĺ":7609,"å·¥äºº":7610,"çļĦåĳ³éģĵ":7611,"å°Ĩå®ĥä»¬":7612,"æ¸Ĳæ¸Ĳ":7613,"Ġ13":7614,"æ²³åĮĹ":7615,"åĮĪ":7616,"éĻ·åħ¥":7617,"æ¼Ķè®²ç¨¿":7618,"éĢĢåĩº":7619,"æııè¿°ä¸Ģä¸ª":7620,"æīĭèĩĤ":7621,"å¯ĴåĨ·":7622,"æł·å¼ı":7623,"åŁĥåıĬ":7624,"ç§¯åĪĨ":7625,"å¯¹åºĶçļĦ":7626,"ç¡«":7627,"å°±èĥ½":7628,"åĩºèº«":7629,"åįģåħŃ":7630,"è´¾å®Ŀçİī":7631,"è·Łè¸ª":7632,"ç©¿è¶Ĭ":7633,"'m":7634,"åı¦ä¸Ģæĸ¹éĿ¢":7635,"æīĵç®Ĺ":7636,"çĲĨçĶ±":7637,"$ãĢĤ":7638,"UTC":7639,"åĽ½ç«ĭ":7640,"çħ¸çĤĴ":7641,"ä¸ĢåĲĮ":7642,"éĥ¨ä»½":7643,"åħ³æ³¨åĴĮ":7644,"å·¥ä½ľåĴĮ":7645,"Ġbreak":7646,"Ġä¸ª":7647,"å¦¥":7648,"åı£ç½©":7649,"çļĦæĢģåº¦":7650,"èī¾ç±³":7651,"æ²¡æľīä»»ä½ķ":7652,"æĸ¯ç§ĳ":7653,"Ġtext":7654,"è¿ĺä¼ļ":7655,"INSEE":7656,"Ġtime":7657,"ä¹¡éķĩ":7658,"æĪĳå¸ĮæľĽ":7659,"ä»£åħ¥":7660,"åľ¨è¯¥":7661,"éĥĬ":7662,"åı¯åı£":7663,"æĹ§å¸Ĥéķĩ":7664,"æĺ¯ä¸ª":7665,"èµĶåģ¿":7666,"App":7667,"52":7668,"èľľèľĤ":7669,"æĤ¨å¥½":7670,"æ¯ĶåĪ©":7671,"éļ¾å¿ĺ":7672,"å·¥ä½ľä¸Ń":7673,"AC":7674,"çļĦç¤¼":7675,"æĸ°é²ľçļĦ":7676,"å¡ŀå°Ķ":7677,"æľīçĽĬ":7678,"è·³è·ĥ":7679,"ä¹Łåı¯èĥ½":7680,"pan":7681,"æĭ¼åĨĻ":7682,"ise":7683,"æ´»åĬ¨çļĦ":7684,"éļ¶å±ŀäºİ":7685,"éļ¾é¢ĺ":7686,"çİ°æĹ¶":7687,"æĺ¯ä¸Ģå®¶":7688,"æľīä¸įåĲĮçļĦ":7689,"Ġè¾ĵåĩº":7690,"ç©ºåĨĽ":7691,"æ¹¿æ¶¦":7692,"çļĦéĥ¨åĪĨ":7693,"èıľè°±":7694,"åħīåĲĪä½ľçĶ¨":7695,"æľīæ°§":7696,"å°ļæľª":7697,"è¯Ħå®ļ":7698,"åĳ¨éķ¿":7699,"éĩįåºĨ":7700,"æ³ķåºŃ":7701,"å¥¥è¿Ĳä¼ļ":7702,"Ġ500":7703,"åį³å°Ĩ":7704,"æľĢéĢĤåĲĪ":7705,"éħ·":7706,"57":7707,"éļ§éģĵ":7708,"çĪ¸":7709,"ml":7710,"ç¼´":7711,"54":7712,"è¿ľç¨ĭ":7713,"åį±å®³":7714,"ä¾ł":7715,"æįŁå®³":7716,"æ¼Ĥäº®":7717,"Ġsome":7718,"æ³ķåħ°":7719,"æĪ¿åŃĲ":7720,"è®²è¿°äºĨ":7721,"å°ĳæķ°":7722,"ä¹Łè¢«":7723,"æĿİæĺİ":7724,"Ġ60":7725,"æ°¯":7726,"ä¹ĲåĽ¢":7727,"çº§åĪ«":7728,"ç¬ĳè¯Ŀ":7729,"æł¡åĽŃ":7730,"æ°ĳä¼Ĺ":7731,"èĩªçĦ¶çļĦ":7732,"çİĩä¸º":7733,"Script":7734,"æĪĳçĽ¸ä¿¡":7735,"ä¼ŀ":7736,"å¤·":7737,"ä½łæľīä»Ģä¹Ī":7738,"ä¸Ļ":7739,"ãĢįãĢģãĢĮ":7740,"è¥¿çº¢":7741,"å±¥":7742,"ä¸ĭè¾ĸä»¥ä¸ĭ":7743,"Ġcont":7744,"å°Ķçī¹":7745,"çļĦå®¶åºŃ":7746,"ç½ķ":7747,"çļĦçģ¯":7748,"åįĩé«ĺ":7749,"69":7750,"æľ¨æĿĲ":7751,"å¸Ĥéķ¿":7752,"çĶµè§Ĩåı°":7753,"è®®éĻ¢":7754,"èħº":7755,"åĩĨç¡®æĢ§":7756,"å¹´è¢«":7757,"åĲĮåŃ¦":7758,"çī¹çĤ¹åĴĮ":7759,"è¯´è¯Ŀ":7760,"çłĶç©¶æīĢ":7761,"éĥ¨ä½į":7762,"æ¸©åĴĮ":7763,"ä¼ļè¢«":7764,"å¿½è§Ĩ":7765,"åĢ¼å¾Ĺä¸Ģ":7766,"ä¼°è®¡":7767,"ä»ĭç»įäºĨ":7768,"ä¸ļç»©":7769,"å¹´å¤ıåŃ£":7770,"è½®èĥİ":7771,"çļĦéķ¿":7772,"æĿ¡çº¦":7773,"atch":7774,"fe":7775,"å¼ĢæĶ¯":7776,"æµ©":7777,"ä»ĸæĽ¾":7778,"åħ¬ä¸»":7779,"ä¿¡å¿ĥ":7780,"ä¸Ńå¼ı":7781,"è¥¿çº¢æŁ¿":7782,"æķ´éĻ¤":7783,"æŀ«":7784,"è¶ĬæĿ¥è¶Ĭå¤ļ":7785,"èĩªå·±åĴĮ":7786,"éĤ®æĶ¿ç¼ĸçłģä¸º":7787,"è¿Ļå°±æĺ¯":7788,"ä½Ĩå®ĥ":7789,"çº¢éħĴ":7790,"æĮĩæķ°":7791,"åįĹæŀģæ´²":7792,"çĭ¸":7793,"é¡¾éĹ®":7794,"åĪĽåĬŀ":7795,"åı£åı·":7796,"çļĦæķ°åŃĹ":7797,"æĺİæĺŁ":7798,"ç¬¬ä¸ĥ":7799,"ç®Ģè¦ģ":7800,"åĿª":7801,"åľ°åĪ©":7802,"å¸®åĬ©æĤ¨":7803,"äººåĬĽ":7804,"indows":7805,"åĸĦäºİ":7806,"èĩªåĬ¨é©¾é©¶":7807,"IT":7808,"å½Ĵçº³":7809,"æ¶ĤæĬ¹":7810,"å¼Ģå¿ĥ":7811,"ç¥ŀè¯Ŀ":7812,"order":7813,"æĺ¯ä»¥":7814,"ory":7815,"æĥ³æ³ķåĴĮ":7816,"Ġapp":7817,"ä¸İä»ĸäºº":7818,"59":7819,"é©¬å°Ķ":7820,"è¿ĺåİŁ":7821,"åĽ°å¢ĥ":7822,"è¡Ģæ¶²":7823,"ations":7824,"å¤ªéĺ³çļĦ":7825,"æĹ¶æľŁçļĦ":7826,"å®³æĢķ":7827,"äººæ°ĳå¸ģ":7828,"ä»·åĢ¼åĴĮ":7829,"words":7830,"æĿĥåĬĽ":7831,"1993":7832,"èĩªçĦ¶çķĮ":7833,"çħ§æĺİ":7834,"çĶŁæĢģçİ¯å¢ĥ":7835,"æİĪæĿĥ":7836,"ç¥ŀå¥ĩ":7837,"ãĢģï¼Ī":7838,"ä¸¤ä¸ªäºº":7839,"è®©äººæĦŁåĪ°":7840,"å¹¶ä¸Ķåľ¨":7841,"å½»åºķ":7842,"åį¸":7843,"éķĩåĮº":7844,"æĸ¯çļĦ":7845,"æ¯ķä¸ļäºİ":7846,"ä¹ĭæĹħ":7847,"ç»Ĩèħ»":7848,"ç©´":7849,"å¯¼èĪª":7850,"Tr":7851,"æľįåĬ¡åĳĺ":7852,"æĪĳè¦ģ":7853,"èĨı":7854,"æıĲåıĸåĩº":7855,"ä»ĸä»¬çļĦå¯¹è¯ĿåĨħå®¹":7856,"æµĵåº¦":7857,"ese":7858,"æıĲé«ĺäºĨ":7859,"æııè¿°äºĨ":7860,"ä¸ĭå±ŀ":7861,"åĪĽæĸ°çļĦ":7862,"è½¦åŀĭ":7863,"å¹½é»ĺ":7864,"å¦Ĥä»Ĭ":7865,"çĸ¼":7866,"æľºéģĩ":7867,"å²³":7868,"åįķåħĥ":7869,"å°ĳçļĦ":7870,"å°ĳéĩı":7871,"èĢģå¹´":7872,"ä¸¤ä¾§":7873,"åĴĮä¸ªäºº":7874,"æĪĲåĬŁåľ°":7875,"éĢĢä¼ĳ":7876,"æķĮäºº":7877,"æĶ¶èİ·":7878,"åįİçĽĽ":7879,"ç²¹":7880,"ä½įæķ°":7881,"æĽ´æĶ¹":7882,"è¯ķè¯ķ":7883,"red":7884,"Ġè¯¥":7885,"é¢ľèī²çļĦ":7886,"åĪĽä½ľä¸Ģé¦ĸ":7887,"å´©":7888,"çļĦç¦":7889,"ï¼ļãĢĤ":7890,"ç±³çļĦ":7891,"æĸ°éĹ»æĬ¥éģĵ":7892,"æİ¥å£¤çļĦå¸Ĥéķĩ":7893,"å»Ĭ":7894,"ç¾İå¦Ļ":7895,"ä¸¥éĩįçļĦ":7896,"èģĶåĲĪåĽ½":7897,"ĠéĿŀå¸¸æĦŁè°¢":7898,"çºłçº·":7899,"ĠæĪĳä»¬":7900,"way":7901,"Ġall":7902,"1970":7903,"ä¸ĸçķĮå¤§æĪĺ":7904,"æĸ¹å¼ıåĴĮ":7905,"çİ°æľī":7906,"çļĦéĩįè¦ģç»ĦæĪĲéĥ¨åĪĨ":7907,"mer":7908,"1949":7909,"ä»¬çļĦ":7910,"çİĦ":7911,"æĮ¤":7912,"åħ¬è½¬":7913,"èĹ¤":7914,"éľĢè¦ģä½¿çĶ¨":7915,"è±¹":7916,"æķ°çĻ¾":7917,"äººæ°ĳæĶ¿åºľ":7918,"åģ¶æķ°":7919,"åĤ¬":7920,"åįĹåĮĹ":7921,"å¨ģå°Ķ":7922,"DP":7923,"å¤§ä¼Ĺ":7924,"éĢĶä¸Ń":7925,"çĮ´":7926,"ç§»æ°ĳ":7927,"å¸¦çĿĢ":7928,"æ±Ĥè§£":7929,"rand":7930,"åĸľåī§":7931,"æĮ¡":7932,"é¥¼å¹²":7933,"å¢ŀæ·»":7934,"åĬ¨çī©çļĦ":7935,"åįİçĽĽé¡¿":7936,"çļĦçı":7937,"å¹´å¼Ģå§ĭ":7938,"åıĳèµ·":7939,"å¾®ç¬ĳ":7940,"åĿļå®ļ":7941,"åĢ¼ä¸º":7942,"æĵħéķ¿":7943,"éľ¸":7944,"\"\"":7945,"Ġï¼Į":7946,"ĠJohn":7947,"å°¼åħĭ":7948,"éĽĢ":7949,"åĩĨç¡®çļĦ":7950,"æ¸©å®¤æ°Ķä½ĵ":7951,"ract":7952,"æĺİæĺ¾çļĦ":7953,"éģĤ":7954,"cess":7955,"åĸĦèī¯":7956,"å¯¹åºĶ":7957,"æĺİç¡®çļĦ":7958,"è®¤è¯ĨåĪ°":7959,"æłĳåı¶":7960,"åĨ°å·Ŀ":7961,"ç¼Ģ":7962,"å¹¶æł¹æį®":7963,"äº§æĿĥ":7964,"åľ¨è¿Ľè¡Į":7965,"rid":7966,"éĹ®é¢ĺåĴĮ":7967,"æĹ¥çĽĬ":7968,"è¦ģç´ł":7969,"æīŃ":7970,"æ´ĽæĿī":7971,"ä¹Łå°Ĩ":7972,"åĭ¾":7973,"å®ŀè¡Į":7974,"å¸ĥé²ģ":7975,"å¾Īå®¹æĺĵ":7976,"æķ°æį®è¿Ľè¡Į":7977,"å«Įçĸĳäºº":7978,"å¤§åİ¦":7979,"sqrt":7980,"åľ°è´¨":7981,"å¥¥åľ°åĪ©":7982,"æıĲé«ĺèĩªå·±çļĦ":7983,"æİªæĸ½æĿ¥":7984,"éĢłæĪĲäºĨ":7985,"æĬĳéĥģ":7986,"æ´ĽæĿīçŁ¶":7987,"åħ¶ä»ĸäºº":7988,"æĥħå¢ĥ":7989,"ä¸īè§Ĵå½¢çļĦ":7990,"èĽĽ":7991,"ä¸ľæĸ¹":7992,"çħ¤":7993,"é»Ħçĵľ":7994,"çļĦçª":7995,"Ġabout":7996,"---|":7997,"çļĦçĭ¬çī¹":7998,"å¥½äºĨ":7999,"åħħè¶³çļĦ":8000,"ä¸ĭåİ»":8001,"èĥ½ä¸įèĥ½":8002,"çĹĽèĭ¦":8003,"¬éĹ´":8004,"åĪĨæĶ¯":8005,"1984":8006,"ype":8007,"æŀ¢":8008,"çļĦçĤ¹":8009,"çļĦçľģçº§":8010,"['":8011,"æ¤İ":8012,"é£ĵ":8013,"anc":8014,"çļĦæĶ¯æĮģ":8015,"èĳ¡èĲĦçīĻ":8016,"åı¯åĨįçĶŁèĥ½æºĲ":8017,"çļĦçķ":8018,"è£ħé¥°åĵģ":8019,"æĻ¯è±¡":8020,"åĲİç»Ń":8021,"çĳŀåħ¸":8022,"äºİæĹ¶":8023,"å¤ıä»¤æĹ¶":8024,"å¹´ç¾İåĽ½äººåı£æĻ®æŁ¥":8025,"è¡«":8026,"è½°":8027,"æįī":8028,"ss":8029,"éĢīåĮº":8030,"å¤ĩåıĹ":8031,"éĹ»åĲį":8032,"æ·±è¿ľçļĦå½±åĵį":8033,"åħ´è¶£çĪ±å¥½":8034,"Cl":8035,"æĭīä¸ģ":8036,"é£ĵé£İ":8037,"éĥ¨ä»¶":8038,"ç§ĳæĻ®":8039,"çļĦåı£æĦŁ":8040,"æ¯Ķå¦Ĥè¯´":8041,"éĹ°å¹´":8042,"æįŀ":8043,"Ġå¾Īå¥½":8044,"è´¨æķ°":8045,"èµĦè®¯":8046,"æıĲåĪ°äºĨ":8047,"èµĦæľ¬":8048,"åıĻè¿°":8049,"çļĦæ¸©åº¦":8050,"èĩªæ²»åĮº":8051,"æĬµè¾¾":8052,"å®½åº¦":8053,"çļĦçħ§":8054,"åıĳéŁ³":8055,"é«ĺçŃī":8056,"ä¸ªæĢ§åĮĸçļĦ":8057,"ä¿®åīª":8058,"æĺŁæĺŁ":8059,"åĲ¬ä¼Ĺ":8060,"ĠĠĠĠĠĠĠĠĠĠĠĠ":8061,"é²į":8062,"å¤ļå¹´":8063,"å¹¶çĶ¨":8064,"çĻ»å½ķ":8065,"å²Ľå±¿":8066,"æķĻåĮº":8067,"ä¸Ńä½¿çĶ¨":8068,"åľ¨æŁĲäºĽ":8069,"ä¸ŃåĽ½åħ±äº§åħļ":8070,"Ġè¿Ļæĺ¯ä¸Ģä¸ª":8071,"è°ĥçłĶ":8072,"ä¸İåħ¶":8073,"ä»ĩ":8074,"ä½ľæĽ²":8075,"å¸Ĥéķĩç¼ĸçłģä¸º":8076,"åĽŀå¤į":8077,"ä¿¡æģ¯åĴĮ":8078,"INSEEå¸Ĥéķĩç¼ĸçłģä¸º":8079,"æ´Ĺè¡£æľº":8080,"åľĨçļĦ":8081,"è¾ĥå°ı":8082,"èĸĽ":8083,"æĶ¶èĹı":8084,"æŀĹé»Ľçİī":8085,"ä¸įéĢĤ":8086,"æľīäºĽäºº":8087,"éĵħ":8088,"åĻ¨å®ĺ":8089,"æ³¢çī¹":8090,"Ġ<<":8091,"æ©¡":8092,"èĬ¯":8093,"å¿½çķ¥":8094,"éĿĴæ¤Ĵ":8095,"åĬŀæ³ķ":8096,"çļĦæĿĲæĸĻ":8097,"è¿½æº¯åĪ°":8098,"æľīæĦıä¹ī":8099,"1988":8100,"åĪĨè£Ĥ":8101,"ä¿Ĭ":8102,"åĬłéĢŁåº¦":8103,"æĺ¯ä¸Ģåº§":8104,"ç¨İåĬ¡":8105,"çļĦç³»":8106,"æĬ½è±¡":8107,"è¿Ļéģĵ":8108,"å£¶":8109,"è¾¾åĪ°äºĨ":8110,"åı¯ä»¥çĶ¨æĿ¥":8111,"ä¸¤æ¬¡":8112,"//":8113,"è¢«èªīä¸º":8114,"5000":8115,"62":8116,"åı¯ä»¥å°Ŀè¯ķ":8117,"1991":8118,"çļĦäººåı£æķ°éĩıä¸ºäºº":8119,"æľīä¸Ģå¤©":8120,"åľ¨è¿Ļç§įæĥħåĨµä¸ĭ":8121,"1960":8122,"æĪĲäºĨ":8123,"ings":8124,"å¯¹å¾ħ":8125,"è®©æĤ¨":8126,"çļĦç½ĳç«Ļ":8127,"è¿Ļä¸ªåı¥åŃĲ":8128,"äºİæĹ¶çļĦäººåı£æķ°éĩıä¸ºäºº":8129,"åĵģçīĮå½¢è±¡":8130,"å¹¶ä»¥":8131,"éĢīåĮºä¸º":8132,"å®īå¾½":8133,"æĥħåĴĮ":8134,"åİ»äºĨ":8135,"å¹¿éĺĶ":8136,"ç®Ģåįķæĺĵ":8137,"ä¸»æĮģäºº":8138,"é¢ľèī²åĴĮ":8139,"è¿ĻæľīåĬ©äºİ":8140,"çĪ±å¥½èĢħ":8141,"å°ıé¸Ł":8142,"å»¶ä¼¸":8143,"åĢĻéĢīäºº":8144,"æķ´æ´ģ":8145,"è¯¥çľģä»½":8146,"æ·Ģç²ī":8147,"Ġro":8148,"åıĳçĶŁåľ¨":8149,"æĪĸæĹ§å¸Ĥéķĩ":8150,"çļĦæŃĮæĽ²":8151,"Ġè¯·éĹ®":8152,"ai":8153,"åĮºåĿĹéĵ¾æĬĢæľ¯":8154,"åı·çłģ":8155,"å®īåħ¨çļĦ":8156,"åľ¨å®¶éĩĮ":8157,"çĽ²":8158,"æīĢå±ŀçļĦçľģçº§":8159,"æīĢå±ŀçļĦçľģçº§éĢīåĮºä¸º":8160,"Ġä¸Ģä¸ª":8161,"åı°é£İ":8162,"ĠTrue":8163,"æĽ´æ·±åħ¥":8164,"éļĲèĹı":8165,"å¤§ä½¿":8166,"Ġend":8167,"å°ıå¿ĥ":8168,"åı¯çĪ±":8169,"åķĨå®¶":8170,"æĪĳä»¬å¯¹":8171,"ï¼ļï¼Ī":8172,"åĦĴ":8173,"ayer":8174,"Ġform":8175,"åķĨåľº":8176,"åı£ç¢ĳ":8177,"ä¸¤ä½į":8178,"èĲ¥ä¸ļ":8179,"åĻªéŁ³":8180,"äºŃ":8181,"èį¯åĵģ":8182,"èĢģé¼ł":8183,"çļĦåĪ¶ä½ľ":8184,"ä¸Ĭæľī":8185,"ä¸ĭä¸Ģ":8186,"èĩªçĦ¶çİ¯å¢ĥ":8187,"çĹħä¾ĭ":8188,"unction":8189,"åĽ½éĺ²":8190,"é«ĺéĢŁåħ¬è·¯":8191,"è®©ä»ĸ":8192,"çļĦè§Ĵèī²":8193,"çº¿ç´¢":8194,"ä¹ĺåĿĲ":8195,"è¯¥çľģä»½ä¸ºæ³ķåĽ½":8196,"åħ¬åĪĨ":8197,"çģ«ç®Ń":8198,"ç¿»è¯ĳæĪĲä¸Ńæĸĩ":8199,"èĩ³äºİ":8200,"æľ¯è¯Ń":8201,"åĪ¹":8202,"åĪĽæĸ°åĴĮ":8203,"å®ĮæĪĲäºĨ":8204,"append":8205,"éĥ½è¢«":8206,"å¾Īä¸įéĶĻ":8207,"æĸ½èĤ¥":8208,"å¹¶æıĲåĩº":8209,"ä¸ĭè¾ĸä»¥ä¸ĭåľ°åĮº":8210,"åĪĨåī²":8211,"è¯·æ³¨æĦı":8212,"éĩĳçīĮ":8213,"ä½Ĩä¹Ł":8214,"ç«Ļåľ¨":8215,"è®°å¾Ĺ":8216,"è®¤åĲĮ":8217,"RO":8218,"æĮĳéĢī":8219,"éĹ¹":8220,"1945":8221,"ç»ĻæĪĳä»¬":8222,"ody":8223,"æĹħå®¢":8224,"ä¹Ĳè§Ĥ":8225,"çĮªèĤī":8226,"CO":8227,"53":8228,"çĢ":8229,"åıįæĺłäºĨ":8230,"çļĦä¸Ń":8231,"æĺ¨":8232,"åİ¿äºº":8233,"ä»½é¢Ŀ":8234,"çŁŃæļĤ":8235,"çĳļ":8236,"ç«Ł":8237,"tring":8238,"èĬ½":8239,"åĲĦç±»":8240,"éħ¶":8241,"æ¢³çĲĨ":8242,"å®īå¾·":8243,"æ°Ķåİĭ":8244,"åľ¨åħ¶":8245,"åŀĤçĽ´":8246,"ä¹łæĢ§":8247,"å»ºç«ĭèī¯å¥½çļĦ":8248,"....":8249,"63":8250,"åı¦ä¸Ģç§į":8251,"åĻ¨åĴĮ":8252,"å¼ķäºº":8253,"éģŃåıĹ":8254,"çļĦç¬¬äºĮ":8255,"åĪ¶ä½ľä¸Ģä»½":8256,"çļĦçĻ½":8257,"ä¸İæŃ¤":8258,"å¥½å¥ĩ":8259,"ä¼ļåĳĺ":8260,"æĬĽ":8261,"pi":8262,"æŀģåħ¶":8263,"SA":8264,"é¦ĸéĥ½":8265,"å¼ĢåĲ¯":8266,"åįĹæĸ¹":8267,"äºĳè®¡ç®Ĺ":8268,"èŀįåĮĸ":8269,"ä¼łæĦŁ":8270,"çļĦè¯Ŀé¢ĺ":8271,"åŀĴ":8272,"åıĳæİĺ":8273,"è¡£çī©":8274,"æŀ¶æŀĦ":8275,"ä¸ĭéĿ¢çļĦ":8276,"åīĬ":8277,"åĬĽåº¦":8278,"é¢Ĩå¯¼èĢħ":8279,"èħĮåĪ¶":8280,"å¹¶æľª":8281,"å®ªæ³ķ":8282,"éĴ¥":8283,"æıĲä¾Ľä¸Ģä»½":8284,"çİĭåŃĲ":8285,"åħ¨æĸ°çļĦ":8286,"æ±īåł¡":8287,"çļĦçĳ":8288,"çļĦä¸Ģåº§":8289,"è¿Ľè¡ĮæİĴåºı":8290,"æĺ¯åĲ¦ä¸º":8291,"ä½Ĩä¸į":8292,"å½±åĥı":8293,"92":8294,"åĽ½çļĦ":8295,"æł¡éķ¿":8296,"ä¸ĭè½½":8297,"æ¯ıæľĪ":8298,"ç¥ŀç»ıç½ĳç»ľ":8299,"ĠæıĲé«ĺ":8300,"ä¸Ĭä¸ĭæĸĩ":8301,"æĪĳä»¬è¿ĺ":8302,"ual":8303,"åİŁæĿ¥":8304,"åĲĮä¹īè¯į":8305,"éĩĳæĺŁ":8306,"çļĦçĪ¶äº²":8307,"å®¢æ°Ķ":8308,"èĨ¨":8309,"è¿Ļåıª":8310,"å¼ķèµ·çļĦ":8311,"ML":8312,"çļĦçľŁå®ŀ":8313,"éĢĿä¸ĸ":8314,"æ¹ĸåĮĹ":8315,"æĪĳæ²¡æľī":8316,"æķħäºĭæĥħèĬĤ":8317,"æĸ¹æ³ķæĿ¥":8318,"æĴ¤éĶĢ":8319,"åĲİæľŁ":8320,"åħįçĸ«åĬĽ":8321,"alcul":8322,"ãĢĭï¼Ī\"":8323,"çĽ¸ä¼¼åº¦":8324,"å®ŀçĶ¨çļĦ":8325,"ina":8326,"Ġ80":8327,"æīĭçİ¯":8328,"éĻįéĽ¨":8329,"ä¸Ī":8330,"å±¯":8331,"èİ·èĥľ":8332,"ä»ĺæ¬¾":8333,"æĨ":8334,"å¼ıçļĦ":8335,"é¢ĨåħĪ":8336,"çļĦç¢":8337,"ï¼ģâĢĿ":8338,"æľīçĶ¨çļĦ":8339,"åıĳçĶŁçļĦ":8340,"åĵ¥ä¼¦":8341,"æ½®æµģ":8342,"ä»£çłģä¸Ń":8343,"ç²¾èĩ´":8344,"æī§å¯¼":8345,"ä¸ĩçī©":8346,"åĨľæ°ĳ":8347,"å¸ĤåľºèĲ¥éĶĢ":8348,"æĽ´åħ·":8349,"åıĶ":8350,"åĴĮæµ·":8351,"çĶ»ä½ľ":8352,"çļĦçł´":8353,"åŃĺåľ¨çĿĢ":8354,"è¡Ģç®¡":8355,"51":8356,"ä»¥ä¸ĭæĺ¯ä¸Ģæ®µ":8357,"æĶ¯æı´":8358,"åħ¶ä½Ļ":8359,"å¤§è±¡":8360,"æĹłå°½":8361,"åĮ»çĸĹä¿Ŀåģ¥":8362,"ä»ĸå¯¹":8363,"ä½ľä¸ļ":8364,"éĢļéģĵ":8365,"åı¯éĿłæĢ§":8366,"ius":8367,"ç¾İæľ¯":8368,"æĬ¬":8369,"Ġä»¥ä¸ĭæĺ¯ä¸Ģä¸ª":8370,"åįĬå²Ľ":8371,"ä»¥ä¸ĭåĩłçĤ¹":8372,"å±Ī":8373,"æ°®":8374,"äºĮä¸ĸ":8375,"æıĲåĲį":8376,"æ²¿çĿĢ":8377,"çĤ¹åĴĮ":8378,"å®¢æĪ·æľįåĬ¡":8379,"å°Ķåħ°":8380,"çĶ¨ä½ľ":8381,"æĿ¿åĿĹ":8382,"æĺ¯å°Ĩ":8383,"çĶŁæ´»åľ¨":8384,"ä¸½èİİ":8385,"è¿Ļä½į":8386,"ç¡®è¯Ĭ":8387,"çŃ¾è®¢":8388,"ä¿Ŀæ¹¿":8389,"ä¸Ģå¸¦":8390,"å®¶åºŃçļĦ":8391,"è¿ĻäºĽä¿¡æģ¯":8392,"çĶµåı°":8393,"çī©è´¨çļĦ":8394,"é²ľèī³":8395,"éĩıåĴĮ":8396,"å¦ĤåĲĮ":8397,"èµĲ":8398,"ä¿¡çĶ¨åį¡":8399,"é¦ĻæĸĻ":8400,"æ¯ıç§į":8401,"çĥŃæ°´":8402,"å®¶éĩĮ":8403,"å½±åĵįåĬĽ":8404,"èĪ°éĺŁ":8405,"è¡¬":8406,"åį¿":8407,"èģĮåĬ¡":8408,"åĪĳäºĭ":8409,"å¤ļé¡¹":8410,"è°ĥåĳ³æĸĻ":8411,"é²¨":8412,"åŁİå¸Ĥè§ĦåĪĴ":8413,"è¿ľç¦»":8414,"ç«ĭåľº":8415,"è¡Įèµ°":8416,"ä¸ºåŁºç¡Ģ":8417,"Ġclass":8418,"æĺ¯æĪĳ":8419,"è§£é¢ĺ":8420,"åħ¨éĿ¢çļĦ":8421,"ier":8422,"åĲīä»ĸ":8423,"æ¶Īæŀģ":8424,"éĢ¼":8425,"ï¼ĮãĢĮ":8426,"åĿĲåľ¨":8427,"è¢Ńåĩ»":8428,"æŃ§è§Ĩ":8429,"åİŁæĸĻ":8430,"çĽĪåĪ©":8431,"Ġout":8432,"ç²¾å½©":8433,"éĵ¶æ²³":8434,"cial":8435,"Ġä¸º":8436,"åĮħæĭ¬ä»¥ä¸ĭ":8437,"æºĲäºİ":8438,"åĪ¶çļĦ":8439,"åĨħåľ¨":8440,"å°±è¯»":8441,"è§ĴèĲ½":8442,"ä¸Ģéĥ¨åĪĨ":8443,"é«ĺç«¯":8444,"åŃĲå¥³":8445,"å¯¹æŃ¤":8446,"èµģ":8447,"ln":8448,"å·¢":8449,"çģ«çģ¾":8450,"å®¢è§Ĥ":8451,"æĿ¥èĩªäºİ":8452,"æĶ¹éĢł":8453,"æĹ¥åĨĽ":8454,"éĿ¢ä¸´çĿĢ":8455,"åıĺä¸º":8456,"åĴĮæķ°æį®":8457,"å¹´åĴĮ":8458,"å¤§èĩ´":8459,"ä»ĸè¿ĺ":8460,"çī©ä¸ļ":8461,"åħ³çĪ±":8462,"ç§Łèµģ":8463,"ä¸Ģä¸ªå°ı":8464,"å¾®æ³¢":8465,"éļıèĳĹ":8466,"ä½łè§īå¾Ĺ":8467,"éĢłæĪĲçļĦ":8468,"åİŁåĳĬ":8469,"Ġval":8470,"éĥ½éĿŀå¸¸":8471,"åº§ä½į":8472,"Ġè¯·ç»ĻæĪĳ":8473,"åºŁå¼ĥ":8474,"æľĢèĳĹåĲįçļĦ":8475,"åĲģ":8476,"æĺ¯ä¸ĭè¾ĸçļĦä¸Ģä¸ª":8477,"æĶ¶åĪ°":8478,"æĢ»çĲĨ":8479,"çĶµåŃĲåķĨåĬ¡":8480,"ç¾İå®¹":8481,"ç»ıæµİåıĳå±ķ":8482,"ĠYou":8483,"iss":8484,"ä¿ĿæĬ¤çİ¯å¢ĥ":8485,"èµ¢å¾ĹäºĨ":8486,"å±Ĭåħ¨åĽ½":8487,"##":8488,"æ¦Ĥè¿°":8489,"çĤĸ":8490,"çİĩåĴĮ":8491,"ä¹ĺæ³ķ":8492,"è¥¿çıŃçīĻè¯Ń":8493,"åľ°å½¢":8494,"è·Į":8495,"Ġoperator":8496,"ä¸Ńå±±":8497,"é¢ĺæĿĲ":8498,"éĿ¢éĥ¨":8499,"æĸ°æīĭ":8500,"æĭīåħĭ":8501,"igh":8502,"çļĦéĤ®æĶ¿ç¼ĸçłģä¸º":8503,"å¤¸":8504,"å·¥ä½ľæķĪçİĩ":8505,"æĦıä¸º":8506,"è½¬åĲĳ":8507,"æ£ķèī²":8508,"Ar":8509,"è¯ķéªĮ":8510,"è¿ĺæľīä¸ĢäºĽ":8511,"æ´»è·ĥ":8512,"å»ºåĪ¶":8513,"èĢĮéĿŀ":8514,"åĽłèĢĮ":8515,"äºļé©¬":8516,"èķ´":8517,"æ¯ĶèµĽçļĦ":8518,"åĨħç½®":8519,"åıĤä¸İèĢħ":8520,"1989":8521,"ä¸»è¦ģçļĦ":8522,"çĶ»å®¶":8523,"åºĶæĢ¥":8524,"åħ¬æĸ¤":8525,"ç´«èī²":8526,"æ²«":8527,"ä¹ĭæĥħ":8528,"ĠåŃ¦ä¹ł":8529,"åĨ»":8530,"èĵĿèī²çļĦ":8531,"æ¡¥æ¢ģ":8532,"å¹²æĹ±":8533,"èµŀæī¬":8534,"äººä»¬åľ¨":8535,"æīįåįİ":8536,"ä¸ĥå¹´":8537,"æĹ¶ä»»":8538,"çļĦè¦ģæ±Ĥ":8539,"ä¹¾":8540,"åĬŁèĥ½åĴĮ":8541,"Ġèĥ½åĲ¦":8542,"ä¼´ä¾£":8543,"èļĢ":8544,"åıĳéħµ":8545,"ä¿®æŃ£":8546,"å¤§è¥¿æ´ĭ":8547,"ä¿¡å¿µ":8548,"ä»¥ä¿ĿæĮģ":8549,"æŀģå¤§çļĦ":8550,"DI":8551,"åı¬å¼Ģ":8552,"å®¶åĽŃ":8553,"å®ŀåĬĽ":8554,"è¡Įä¸ºåĴĮ":8555,"çļĦèīºæľ¯":8556,"ç¬Ķè®°":8557,"åĪĹä¸º":8558,"çļĦä»£çłģ":8559,"åĪ«äººçļĦ":8560,"è´¢åĬ¡çĬ¶åĨµ":8561,"å¼ĺ":8562,"çģŃç»Ŀ":8563,"è¯ŃéŁ³è¯ĨåĪ«":8564,"æ©Ļèī²":8565,"æĺ¯ä¸Ģç§įéĿŀå¸¸":8566,"æľĪèĩ³":8567,"å¥½çľĭ":8568,"color":8569,"erv":8570,"Ġä¸Ģ":8571,"æŃ£æĸ¹å½¢":8572,"ä½ĵåŀĭ":8573,"();":8574,"Jack":8575,"ä»¥ä¸ĭéĹ®é¢ĺ":8576,"éĢĥèĦ±":8577,"æ¯Ľåıĳ":8578,"åĲ¸å¼ķåĬĽ":8579,"èĨ¨èĥĢ":8580,"åĲ¬åıĸ":8581,"çĽ¸éģĩ":8582,"å¤§éģĵ":8583,"éĢļå¸¸åľ¨":8584,"Ġchoice":8585,"84":8586,"æµģè¡ĮéŁ³ä¹Ĳ":8587,"çļĦå¸®åĬ©":8588,"æĪĳä»¬åı¯ä»¥å°Ĩ":8589,"å°½åı¯èĥ½åľ°":8590,"åħ¨éķ¿":8591,"è¯´æĺİä¹¦":8592,"æº¢":8593,"no":8594,"ç»©æķĪ":8595,"æ¬¢ä¹Ĳ":8596,"æĺ¯ä¸Ģä¸ªéĿŀå¸¸":8597,"èĩªèº«çļĦ":8598,"èĪĮ":8599,"è®©èĩªå·±":8600,"è§Ĩéĩİ":8601,"æĤłä¹ħ":8602,"Ġ2021":8603,"å®ĥå°Ĩ":8604,"å¤ªå¤ļ":8605,"ĠéĿŀå¸¸å¥½":8606,"åĬ²":8607,"è¦ģä¿ĿæĮģ":8608,"ä¸įåıĺ":8609,"ç¯ĩæĸĩç«ł":8610,"71":8611,"æķĻç¨ĭ":8612,"ç§ĳçļĦ":8613,"iPhone":8614,"éĿ¢èĨľ":8615,"Ġac":8616,"è½»æĿ¾åľ°":8617,"çļĦçĹħ":8618,"äº¤æµģåĴĮ":8619,"èģļéĽĨ":8620,"é£İåĳ³":8621,"Ġ14":8622,"åĩºåĶ®":8623,"çĶŁçļĦ":8624,"ames":8625,"åįķä¸Ģ":8626,"æĪĲéĥ½":8627,"æĪĲä¸Ģä¸ª":8628,"æĻºèĥ½æīĭæľº":8629,"ener":8630,"ä¸ŃçļĦä¸Ģä¸ª":8631,"å½Ĵç±»ä¸º":8632,"ĠQ":8633,"vel":8634,"åħīçļĦ":8635,"åı¯ä»¥å¢ŀåĬł":8636,"åľ¨å®¶ä¸Ń":8637,"çĽ´çº¿":8638,"æĸ°åħ´":8639,"73":8640,"å¸¸çĶ¨":8641,"Ġwill":8642,"éĵģéģĵ":8643,"éĺ²å®Ī":8644,"æłª":8645,"åı¤èĢģçļĦ":8646,"éĴĵ":8647,"ç¨İæĶ¶":8648,"å¸ĤåľºçļĦ":8649,"ä½łæĥ³":8650,"åľ¨è¿ĩåİ»":8651,"çº§è¡ĮæĶ¿":8652,"ç¤ģ":8653,"å¾®é£İ":8654,"åįģä¸Ģ":8655,"çĶ¨æĪ·åı¯ä»¥":8656,"å¿ĺè®°":8657,"ä½ĵéķ¿":8658,"å¹¿ä¸ľçľģ":8659,"äº¤åıī":8660,"åĨĻä¸Ģæ®µ":8661,"ä»¥ä¿Ŀè¯ģ":8662,"å®¡åĪ¤":8663,"çº³ç¨İ":8664,"to":8665,"ï¼ī.":8666,"æĮº":8667,"è®©å®ĥ":8668,"æĿ¥ç¡®å®ļ":8669,"åķ¤":8670,"æ´ªæ°´":8671,"èĤ¡ä»½":8672,"ĠéļıçĿĢ":8673,"ä»¥æ»¡è¶³":8674,"ä¹Łæ²¡æľī":8675,"ä¹Įåħĭåħ°":8676,"æľīåı¯èĥ½":8677,"å¹¿æ³ĽçļĦåºĶçĶ¨":8678,"çĲĨæĢ§":8679,"ä¹Ļæĸ¹":8680,"anana":8681,"83":8682,"è£¹":8683,"åħ±é¸£":8684,"èĢĲå¿ĥåĴĮ":8685,"æĳ¸":8686,"å®¢è¿Ĳ":8687,"æĢĢçĸĳ":8688,"åı¯ä»¥åĩıå°ĳ":8689,"åįģåħ«":8690,"å¥½åıĭ":8691,"éĹ®åį·":8692,"è±«":8693,"åħ¬åħĥåīį":8694,"çķĻåľ¨":8695,"1985":8696,"Ġåħ¶ä»ĸ":8697,"erse":8698,"æĳ©å°Ķ":8699,"ç»´äºļ":8700,"è°¢è°¢ä½łçļĦ":8701,"å¯¹æĬĹ":8702,"61":8703,"QL":8704,"èĮ¶åı¶":8705,"éĢ¢":8706,"åģļåĪ°":8707,"å¦Ĥä½ķä½¿çĶ¨":8708,"åįİä¸½":8709,"çļĦçī¹å¾ģ":8710,"æŀģä¸º":8711,"åłª":8712,"çŁ¿çī©è´¨":8713,"å¸®å¿Ļ":8714,"æ¬§åħĥ":8715,"æĺ¯å¤ªéĺ³ç³»":8716,"Ġmax":8717,"åĶ¤":8718,"åĲ¯çĶ¨":8719,"åĳ¼åĲģ":8720,"äº¤éĢļæĭ¥åłµ":8721,"èµĦæºĲçļĦ":8722,"çļĦç¬¬ä¸Ģ":8723,"éģĵåħ·":8724,"ç¡¬ä»¶":8725,"çļĦç»ĵæŀĦ":8726,"æ¾¡":8727,"åĢºåĬ¡":8728,"ä»ħä»ħ":8729,"Lucy":8730,"äººå¤§":8731,"è·Łéļı":8732,"å½±åĵįäºĨ":8733,"å¹¶è¿ĶåĽŀ":8734,"äºļé©¬éĢĬ":8735,"å¸Ĳ":8736,"éŁ³ä¹Ĳä¼ļ":8737,"ä¸Ĭæµ·å¸Ĥ":8738,"æĤ¬æĮĤ":8739,"eter":8740,"æķŀ":8741,"è¾¹éķ¿":8742,"å¾·è¯Ń":8743,"ç¨ĭåº¦ä¸Ĭ":8744,"æ³¢éĤ£":8745,"93":8746,"åİļçļĦ":8747,"éħ¸å¥¶":8748,"çŁ®":8749,"Ġcount":8750,"çļĦçĽ®çļĦ":8751,"çº¢èī²çļĦ":8752,"==":8753,"è¯±":8754,"èĬ±çĶŁ":8755,"æ·±å¤Ħ":8756,"æĺ¥èĬĤ":8757,"åĬ«":8758,"è¿Ľåº¦":8759,"éĻĲäºİ":8760,"Pythonä»£çłģ":8761,"æĽ´å¤§":8762,"æľºçļĦ":8763,"åı¯ä»¥å¾ĹåĪ°":8764,"å±ŀä¸ĭçļĦä¸Ģä¸ª":8765,"éĵŃ":8766,"74":8767,"Ġcol":8768,"ç»Ļåĩºä¸Ģä¸ª":8769,"çīĻé½¿":8770,"aw":8771,"ific":8772,"åĩºç§Ł":8773,"ild":8774,"ï¼Ī\"":8775,"éŀĭåŃĲ":8776,"æİĴæ°´":8777,"æµ·åŁŁ":8778,"å½¼å¾Ĺ":8779,"numbers":8780,"æºĥ":8781,"ä¼Ĭæĸ¯":8782,"æľ¬åľŁ":8783,"åĮºåĪĨ":8784,"ä¸įæ»¡":8785,"å®Ŀå®ĿçļĦ":8786,"çĶŁæĪĲä¸Ģç¯ĩ":8787,"æľŁéĻĲ":8788,"æ¯ıä¸ªäººçļĦ":8789,"Ġä¸ºäºĨ":8790,"Ġdis":8791,"âĢĭâĢĭâĢĭâĢĭâĢĭâĢĭâĢĭâĢĭ":8792,"åıįè½¬":8793,"æĮĩæİ§":8794,"date":8795,"ĠéĢļè¿ĩ":8796,"ä¸¤èĢħ":8797,"å¾®ä¿¡":8798,"åħ´è¶£åĴĮ":8799,"èıĬ":8800,"æĪĳæĹłæ³ķ":8801,"æ³¢éĤ£å¥ĳ":8802,"ock":8803,"æ²īæµ¸":8804,"çļĦåĲįç§°":8805,"å¦Ĥæŀľæľī":8806,"åĬłåĪ©":8807,"ä»İæŃ¤":8808,"Ġbut":8809,"âĶ":8810,"åĽ½åĬ¡éĻ¢":8811,"è®°ä½ı":8812,"ade":8813,"åı°ä¸Ń":8814,"æıĲä¾ĽæĽ´":8815,"åı¯æĮģç»ŃæĢ§":8816,"æĸĲæ³¢éĤ£å¥ĳ":8817,"æīĭå·¥èīº":8818,"çī¢":8819,"ength":8820,"ents":8821,"å®ĥä¼ļ":8822,"plo":8823,"ä»İæľª":8824,"apple":8825,"æĹ¥å¸¸çĶŁæ´»":8826,"ĠAl":8827,"å·¥åħ·åĴĮ":8828,"åļ":8829,"è¿ĻäºĽéĥ½æĺ¯":8830,"ï¼ļ$":8831,"è¿Ļä¹Ī":8832,"åĭŁ":8833,"ä»·åĢ¼çļĦ":8834,"ä»£çĲĨ":8835,"Ġå¤ļ":8836,"æĳĦåĥı":8837,"now":8838,"é«ĺéĽĦ":8839,"å½¼æŃ¤çļĦ":8840,"èĢĮè¢«":8841,"ä¸»è¦ģåĨħå®¹":8842,"éľĢè¦ģå¯¹":8843,"Ġdes":8844,"åĬłå¼ºå¯¹":8845,"ä»£è¡¨çĿĢ":8846,"åįµ":8847,"ç»ĪçĤ¹":8848,"èĲ¥åħ»æĪĲåĪĨ":8849,"æłĭ":8850,"å°¸":8851,"éº¦åħĭ":8852,"ä¸Ģåº¦":8853,"åı¯ä»¥çľĭåĩº":8854,"å¦Ĥæŀľæĺ¯":8855,"cur":8856,"ç¼ł":8857,"ç§ĭåŃ£":8858,"ä¸Ģä¸ĸ":8859,"çº§è¡ĮæĶ¿åįķä½į":8860,"éľĢè¦ģå°Ĩ":8861,"å°ıæĿİ":8862,"åıĹå®³":8863,"çī¹åĪ«æĺ¯åľ¨":8864,"æĶ¹åıĺäºĨ":8865,"Ã¡":8866,"ç¼ĸåĨĻä¸Ģç¯ĩ":8867,"åħ±åĲĮåĬªåĬĽ":8868,"æĦ¤":8869,"å·¥ä½ľçļĦ":8870,"Ġid":8871,"è´ª":8872,"ĠæľĢè¿ĳ":8873,"åħ³èģĶ":8874,"ject":8875,"è¿Ļéĥ¨":8876,"ä¸ĭéĽ¨":8877,"æīģ":8878,"ä¸ŃæĢ§":8879,"èģĮä¸ļåıĳå±ķ":8880,"éķ¿åº¦ä¸º":8881,"ĠAI":8882,"å¤§èĩ£":8883,"æł¹æį®ä»¥ä¸Ĭè¿Ļæ®µ":8884,"_{":8885,"å¡Į":8886,"ä¸įæĺİ":8887,"åıĤåĬłäºĨ":8888,"å¸ĥæĭī":8889,"æĪĳå·²ç»ı":8890,"æ²¿æµ·":8891,"å¸®æĤ¨":8892,"æ¸´æľĽ":8893,"Google":8894,"å¼ķèµ·äºĨ":8895,"åı¯åı¯":8896,"è¯¥åħ¬åı¸":8897,"å½ĵæĹ¶çļĦ":8898,"çĭĹçļĦ":8899,"éĻ¨":8900,"é«ĺè¾¾":8901,"ä¼Łå¤§çļĦ":8902,"æīĭæĮĩ":8903,"åįķçĭ¬":8904,"æĪĳè¿ĺ":8905,"åı°åįĹ":8906,"ç½Ĳ":8907,"Ġtheir":8908,"æĿĳåºĦ":8909,"ä¸įä»ħä»ħæĺ¯":8910,"its":8911,"åĮĹç¾İ":8912,"åķ¤éħĴ":8913,"æĪĺåĲİ":8914,"åī§æľ¬":8915,"Sh":8916,"åĶ®ä»·":8917,"åıĪåĲį":8918,"ful":8919,"è®¾è®¡æĸ¹æ¡Ī":8920,"è´µæĹı":8921,"æµģåŁŁ":8922,"ç¦Ħ":8923,"å¤§å¤ļ":8924,"è®¤è¯ģ":8925,"ä¸ĳ":8926,"çļĦé«ĺåº¦":8927,"Ġæķ°æį®":8928,"è¶ĬæĿ¥è¶Ĭå¤ļçļĦ":8929,"åģıè§ģ":8930,"è´Łè´£ç®¡è¾ĸ":8931,"åľ¨åĮ»çĸĹé¢ĨåŁŁ":8932,"åĪ¶å®ļä¸Ģä¸ª":8933,"å¤ĦçĲĨåĻ¨":8934,"çĤİçĥŃ":8935,"æĿ¥å¸®åĬ©":8936,"è¯¯è§£":8937,"ç¥ĸçĪ¶":8938,"oid":8939,"çĽ¸å¤Ħ":8940,"åŃĺåľ¨ä¸ĢäºĽ":8941,"å½ĵäºĭ":8942,"æľĢå¤§åĢ¼":8943,"çīĽæİĴ":8944,"äºĭå®ŀä¸Ĭ":8945,"è¡¨æł¼ä¿¡æģ¯":8946,"å°¤åħ¶æĺ¯åľ¨":8947,"Pythonç¨ĭåºı":8948,"çĪ±å°Ķåħ°":8949,"åĪ©æģ¯":8950,"ç«ŀæĬĢ":8951,"åŃ£åº¦":8952,"çĶ±æŃ¤":8953,"æŀ¯":8954,"æĥ©ç½ļ":8955,"å°¼äºļå·ŀ":8956,"çľģåĴĮ":8957,"éĦ":8958,"ç²¤":8959,"åį°åĪ·":8960,"Ġmore":8961,"æ³Ħéľ²":8962,"Ġwhile":8963,"è´§çī©":8964,"å¤§æķ°æį®":8965,"æıĲä¾ĽæĽ´å¥½çļĦ":8966,"æ³ª":8967,"èĳµ":8968,"äºĨèĩªå·±çļĦ":8969,"éĽķå¡ĳ":8970,"ãĢģãĢģ":8971,"å±ķçİ°åĩº":8972,"åľ¨ä¸įåĲĮ":8973,"éĿĴæĺ¥":8974,"è¿Ľè¡Įè°ĥæķ´":8975,"èº²":8976,"èĩªçĶ±æĦıå¿Ĺ":8977,"æ··åĲĪåľ¨ä¸Ģèµ·":8978,"åĽŀå®¶":8979,"è¿Ľè¡ĮçļĦ":8980,"åı¯è§ģ":8981,"ung":8982,"æĺ¯çĶ±äºİ":8983,"çĥŃçĪ±":8984,"åħ»æĪĲ":8985,"èĢĲçĶ¨":8986,"ä»£çłģè§£éĩĬ":8987,"éĩĩè®¿":8988,"å®ĮæĪĲåĲİ":8989,"åĲĪçº¦":8990,"co":8991,"åĩºå¸Ń":8992,"èĬ¦":8993,"82":8994,"çİ¯ä¿ĿæĦıè¯Ĩ":8995,"81":8996,"éĢīæĭ©éĢĤåĲĪèĩªå·±çļĦ":8997,"è®¡åĪĴåĴĮ":8998,"å¾ĹçŁ¥":8999,"æ°¨":9000,"ä½ĨçĶ±äºİ":9001,"çļĩåĲİ":9002,"ĠæĢ»":9003,"ä¹¡éķĩçº§è¡ĮæĶ¿åįķä½į":9004,"åľŁæĺŁ":9005,"çº¸å¼ł":9006,"è§Ĩè§īæķĪæŀľ":9007,"'ll":9008,"oard":9009,"æ¾³æ´²":9010,"åĴĮåĪĽæĸ°":9011,"è¿Ļä¸ªè¿ĩç¨ĭ":9012,"1986":9013,"ä¸ŃçŃī":9014,"åįĥåħĭ":9015,"You":9016,"å²ģæľĪ":9017,"æĿİåĽĽ":9018,"çĥ¤åĪ¶":9019,"ix":9020,"æľīæ°§è¿ĲåĬ¨":9021,"éĩįè¦ģæĢ§":9022,"åĬłåħ¥éĢĤéĩıçļĦ":9023,"çĶ²æĸ¹":9024,"çļĦåı¥åŃĲ":9025,"len":9026,"æĽ´åĲįä¸º":9027,"åĪĽå§ĭ":9028,"æ¯Ķçī¹":9029,"çĭ¬èĩª":9030,"å¹¶è§£éĩĬ":9031,"è¯·ç»ĻæĪĳ":9032,"åıĮæīĭ":9033,"çĶµç£ģ":9034,"CD":9035,"çļĦè·Ŀç¦»":9036,"è£ķ":9037,"æ³°åĽ½":9038,"å¦Ĥæŀľä½łæĥ³":9039,"åı¯ä»¥è¿½æº¯åĪ°":9040,"å¸¸è§Ħ":9041,"æĶ¿åħļ":9042,"éĺ»æŃ¢":9043,"item":9044,"åħ³åį¡":9045,"ä¸ĭäºĨ":9046,"æĳ©æĵ¦":9047,"æŃ¦è£ħ":9048,"å¹´åºķ":9049,"çļĦéľĢæ±ĤåĴĮ":9050,"èļĤ":9051,"åĨįåº¦":9052,"æ±īè¯Ń":9053,"é¢Ŀå¤ĸçļĦ":9054,"****":9055,"ç¿ģ":9056,"åĥ§":9057,"`ï¼Į":9058,"çļĦåįķè¯į":9059,"åŃĲä¸Ĭ":9060,"æ°´åĮĸåĲĪçī©":9061,"çİ°ä»»":9062,"åĬªåĬĽåĴĮ":9063,"æ¯įä¹³":9064,"åľ°äºĨè§£":9065,"ĠHe":9066,"æŃ¤æ¬¡":9067,"éĩİçĶŁåĬ¨çī©":9068,"times":9069,"åģ¥åº·é¥®é£Ł":9070,"ä½Ĩå®ĥä»¬":9071,"åı¯çĶ¨äºİ":9072,"odel":9073,"ht":9074,"å»ºè®®åĴĮ":9075,"åĨľæĿĳ":9076,"ç§¯æŀģåıĤä¸İ":9077,"ated":9078,"çļĦä¸ī":9079,"åĨ°åĿĹ":9080,"è§£æŀĲ":9081,"æĺŁéĻħ":9082,"æİ¥ç§į":9083,"Int":9084,"ä½ıæĪ¿":9085,"æĦŁåıĹåĪ°äºĨ":9086,"å¹³éĿ¢ä¸Ĭ":9087,"ä¸¤äººçļĦå¯¹è¯ĿåĨħå®¹":9088,"arch":9089,"å¹´äººåı£":9090,"ĠĠĠĠĠĠĠĠĠĠĠĠĠ":9091,"çļĦåķĨåĵģ":9092,"åħīç»ª":9093,"åĩıåİ»":9094,"èı²å¾ĭ":9095,"æľīä¸Ģå®ļçļĦ":9096,"å®ĩå®Ļä¸Ń":9097,"è¾°":9098,"æĴŀåĩ»":9099,"åħīæ»ĳ":9100,"çĭĲçĭ¸":9101,"dex":9102,"æ·»åĬłåĪ°":9103,"çĺ¦":9104,"âĦĥï¼Į":9105,"èĳ±å§ľèĴľ":9106,"æķĪçĽĬ":9107,"èı²å¾ĭå®¾":9108,"ä¸ĵä¸ļäººå£«":9109,"Windows":9110,"çİ©æ³ķ":9111,"ä»¥ä¸ĭæĺ¯ä¸Ģæ®µä¸¤äººçļĦå¯¹è¯ĿåĨħå®¹":9112,"èĲ½åı¶":9113,"æĢ»çĿ£":9114,"éĥ½è¦ģ":9115,"çļĦç¼ĸç¨ĭè¯Ńè¨Ģ":9116,"let":9117,"ä»¥ä¸ĭæĺ¯ä¸Ģä¸ªè¡¨æł¼ä¿¡æģ¯":9118,"æĺ¯å¯¹":9119,"çĶµè·¯":9120,"æŀľæ±ģ":9121,"è¢ģ":9122,"çĲĥçļĦ":9123,"è¿Ńä»£":9124,"æĹ©å¹´":9125,"éħĴç²¾":9126,"ï¼īï¼Ľ":9127,"ï¿":9128,"æłĸæģ¯åľ°":9129,"å¤§å¹ħ":9130,"ä¹ĭåĴĮ":9131,"NBA":9132,"æķ´åĲĪ":9133,"èĥ½å¤ŁæĽ´å¥½åľ°":9134,"ä¹Ŀé¾Ļ":9135,"æİ¢è®¨äºĨ":9136,"æ±ª":9137,"è·³èĪŀ":9138,"æĪ·å¤ĸæ´»åĬ¨":9139,"1987":9140,"å¼¹æĢ§":9141,"æ´¾å¯¹":9142,"è©¹å§Ĩæĸ¯":9143,"åĴĮåŃ¦ä¹ł":9144,"éĴ¦":9145,"åĬłåī§":9146,"ç§ĳåŃ¦çłĶç©¶":9147,"ars":9148,"è§Ĥèµı":9149,"èĢģäºº":9150,"å¤ºå¾Ĺ":9151,"mm":9152,"èĮµ":9153,"ç¾İæĻ¯":9154,"å¸ĤæĶ¿åºľ":9155,"çĽ¸éĤ»":9156,"åĬłåħ¥ä¸ĢäºĽ":9157,"æľīä¸¤ä¸ª":9158,"çŃĭ":9159,"éŁ³ä¹ĲçļĦ":9160,"HT":9161,"åįĪé¤Ĳ":9162,"çļĦåŁºç¡Ģä¸Ĭ":9163,"åı¯è¡ĮçļĦ":9164,"åĵģçīĮåĴĮ":9165,"na":9166,"äººä¸º":9167,"æľīå¤ļ":9168,"æĺ¯ä¸ĭè¾ĸçļĦä¸Ģä¸ªä¹¡éķĩçº§è¡ĮæĶ¿åįķä½į":9169,"çĥ·":9170,"ä¸Ńåħ±ä¸Ńå¤®":9171,"åĲĮæĹ¶ä¹Łåı¯ä»¥":9172,"æľīåĪ©äºİ":9173,"Ġ1000":9174,"æ¢µ":9175,"è¯ļå®ŀ":9176,"çļĦèĩªçĦ¶":9177,"æ¯ıæĹ¥":9178,"å¹¶ä¿ĿæĮģ":9179,"ä¸¢":9180,"åĨ²åĩ»":9181,"æ²³çķĶ":9182,"å¿ħéľĢ":9183,"æĪĳä»¬ä½¿çĶ¨":9184,"çªĹå¸ĺ":9185,"ä¹Ŀå¹´":9186,"åĩºæĿ¥çļĦ":9187,"æ±īåŃĹ":9188,"åĲİèĢħ":9189,"æĬµæĬĹ":9190,"å¼Ģè®¾":9191,"ä¸ĢæĶ¯":9192,"é£İåħī":9193,"çļĦçŁ³":9194,"åı¥åŃĲä¸Ń":9195,"åŁºçĿ£æķĻ":9196,"IP":9197,"å·«":9198,"æ³¨åħ¥":9199,"ä¸įåĲĮç§įç±»":9200,"ä½İäºİ":9201,"ï¿¥":9202,"ä¸ĢäºĽäºº":9203,"ä¸ŃçļĦåºĶçĶ¨":9204,"è½¦çļĦ":9205,"çİĭæľĿ":9206,"é¸¿":9207,"ä¿¡ä»»åĴĮ":9208,"åĲĦé¡¹":9209,"çĮľæµĭ":9210,"åĬŀçĲĨ":9211,"çĶµåŃĲäº§åĵģ":9212,"å£°ç§°":9213,"verse":9214,"999":9215,"æł¹æľ¬":9216,"æĮª":9217,"æĶ¶è´Ń":9218,"çļĦåĲ«ä¹ī":9219,"æĻĭåįĩ":9220,"ç¦»å©ļ":9221,"æŃ£ä¹ī":9222,"æĤ²ä¼¤":9223,"èµ·çĤ¹":9224,"ç¼ħ":9225,"åģľè½¦åľº":9226,"Ġé«ĺ":9227,"åıĭæĥħ":9228,"è¯ģå®ŀ":9229,"ä»ĸä¹Ł":9230,"ä¼ĺçĤ¹åĴĮ":9231,"Ġlet":9232,"çļĦåĴĮ":9233,"è¡Įç¨ĭ":9234,"æ¸ħçĪ½":9235,"åĽ¢ç»ĵ":9236,"ä¸ºæŃ¤":9237,"åģ¥èº«æĪ¿":9238,"èĭıæł¼åħ°":9239,"å¤ĸåĽ½":9240,"åľ¨æµ·":9241,"éĤª":9242,"èĨĿ":9243,"å·²æľī":9244,"èļĤèļģ":9245,"94":9246,"è¿ĩæķı":9247,"æĿ¡ä»¶ä¸ĭ":9248,"çīł":9249,"æĪĳä»¬åħ¬åı¸":9250,"ale":9251,"åĪ¶ä½ľçļĦ":9252,"å½ĵå±Ģ":9253,"æĺ¯è°ģ":9254,"ä¼ĺç¾İçļĦ":9255,"åľ¨è´Ńä¹°":9256,"ä¸Ģè¾Ĩ":9257,"çļĦç¼º":9258,"æĺ¥åŃ£":9259,"åİĭç¼©":9260,"ä¸įæĸŃçļĦ":9261,"åħ±æľīäººåı£":9262,"æ·¡æ°´":9263,"æĢ»é¢Ŀ":9264,"èĢĮå¼Ĥ":9265,"åĬłå¤§":9266,"çĶ¨é¤Ĳ":9267,"ç»Ļå®ļä¸Ģä¸ª":9268,"___":9269,"Ġä¸İ":9270,"æ¹Ľ":9271,"çĤŃ":9272,"Ġ24":9273,"å¯¹ç§°":9274,"çĪ·":9275,"ask":9276,"ç¨ĭåºıåĳĺ":9277,"æŀľå®ŀ":9278,"åĿĩä¸º":9279,"å½±åĵįåĪ°":9280,"éľĢè¦ģæĪĳä»¬":9281,"è¿ĻæĹ¶":9282,"å¤ĸçķĮ":9283,"åĴĮå¤ĦçĲĨ":9284,"åĪ°æĿ¥":9285,"åĲĦåĽ½":9286,"ç§©":9287,"Ġwork":9288,"åĲįè¨Ģ":9289,"ä¼ģä¸ļå®¶":9290,"çļĦä¸¤ä¸ª":9291,"è¾ĥå¤§çļĦ":9292,"å¸Ĥåľºä»½é¢Ŀ":9293,"lst":9294,"çĩķéº¦":9295,"è¿ĳæľŁ":9296,"çļĦç¬¬ä¸Ģä¸ª":9297,"åªļ":9298,"Ġ19":9299,"æĿĢæŃ»":9300,"åħ¶ä¸Ńä¸Ģç§į":9301,"æŃ¦æ±ī":9302,"hip":9303,"Ġday":9304,"éĩĮç¨ĭ":9305,"çļĦç½ĳç»ľ":9306,"å°ī":9307,"åķĨäºº":9308,"250":9309,"isa":9310,"çļĦçł´åĿı":9311,"æ³ķæ¡Ī":9312,"éĥ½æľīçĿĢ":9313,"è¡¨æł¼ä¸Ń":9314,"å½¢æĪĲä¸Ģä¸ª":9315,"éļĶç¦»":9316,"çĶµå½±çļĦ":9317,"min":9318,"æĪĳæĥ³çŁ¥éģĵ":9319,"äºļåİĨ":9320,"æŁłæª¬æ±ģ":9321,"åľ¨å¤§":9322,"æĦŁåĪ°éĿŀå¸¸":9323,"çĸ¼çĹĽ":9324,"å¯¿åı¸":9325,"çļĦç¬ĳè¯Ŀ":9326,"æĥĬåĸľ":9327,"ä¸»è¦ģåĮħæĭ¬":9328,"çıĬçĳļ":9329,"ä¹ŁåºĶè¯¥":9330,"é©¬æĸ¯":9331,"ç©ºæ°Ķä¸Ń":9332,"é¤Ĳæ¡Į":9333,"å¹¶è¾ĵåĩº":9334,"An":9335,"æ°ĳä¸»åħļ":9336,"çĦĻ":9337,"åĪ¹è½¦":9338,"èŁ¹":9339,"éħ¥":9340,"åīįæĿ¥":9341,"ĠæĤ¨å¥½":9342,"æķ£å°Ħ":9343,"åĵ¥ä¼¦æ¯Ķäºļ":9344,"ä¸»é¢ĺæĺ¯":9345,"1982":9346,"èµ·äºĨ":9347,"æŁıæŀĹ":9348,"ude":9349,"æ·±åıĹ":9350,"æħ¢æħ¢åľ°":9351,"çļĦç¾İåĽ½":9352,"åľ¨æ°´":9353,"ç±»çļĦ":9354,"ç®ĢåĮĸ":9355,"å¥ĩæĢª":9356,"åĴĮæĹł":9357,"åĨħéĥ¨çļĦ":9358,"æľ¬ç§ĳ":9359,"çī©èģĶç½ĳ":9360,"æĢĿå¿µ":9361,"åĶĲä»£":9362,"åı¯ä»¥å¸®åĬ©äººä»¬":9363,"Ġæ£ĢæŁ¥":9364,"è¡¨éĿ¢çļĦ":9365,"åħħåĪĨçļĦ":9366,"assword":9367,"æĸĲæ³¢éĤ£å¥ĳæķ°åĪĹ":9368,"æĸ¯æĭī":9369,"åı¯è§Ĩ":9370,"è¿Ļæĺ¯ä¸Ģç§į":9371,"æ°ĶæĹĭ":9372,"çĶ¸":9373,"ç»ĳ":9374,"91":9375,"å¤ĸæĺŁ":9376,"ics":9377,"åµĮ":9378,"ç¡¬å¸ģ":9379,"å¥ĩæķ°":9380,"åħĭéĩĮæĸ¯":9381,"ä»Ļäºº":9382,"è®¨è®ºäºĨ":9383,"åľ¨æĪĳ":9384,"ä¼¸å±ķ":9385,"åĴĮèĪĴéĢĤ":9386,"05":9387,"çļĦåĩºçİ°":9388,"çĥ§èĤī":9389,"ĠåķĨåĵģ":9390,"äººæĸĩ":9391,"åĶĲæľĿ":9392,"åħ¥éĢī":9393,"æī©å¼ł":9394,"æĢ¡":9395,"åįģåŃĹ":9396,"rix":9397,"åĪĩçīĩ":9398,"æĭ¨":9399,"çŁŃæľŁ":9400,"é«ĺè´¨éĩıçļĦ":9401,"åģļçļĦ":9402,"æľīå¤ļå°ĳ":9403,"éģŃéģĩ":9404,"å¦ĥ":9405,"å¸ĥå°Ķ":9406,"èĥ¡æ¤Ĵç²ī":9407,"çļĦç¨İ":9408,"å¤ľéĹ´":9409,"æĶ¾ç½®åľ¨":9410,"ä¸įéĶĻçļĦéĢīæĭ©":9411,"æ¶Ĥä¸Ĭ":9412,"è¤":9413,"çī¹çļĦ":9414,"æ¹ĺ":9415,"åľ°çĲĥä¸ĬçļĦ":9416,"å·²æĪĲä¸º":9417,"å§Ķä¹¦è®°":9418,"aus":9419,"Ġhel":9420,"æİĪäºĪ":9421,"å¹¿è¥¿":9422,"æľºåĴĮ":9423,"ä¸įåıĹ":9424,"éľĢè¦ģå¸®åĬ©":9425,"é¸ŁåĦ¿":9426,"åŁĥå°Ķ":9427,"è¥¿èĹı":9428,"äº¤éĢļå·¥åħ·":9429,"ç¢°æĴŀ":9430,"åĩ¸":9431,"çļĦè§Ĵåº¦":9432,"çĻ»éĻĨ":9433,"è´¢åĬ¡æĬ¥è¡¨":9434,"æľ¬ç«Ļ":9435,"æ½®æ¹¿":9436,"Ġæ³¨æĦı":9437,"é²ľèĬ±":9438,"man":9439,"æĶ¾æĿ¾èº«å¿ĥ":9440,"ä¸Ģä¸ªç®ĢåįķçļĦ":9441,"az":9442,"çļĦæĹ¶å°ļ":9443,"æĬķè¯ī":9444,"JavaScript":9445,"æ¼ĶåĶ±ä¼ļ":9446,"ams":9447,"æĪĳå»ºè®®":9448,"çļĦæľĢ":9449,"çļĦå®ļä¹ī":9450,"æĸ¯å¡Ķ":9451,"left":9452,"éĩĳéĴ±":9453,"Ġåħĥ":9454,"éĩĩè´Ń":9455,"ç¾½æ¯ĽçĲĥ":9456,"åĴĮæľĭåıĭ":9457,"çļĦæĢ§èĥ½":9458,"åħ¶åľ¨":9459,"ç¥Ģ":9460,"åĤħ":9461,"æĬĺåıł":9462,"è¿Ļå¹ħ":9463,"Ġ[]":9464,"ç¦ħ":9465,"åİŁæĿĲæĸĻ":9466,"ç§ĳåŃ¦å®¶ä»¬":9467,"ä¹Łæĺ¯ä¸Ģä¸ª":9468,"å¦ĩå¥³":9469,"è¯¥æĢİä¹Ī":9470,"éĴĻ":9471,"åħŃå¹´":9472,"rit":9473,"åıĺå¾Ĺè¶ĬæĿ¥è¶Ĭ":9474,"é©³":9475,"éľŀ":9476,"åĬłå·ŀ":9477,"è¢«è¿«":9478,"ä¾ĿéĿł":9479,"èĴ¸æ±½":9480,"é¤Ĳåħ·":9481,"çĪª":9482,"æ¶¤":9483,"è®©è¯»èĢħ":9484,"ĠSh":9485,"Ġget":9486,"ape":9487,"è½¬åŀĭ":9488,"é±¼çº²":9489,"èĪ±":9490,"çķı":9491,"ane":9492,"åĩłå¹´":9493,"æ¸©æŁĶ":9494,"é©¬éĩĮ":9495,"ä¾¿å®ľ":9496,"éħįä»¶":9497,"éĥ¨ç½²":9498,"å¸®ä½ł":9499,"ä¼ļäº§çĶŁ":9500,"èĪŁ":9501,"åĪ©çļĦ":9502,"è°·æŃĮ":9503,"çĶŁçī©å¤ļæł·æĢ§":9504,"ari":9505,"å»ºç«ĭäºĨ":9506,"çİ©å®¶éľĢè¦ģ":9507,"æİ¨ç§»":9508,"ven":9509,"åŃĺåľ¨äºİ":9510,"çİ¯ä¿ĿçļĦ":9511,"åįİä¸º":9512,"è¿Ŀæ³ķ":9513,"èĹ©":9514,"ç±»åŀĭåĴĮ":9515,"è´¨çĸĳ":9516,"ä¿®å»º":9517,"ä½ľä¸ºä¸Ģä¸ª":9518,"å®¶ä¹¡":9519,"åħ¶ä¸ŃæľĢ":9520,"å¾Īå¤ļäºº":9521,"ond":9522,"æ¨¡æĿ¿":9523,"çİ°åľ¨è¯·":9524,"æĮģä¹ħ":9525,"åĮħæĭ¬äºĨ":9526,"æīĵç²ī":9527,"äºīåıĸ":9528,"Ġåħ¬åı¸":9529,"ä¸Ģå®ļä¼ļ":9530,"èĲ¨æĸ¯":9531,"éĩĩåıĸè¡ĮåĬ¨":9532,"å¤±åİ»äºĨ":9533,"çĶ·å¥³":9534,"èĮ«":9535,"1983":9536,"çļĦçĮ«":9537,"ater":9538,"æĬĢæľ¯çļĦåıĳå±ķ":9539,"è¿Ļä¸¤":9540,"çĲĥä¼ļ":9541,"éĩįçļĦ":9542,"Ġå¸®æĪĳ":9543,"çĭ¬ç«ĭçļĦ":9544,"ä¿¡æģ¯çļĦ":9545,"æĪ¿ä»·":9546,"æīĢæľīäºº":9547,"å¯¼èĩ´çļĦ":9548,"å°ģéĹŃ":9549,"tw":9550,"å¹¶æıĲé«ĺ":9551,"å®ŀä¾ĭ":9552,"æ·®":9553,"ãĢĢãĢĢ":9554,"å¸ĪèĮĥ":9555,"æ¤Ń":9556,"è¿Ļä¸ªæķħäºĭ":9557,"åĽłæŃ¤åľ¨":9558,"Ġcur":9559,"åįģäºĶ":9560,"å¤ļäºº":9561,"å¥ĩå¦Ļ":9562,"èĻļåģĩ":9563,"ç¡ķå£«":9564,"è§Ĵèī²ä¿¡æģ¯":9565,"éĻ¢éķ¿":9566,"å®ŀçİ°äºĨ":9567,"avid":9568,"ru":9569,"éĺ²æĬ¤":9570,"yle":9571,"åĬłå¿«":9572,"å¤±èĲ½":9573,"å¤©æķ°":9574,"èĻļæŀĦ":9575,"nums":9576,"éģ¿åħįä½¿çĶ¨":9577,"åĳ½åĲįä¸º":9578,"ä¼łæĦŁåĻ¨":9579,"ä¸ºçĶ¨æĪ·":9580,"è¿ĽåĪ¶":9581,"æĿı":9582,"ĊĠĠĠĠĊĠĠĠ":9583,"æīĢå¾Ĺç¨İ":9584,"Ġproduct":9585,"æĺ¯ä¸Ģé¢Ĺ":9586,"çĲĨäºĭ":9587,"åŃĺæ¬¾":9588,"éĥ½åºĶè¯¥":9589,"ä½ĵåĨħ":9590,"åıįå¤į":9591,"rent":9592,"åĴĮä½ł":9593,"é¤ĲåİħçļĦ":9594,"éĿ¢è¯ķå®ĺ":9595,"åıĺæĪĲäºĨ":9596,"è´«åĽ°":9597,"AM":9598,"çĭŃ":9599,"äººåı£å¯Ĩåº¦ä¸ºæ¯ı":9600,"ä¹¾éļĨ":9601,"äºĨä¸Ģç³»åĪĹ":9602,"println":9603,"åĩ¶":9604,"åľ¨éĤ£éĩĮ":9605,"æľĢéĩįè¦ģçļĦæĺ¯":9606,"å¥ł":9607,"èĽĻ":9608,"æĪĳæĿ¥":9609,"çĦ¶åĲİåĨį":9610,"æĿ¯åŃĲ":9611,"button":9612,"éĢīåĩº":9613,"æĤ¨åı¯ä»¥åľ¨":9614,"çļĦç¤º":9615,"æµģæ´¾":9616,"é¥®é£Łä¹łæĥ¯":9617,"èĲ¥è¿Ĳ":9618,"æĸ°çĶŁåĦ¿":9619,"entence":9620,"æīĢè°ĵ":9621,"çļĦä¸¤":9622,"è¯Ńæ°Ķ":9623,"æĢ»åħ±":9624,"èĤ¿":9625,"ä»¥è¾¾åĪ°":9626,"åŁºç¡Ģè®¾æĸ½":9627,"Ġman":9628,"éĢ¸":9629,"ç´łé£Ł":9630,")^":9631,"ä»Ĭå¤©çļĦ":9632,"åĨĻåŃĹæ¯į":9633,"ç»ĺåĪ¶":9634,")ãĢģ":9635,"å¤§æ¡¥":9636,"ä¹¡æĿĳ":9637,"ĠZ":9638,"Ġpe":9639,"èµ·åĪ°":9640,"æĦŁæģ©":9641,"éľĢè¦ģæĽ´å¤ļçļĦ":9642,"\");":9643,"Ġpublic":9644,"å¸ħ":9645,"æĸ¯åŁº":9646,"çĬ¹å¤ª":9647,"æ´Ĺæ¾¡":9648,"æ²»çĲĨ":9649,"ç»ıæµİåŃ¦":9650,"æľĪåĪĿ":9651,"äº¤åĵį":9652,"kg":9653,"è´¨åľ°":9654,"éĢīåıĸ":9655,"éĶĻè¯¯çļĦ":9656,"ä¸»ä¹īèĢħ":9657,"è®©çĶ¨æĪ·":9658,"ç»¼åĲĪèĢĥèĻĳ":9659,"Pl":9660,"éĴ»çŁ³":9661,"è¯¥åľ°çļĦ":9662,"åĮĹèµ·":9663,"å¹¼åĦ¿":9664,"çĿ¡è§ī":9665,"ç½ĳç»ľå®īåħ¨":9666,"æİ©":9667,"éħ±æ±ģ":9668,"ele":9669,"Sar":9670,"pos":9671,"æ¯ıå°ıæĹ¶":9672,"æĪĳæľĢè¿ĳ":9673,"è¾Ĳé³į":9674,"ansl":9675,"sorted":9676,"äºĨè§£èĩªå·±çļĦ":9677,"å¾Īéĩįè¦ģ":9678,"æ¤°":9679,"æĳ§":9680,"Ġmain":9681,"çŃĶæ¡Īæĺ¯":9682,"ool":9683,"ĠWorld":9684,"æľĹçİĽ":9685,"æ¯ĶèĲ¨":9686,"å°¾å·´":9687,"åĨħéĻĨ":9688,"æĪĳçŁ¥éģĵ":9689,"æĶ¶å½ķ":9690,"å¦Ĥæŀľä½łåĸľæ¬¢":9691,"å®¹çº³":9692,"ä¸ŃåĮ»":9693,"æ¼ıæ´ŀ":9694,"'re":9695,"éķ¿åŁİ":9696,"è¡Įä¸ļçļĦ":9697,"ç©ĨæľĹçİĽ":9698,"set":9699,"æ¢¨":9700,"æľįåĬ¡åĻ¨":9701,"å®ĥä»¬ä¹ĭéĹ´çļĦ":9702,"åħĪè¿ĽçļĦ":9703,"å¢ħ":9704,"é¥²åħ»":9705,"}$":9706,"åĮĪçīĻ":9707,"è¡¨æĥħ":9708,"éĵĿ":9709,"æ°¸æģĴ":9710,"éĺ¿æĭīä¼¯":9711,"çļĦèĬ±":9712,"BM":9713,"çĽ¸å¯¹äºİ":9714,"åľ°å¸¦":9715,"çľī":9716,"åľŁèĢ³":9717,"ĠåĮĹäº¬":9718,"èįīåľ°":9719,"è¾Ĳé³įé±¼çº²":9720,"åı¯ä¹Ĳ":9721,"å½ĵå¤©":9722,"æİĮæİ§":9723,"çī©èµĦ":9724,"å¯¨":9725,"åĢ¾åĲĳäºİ":9726,"éĶĢéĩı":9727,"å¾ħéģĩ":9728,"åĴĮäººç±»":9729,"æĶ¿æĿĥ":9730,"åĳĬè¯īæĪĳä»¬":9731,"ç®¡éģĵ":9732,"æĮģæľī":9733,"æııè¿°ä¸Ģç§į":9734,"çİ°åľ¨çļĦ":9735,"å±Ģéķ¿":9736,"çī©åĴĮ":9737,"äººä»¬åı¯ä»¥":9738,"å¤«äºº":9739,"åĲ¸å¼ķäºĨ":9740,"çĦ°":9741,"ä¾Ŀæ¬¡":9742,"èĤ¡ä¸ľ":9743,"åĪĩåī²":9744,"éĤ¨":9745,"å¹¸ç¦ıæĦŁ":9746,"æĺ¯ä»İ":9747,"åĬłä»¥":9748,"å¼Ģå¤´":9749,"åĽ¢éĺŁçļĦ":9750,"æĦŁåĬ¨":9751,"åĮĸåŃ¦çī©è´¨":9752,"å¼Ģå§ĭäºĨ":9753,"ely":9754,"æĪĺèĥľ":9755,"éĿŀå¸¸å¥½":9756,"æĪĸä¸į":9757,"æģ¤":9758,"æ¼«æŃ¥":9759,"å½©èĻ¹":9760,"ä»¥åıĬå¦Ĥä½ķ":9761,"è¿Ļé¦ĸæŃĮ":9762,"åľ¨ä¸įåĲĮçļĦ":9763,"Ġsp":9764,"é¢ĩ":9765,"å¤ļäºĳ":9766,"ç»Ĩèĩ´":9767,"æĬ¥å¯¼":9768,"åĪ¶ä½ľæĸ¹æ³ķ":9769,"çİ°çĬ¶":9770,"å¹´çĶ±":9771,"æĦıåĽ¾":9772,"ner":9773,"åį«çĶŁéĹ´":9774,"ä¸Ģé¢Ĺ":9775,"èĮİ":9776,"èĢĮåıĪ":9777,"çĻĮçĹĩ":9778,"çŀ¬éĹ´":9779,"æļ´éľ²":9780,"Ġmake":9781,"åĬ¿åĬĽ":9782,"orm":9783,"åĪĹè¡¨ä¸ŃçļĦ":9784,"å°ĬéĩįåĴĮ":9785,"éķ¿æ±Ł":9786,"éķ¿è¾¾":9787,"äºĨè§£ä¸Ģä¸ĭ":9788,"æ¸ħæĻ°çļĦ":9789,"èĲ½åľ¨":9790,"ä¸İæŃ¤åĲĮæĹ¶":9791,"ç©ĨæľĹçİĽå³°":9792,"éĥ¨åĴĮ":9793,"ãĢĬãĢĭ":9794,"æķĻèĤ²åĴĮ":9795,"å¼Ģåħ³":9796,"æİĴéĻ¤":9797,"èıł":9798,"éľĢè¦ģæľī":9799,"å±¥è¡Į":9800,"ä¸ºåħ¶":9801,"çŁ³æ²¹":9802,"âĢĿï¼ĮâĢľ":9803,"else":9804,"while":9805,"ç»ıåİĨäºĨ":9806,"æ´»åĬ¨åĴĮ":9807,"çİĩé¢Ĩ":9808,"ä¿ĿæĮģèī¯å¥½çļĦ":9809,"å¨ĥ":9810,"çī¹åĪ«çļĦ":9811,"è®¾å¤ĩçļĦ":9812,"åľŁèĢ³åħ¶":9813,"ä¿¯":9814,"èĪªçıŃ":9815,"Ġå¦ĤæŀľæĤ¨":9816,"åĮħå®¹":9817,"æĺı":9818,"åı²ä¸Ĭ":9819,"æİĴéª¨":9820,"å°ıéķĩ":9821,"é²Ī":9822,"ä¸¹éº¦":9823,"èµ·è¯ī":9824,"èĥĸ":9825,"çļĦçľ¼çĿĽ":9826,"åħ¥æīĭ":9827,"æ¯ıä¸ªåįķè¯į":9828,"Ġalso":9829,"ä¸ºä¸»è¦ģ":9830,"èĢģèĻİ":9831,"è¶£åĳ³":9832,"è¥¿å®ī":9833,"åı¯ä¾Ľ":9834,"éĢĤåĲĪèĩªå·±çļĦ":9835,"é³ŀ":9836,"ĨĴ":9837,"å¹³åı°ä¸Ĭ":9838,"åĿĿ":9839,"å°Ĩè¿ĻäºĽ":9840,"éĥ¨çļĦ":9841,"äººçĶŁçļĦ":9842,"åĲĦä½į":9843,"çļĦåľºæĻ¯":9844,"å²ģæĹ¶":9845,"aut":9846,"äºĶç§į":9847,"è§ĤçĤ¹åĴĮ":9848,"çº½çº¦å¸Ĥ":9849,"åĵĳ":9850,"éª¨éª":9851,"çļĦåĽłç´ł":9852,"Ġæµ·":9853,"ä¸Ĭå¸Ĥ":9854,"ç¢³æ°´åĮĸåĲĪçī©":9855,"ä»İèĢĮæıĲé«ĺ":9856,"åı¯ä»¥è¿Ľè¡Į":9857,"è°¢è°¢ä½ł":9858,"èĵ¬":9859,"åħ·ä½ĵæĿ¥è¯´":9860,"åĴĮæĬĢå·§":9861,"è¿½éĢĲ":9862,"ä»¥å¤ĸ":9863,"åĬłæ³ķ":9864,"æĹħè¡ĮçļĦ":9865,"ĠåĬłå¼º":9866,"è¯·éļıæĹ¶":9867,"ä½Ĩæĺ¯åľ¨":9868,"åĮºéĹ´":9869,"åĬŀäºĭ":9870,"æ³¼":9871,"\"ï¼īï¼Į":9872,"æ¸Ĺ":9873,"å°ıçģ«":9874,"æģŃ":9875,"å¸®åĬ©ä»ĸä»¬":9876,"ins":9877,"å¤ļæł·åĮĸ":9878,"çŁ¥åİ¿":9879,"æĳĨæĶ¾":9880,"ash":9881,"çľĭæ³ķ":9882,"çº¿åĴĮ":9883,"æĢ§ä»·":9884,"ä¹Łä¸º":9885,"é¢ł":9886,"Ġsk":9887,"è¡Įäºº":9888,"åĵģåĳ³":9889,"ä»Ģä¹Īæł·çļĦ":9890,"Ġover":9891,"ux":9892,"éŁ³ä¹Ĳå®¶":9893,"æĹłç©·":9894,"ä¸ľåĮĹéĥ¨":9895,"æĭĺ":9896,"è¿½è¸ª":9897,"åŁĭ":9898,"èĲ¥éĢłåĩº":9899,"æł¹æį®ä¸ªäºº":9900,"èĢ³æľµ":9901,"ä½łä»¬çļĦ":9902,"åı¯èĥ½ä¼ļå¯¹":9903,"ä»»èģĮ":9904,"æĺ¯åĲ¦åŃĺåľ¨":9905,"åĵĢ":9906,"ground":9907,"éĩĳé»Ħ":9908,"ä¹Łè®¸":9909,"æķ°æĺ¯":9910,"æĸ°äºº":9911,"éļıæĦı":9912,"æľīæľºä¼ļ":9913,"æĸĩèīºå¤įåħ´":9914,"æĸĩåĮĸéģĹäº§":9915,"abel":9916,"åĸĢ":9917,"å¥¹ä»¬":9918,"åĤ²":9919,"å£°èªī":9920,"ä¸Ģä¸ªæĸ°çļĦ":9921,"ors":9922,"åİī":9923,"å¤´èĦĳ":9924,"æłĸæģ¯åľ¨":9925,"æ¨¡ä»¿":9926,"æľĢåĲİä¸Ģ":9927,"çİ°ä»£åĮĸ":9928,"æ¿Ģæĥħ":9929,"éĿ¢ä¸´çļĦ":9930,"çīĽä»Ķ":9931,"é²¤":9932,"è¯¥åĩ½æķ°":9933,"çıłç©ĨæľĹçİĽå³°":9934,"æĹ¶ä»£çļĦ":9935,"ĠçĶ±äºİ":9936,"vent":9937,"ä¹ĭè·¯":9938,"åľ¨è¿ĻäºĽ":9939,"çļĦä¸Ģæ®µ":9940,"æĢ»ä½ĵæĿ¥è¯´":9941,"çĽ¸å¯¹è¾ĥ":9942,"random":9943,"çĽ´è§Ĵ":9944,"ç§ĳå¹»å°ıè¯´":9945,"æľĽè¿ľ":9946,"çĥ¤ç®±ä¸Ń":9947,"åįģä¸ī":9948,"åħ¨çĲĥæ°ĶåĢĻåıĺåĮĸ":9949,"plit":9950,"åĪĨç»Ħ":9951,"åıĺå½¢":9952,"åĩĨåĪĻ":9953,"éĥ¨èĲ½":9954,"æĬĵä½ı":9955,"çĻ½ç³ĸ":9956,"çļĦç¾İæĻ¯":9957,"é²¸é±¼":9958,"åİ¿çļĦ":9959,"äº¨åĪ©":9960,"æĺ¯ä¸ĸçķĮä¸ĬæľĢ":9961,"åıĳçİ°èĩªå·±":9962,"åĵ²åŃ¦å®¶":9963,"ä¹¡è¯ķ":9964,"èĹ»":9965,"ç¹ģèį£":9966,"è´ŃæĪ¿":9967,"éģ¿åħįè¿ĩåº¦":9968,"åĨħå¿ĥçļĦ":9969,"éĢ®":9970,"æģ¼":9971,"æľªæĿ¥åıĳå±ķ":9972,"ä¸ºè¾Ĳé³įé±¼çº²":9973,"ta":9974,"èľ¡":9975,"æĸ¹æ³ķæĺ¯":9976,"Ġneed":9977,"è¯ģäºº":9978,"éĺ®":9979,"ç¨»":9980,"ä¸įåľ¨":9981,"ï¼Į$":9982,"Ġone":9983,"ç©ºéĹ´çļĦ":9984,"çŃĴ":9985,"æĹħæ¸¸æĻ¯çĤ¹":9986,"max":9987,"ä¸°å¯Įå¤ļå½©":9988,"Ġè®¾è®¡":9989,"ys":9990,"åĥıæĺ¯":9991,"å¾®æ³¢çĤī":9992,"iel":9993,"ä¸İæİ¥å£¤çļĦå¸Ĥéķĩ":9994,"æµĵç¼©":9995,"èĥĮæĻ¯åĴĮ":9996,"çŃīæĬĢæľ¯":9997,"ĠâĢĵ":9998,"èĶ¬èıľåĴĮ":9999,"ik":10000,"åĮĹæĸ¹":10001,"å´Ķ":10002,"ç§Łéĩĳ":10003,"éĽĨæĪĲ":10004,"æ¶µçĽĸäºĨ":10005,"âĶĢ":10006,"èį«":10007,"ä¾ĽåºĶåķĨ":10008,"Ġè¡¨ç¤º":10009,"Ġ<=":10010,"è¯Ńè¨ĢçļĦ":10011,"ä»ĻäººæİĮ":10012,"æĪĲä¸ºä¸ĢåĲį":10013,"Alex":10014,"åķĨæłĩ":10015,"å·§åħĭåĬĽèĽĭç³ķ":10016,"æĸĩåĮĸä¸Ń":10017,"ç±»ä¼¼çļĦ":10018,"éª¨éª¼":10019,"ĠçĥŃ":10020,"åĢŁåĬ©":10021,"å¯¹ç¤¾ä¼ļ":10022,"éĺ¿éĩĮ":10023,"æĸ°æĬĢæľ¯":10024,"1978":10025,"ä¸ŃåĽ½äººæ°ĳè§£æĶ¾åĨĽ":10026,"hans":10027,"è´ŀ":10028,"èĪªå¤©":10029,"æĩĪ":10030,"åĩºçīĪç¤¾":10031,"åĲĳæĤ¨":10032,"é¢ĨåľŁ":10033,"è¿ĩå¤ļçļĦ":10034,"ä½ĵéķ¿åı¯è¾¾":10035,"å½ĵå¹´":10036,"æ¯ķä¸ļåĲİ":10037,"Ġspe":10038,"GDP":10039,"åľ¨ä»ĸ":10040,"æĹłæķ°":10041,"SO":10042,"âĢĺ":10043,"è®®é¢ĺ":10044,"åįļå®¢":10045,"åĽĬ":10046,"æĳĦåĥıå¤´":10047,"ç¥¨æĪ¿":10048,"ç¤¼ä»ª":10049,"åħ³éĶ®åŃĹ":10050,"ç»Ĵ":10051,"itle":10052,"ĠInt":10053,"ä»Ĭå¹´":10054,"Ġformula":10055,"æĭ¯":10056,"éĺŁåĳĺ":10057,"è¿Ļæ®µæĸĩæľ¬":10058,"new":10059,"1979":10060,"åĮĪçīĻåĪ©":10061,"ä¿Ŀç½Ĺ":10062,"æĪĳæĥ³è¦ģ":10063,"å®½æķŀ":10064,"æļĹç¤º":10065,"æ³Į":10066,"éĺ¿æł¹":10067,"æķ°éĩıçļĦ":10068,"æĭħå¿§":10069,"åĵĩ":10070,"åıįä¹īè¯į":10071,"åĪĿæŃ¥":10072,"ä¸Īå¤«":10073,"é¸¡èĥ¸":10074,"é¢Ŀå¤ĸ":10075,"ç¥Ŀç¦ı":10076,"è¿ĺæ¬¾":10077,"Ġfind":10078,"ç§©åºı":10079,"åı¯ä»¥åĪĨä¸º":10080,"ä½łèĥ½åĳĬè¯īæĪĳ":10081,"æĹ¶æ®µ":10082,"ä¸ºä¾ĭ":10083,"åĬłåĪ©ç¦ı":10084,"åĲįäºº":10085,"åĽ½å®¶éĺŁ":10086,"æĪ¿éĹ´çļĦ":10087,"æĬ½åıĸ":10088,"åľ¨ä¸Ģ":10089,"3000":10090,"Ġfeel":10091,"æ¯ıç»Ħ":10092,"æ¶Īéĺ²":10093,"åŃĹæ¯įé¡ºåºı":10094,"åĴĮæĶ¹è¿Ľ":10095,"åī©ä¸ĭ":10096,"éĿĴå²Ľ":10097,"SP":10098,"ĠCom":10099,"çĸĹæ³ķ":10100,"çļĦçİ¯å¢ĥä¸Ń":10101,"ä¿Ŀå®Ī":10102,"çħ®æ²¸":10103,"è§ģåĪ°":10104,"ose":10105,"ä¸Ģä¸ªäººçļĦ":10106,"åĴĮä¼ĺåĮĸ":10107,"æĲŀ":10108,"atrix":10109,"èĩĢ":10110,"çļĦå½¢æĪĲ":10111,"ä¾µçĬ¯":10112,"ç£ħ":10113,"åĴ¬":10114,"æĹ¶ç©º":10115,"éĺ¿æł¹å»·":10116,"å¤±ä¸ļ":10117,"çļĦæĸ¹åĲĳ":10118,"Ġem":10119,"æĮªå¨ģ":10120,"èĩªä¿¡åĴĮ":10121,"èĩªåĪ¶":10122,"åĿļæŀľ":10123,"æĺ¯æĮĩåľ¨":10124,"ç»¿èī²çļĦ":10125,"ä»¥åĩıå°ĳ":10126,"å°Ķé¡¿":10127,"èĸªèµĦ":10128,"åĩºéĹ¨":10129,"Ġdata":10130,"æĦŁè°¢æĤ¨":10131,"ç¬¬åħ«":10132,"å··":10133,"åĪ«å¢ħ":10134,"æ²ŁéĢļæĬĢå·§":10135,"æĪĳä»¬å·²ç»ı":10136,"å¿ħä¸įåı¯":10137,"èŃ¦åĳĬ":10138,"ç¼ºå°ĳ":10139,"éĩĩéĽĨ":10140,"å½¢å¼ıçļĦ":10141,"led":10142,"åīªåĪĢ":10143,"å¯¹æĪĳä»¬çļĦ":10144,"åĴĮä»ĸçļĦ":10145,"çļĦéĩįè¦ģåĽłç´ł":10146,"æ½Ń":10147,"ä¼ĺè´¨çļĦ":10148,"ouble":10149,"æĺ¯å¾·åĽ½":10150,"ç»Ħå»º":10151,"ä¼ļä½¿":10152,"ç»ĵæŀľä¸º":10153,"çļĦå¹³åĿĩ":10154,"éªĳå£«":10155,"å¸Ĩ":10156,"ä¸Ńèİ·å¾Ĺ":10157,"åģļåĩºäºĨ":10158,"ç¿©":10159,"äº§åĵģåĴĮæľįåĬ¡":10160,"åĩıç¼ĵ":10161,"æĸ¥":10162,"ä¸Ģå¥Ĺ":10163,"ä¸¾äºº":10164,"æ°´æĺŁ":10165,"å¤±æľĽ":10166,"åĲĦç§įåĲĦ":10167,"æ´Ĺæ¶¤":10168,"ç¾İåĽ½çļĦ":10169,"è¿ĺåľ¨":10170,"å¹´æĹ¶":10171,"Web":10172,"éĥ½å¸Ĥ":10173,"ç½¢":10174,"æĲľç´¢å¼ķæĵİ":10175,"åĸī":10176,"700":10177,"è¿Ļç§įæĸ¹æ³ķ":10178,"å¿«éĢŁåıĳå±ķ":10179,"Ġsub":10180,"çļĦèº«ä½ĵ":10181,"ç»ĵå±Ģ":10182,"æĺŁç©º":10183,"éĤ£æł·":10184,"è½¬æį¢æĪĲ":10185,"âĢ¢":10186,"è·¨è¶Ĭ":10187,"èµŀç¾İ":10188,"æ¤ħåŃĲ":10189,"çļĦåĲĹ":10190,"è§ĦåĪĻåĴĮ":10191,"å¦ĤæŀľéľĢè¦ģ":10192,"Ġzh":10193,"å·²è¢«":10194,"é¦ħ":10195,"æ¯Ķåĸ»":10196,"æĪĸèĢħæĺ¯":10197,"ç¿»çĤĴåĿĩåĮĢ":10198,"æ»¥":10199,"åĪĴåĪĨ":10200,"SQL":10201,"çĽĳçĭ±":10202,"å°¿çĹħ":10203,"å¦Ĥä½ķæıĲé«ĺ":10204,"ä½¿çĶ¨Python":10205,"ä½Ĩæĺ¯æĪĳ":10206,"åı¯ä»¥ä¿ĥè¿Ľ":10207,"æĬĺå°Ħ":10208,"æ±°":10209,"çĻ½å¤©":10210,"åĽ°æī°":10211,"ally":10212,"ç¯ĩå°ıè¯´":10213,"åĪĨå¸ĥåľ¨":10214,"éļıçĿĢæĹ¶éĹ´çļĦ":10215,"å¤§å¸Ī":10216,"å½ķéŁ³":10217,"éħ¬":10218,"ä»¥ä¸º":10219,"è¿Ļä¸ªäºº":10220,"è§Ĩè§Ĵ":10221,"é²ľæĺİ":10222,"èµĭäºĪ":10223,"åī§éĻ¢":10224,"ä¸ŃéĢīæĭ©":10225,"book":10226,"å¹´ç¾İåĽ½äººåı£æĻ®æŁ¥çļĦæķ°æį®":10227,"æĹ¥æĬ¥":10228,"å»ºçŃĳå¸Ī":10229,"æ±ĤèģĮ":10230,"äº²åŃĲåħ³ç³»":10231,"Ġright":10232,"æģ¨":10233,"å¹´å¤ıåŃ£å¥¥æŀĹåĮ¹åħĭè¿ĲåĬ¨ä¼ļ":10234,"éĢıéľ²":10235,"å¾Īæ£Ĵ":10236,"åı¯ä»¥æł¹æį®èĩªå·±çļĦ":10237,"åħĭèİ±":10238,"amb":10239,"åĽĽå¤§":10240,"çļĦå½¢çĬ¶":10241,"æ³ķå¾ĭæ³ķè§Ħ":10242,"åĴĮçłĶç©¶":10243,"èµ°äºĨ":10244,"ä¸īæĺİæ²»":10245,"å¸®åĬ©æĪĳä»¬":10246,"æ±Ģ":10247,"æĭ¿éĵģ":10248,"èĬ±æ¤Ĵ":10249,"è¿İæİ¥":10250,"çĶ«":10251,"æ°¢æ°Ķ":10252,"ĠçĽĲ":10253,"ç»ĵå°¾":10254,"çļĦç³»ç»Ł":10255,"åĨĻä¸Ģç¯ĩåħ³äºİäººå·¥æĻºèĥ½":10256,"æºĲèĩª":10257,"äººåı£å¯Ĩåº¦ä¸ºæ¯ıå¹³æĸ¹åįĥç±³":10258,"ackground":10259,"çļĦåŃ¦çĶŁ":10260,"ä¹łä¿Ĺ":10261,"æłĪ":10262,"æĶ¿åįı":10263,"åıĳè¨Ģ":10264,"è¯ģåĪ¸":10265,"æµ·å¤ĸ":10266,"ç½ĳçĲĥ":10267,"æĿŃå·ŀ":10268,"å½ĵåľ°åħ±æľīäººåı£":10269,"åı¯è¡Į":10270,"åºĶè¯¥åľ¨":10271,"èĢĮäººåı£å¯Ĩåº¦ä¸ºæ¯ıå¹³æĸ¹åįĥç±³":10272,"æ°ĳäºĭ":10273,"çĭĦ":10274,"èĪĴéĢĤåĴĮ":10275,"ä¹ĭä¸Ģæĺ¯":10276,"æ´Ľåħĭ":10277,"åĪ¶éĢłåķĨ":10278,"åĴĮæĬĢèĥ½":10279,"å¸ĮæľĽè¿ĻäºĽ":10280,"è¿Ļç¯ĩæĸĩç«łä¸Ń":10281,"å±±è¥¿":10282,"éĻ¤æ³ķ":10283,"æĺİå¤©çļĦå¤©æ°Ķ":10284,"çļĦæĬĢå·§":10285,"è¦ģæľī":10286,"ä¸ºå®¢æĪ·":10287,"åħĪå°Ĩ":10288,"çļĦåĮºåŁŁ":10289,"æĬĹæĹ¥":10290,"å¹³åİŁ":10291,"ene":10292,"å¸ĤåľºéľĢæ±Ĥ":10293,"ae":10294,"ä¸įçĶ¨":10295,"idth":10296,"orn":10297,"å¾Īå°ĳ":10298,"è¿Ĳè½¬":10299,"åĽłåħ¶":10300,"å¾Īé«ĺ":10301,"æ±½è½¦çļĦ":10302,"å¼ĢéĢļ":10303,"æ°´éĩı":10304,"è®©æĪĳä»¬ä¸Ģèµ·":10305,"åħĭæĭī":10306,"ä»ĸè¢«":10307,"å°ļä¹¦":10308,"åı¯çĶ¨":10309,"ä¸ľåįĹéĥ¨":10310,"å¯»æ±Ĥå¸®åĬ©":10311,"ä½ĵçİ°äºĨ":10312,"äº²èĩª":10313,"åŁºäºİä»¥ä¸Ĭè¿Ļæ®µ":10314,"LED":10315,"åħ·ä½ĵæĥħåĨµ":10316,"ä¹ĭä½ľ":10317,"çļĦè´¨éĩıåĴĮ":10318,"åı¯ä»¥è®©ä½ł":10319,"ç¨ł":10320,"Ad":10321,"äººæĢ§çļĦ":10322,"æī¹åĪ¤":10323,"åĲĮæĹ¶ä¹Łæĺ¯":10324,"çº¦å®ļ":10325,"æĤ£èĢħçļĦ":10326,"æĭ¯æķĳ":10327,"=\\":10328,"Sc":10329,"æĦŁåĨĴ":10330,"æ²¡éĹ®é¢ĺ":10331,"å¤©åłĤ":10332,"ä¸»è§Ĥ":10333,"å¼ºåĪ¶":10334,"åİĨä»»":10335,"é²ľç¾İ":10336,"æ¸ħæ´ģåīĤ":10337,";}-":10338,"è¿ĻäºĽåĽłç´ł":10339,"å½Ĺ":10340,"ä½įäºİä¸ŃåĽ½":10341,"åı¯ä»¥æĽ´å¥½åľ°":10342,"èµ·æºĲäºİ":10343,"æĿ¥äºĨ":10344,"æ¼Ķç¤º":10345,"æ²®":10346,"æĢ¨":10347,"åı¯ä»¥å®ŀçİ°":10348,"é¢Ĺç²Ĵ":10349,"Wh":10350,"æŃĮæĽ²çļĦ":10351,"äºĮæ¬¡":10352,"åĬ©çĲĨ":10353,"âĪ":10354,"æ³¨æĦıåĪ°":10355,"è°¦":10356,"We":10357,"CE":10358,"å£®è§Ĥ":10359,"å¹³éĿ¢ä¸Ĭåįĩ":10360,"enter":10361,"çŃīä¸º":10362,"æķ´çĲĨä¸Ģä»½":10363,"å¤ªç©ºæİ¢ç´¢":10364,"è¿ĲåĬ¨çļĦ":10365,"ï¼ļ[":10366,"head":10367,"è¾ĵåħ¥çļĦ":10368,"æĶ¿åºľçļĦ":10369,"éŁ³ä¹ĲåĴĮ":10370,"éĺ¶çº§":10371,"çĶµæ°Ķ":10372,"å®¶çĶ¨":10373,"æļĳ":10374,"æī¾åĪ°ä¸Ģä¸ª":10375,"å¹¶åħ¥":10376,"åľ£æ¯į":10377,"æµĻæ±Łçľģ":10378,"ĠĠĠĠĠĠĠĠĠĠĠĠĠĠĠ":10379,"å¸ĥèİ±":10380,"åĢ¾æĸľ":10381,"å±±ä¸ľçľģ":10382,"æĺ¯ä¸Ģéģĵ":10383,"è°£":10384,"çĻ½èī²çļĦ":10385,"æĥ³è±¡åĬĽ":10386,"åĴĮå½±åĵį":10387,"çļĦçī©åĵģ":10388,"æ±Łè¥¿":10389,"æ··ä¹±":10390,"ĠThis":10391,"çĽĲåĴĮé»ĳèĥ¡æ¤Ĵ":10392,"çļĦçĥ¤ç®±":10393,"æµ·å³¡":10394,"å¹¶åĲĳ":10395,"ä»£è¡¨å¤§ä¼ļ":10396,"ä¸¾è¡ĮçļĦ":10397,"éĩįè¦ģçļĦæĺ¯":10398,"æįŁä¼¤":10399,"ä¹Łå°±æĺ¯è¯´":10400,"ç³ĸå°¿çĹħ":10401,"èĢĮéĹ»åĲį":10402,"çļĦä¼łç»Ł":10403,"çīĩæ®µ":10404,"ates":10405,"Ġper":10406,"ä¸įåģľ":10407,"çıłå®Ŀ":10408,"åĹ¨":10409,"åľ°æ¯¯":10410,"è¿ĲåĬ¨åĴĮ":10411,"ä»ĸè®¤ä¸º":10412,"æİ¥åı£":10413,"å¹´åĪĿ":10414,"æĤ¨åľ¨":10415,"éĢĤåºĶæĢ§":10416,"Ġå¤ª":10417,"æİĴè¡Į":10418,"åĬłåħ¥éĢĤéĩı":10419,"åĴĮç»ıæµİ":10420,"æĬĬæı¡":10421,"èľĺ":10422,"çģ«èħ¿":10423,"åĪĻéľĢè¦ģ":10424,"æĺİåªļ":10425,"():":10426,"æ£ĺ":10427,"ç«ŀèµĽ":10428,"ç¿ħèĨĢ":10429,"å¼Ħ":10430,"çļĦä¸ľè¥¿":10431,"class":10432,"ä¸ºæĸ°":10433,"ä»£è¡¨äºĨ":10434,"ä»ĸä¸İ":10435,"åĮºåĨħ":10436,"æĿİçĻ½":10437,"èľĺèĽĽ":10438,"äº§åĵģæĪĸæľįåĬ¡":10439,"Ġmin":10440,"1981":10441,"ä»¥èİ·å¾Ĺ":10442,"åįĹèĩ³":10443,"é¸¡èĥ¸èĤī":10444,"è±Ĩçĵ£":10445,"æĳ§æ¯ģ":10446,"é³Ħ":10447,"åĲİä»£":10448,"æ¶Īæ¯Ĵ":10449,"æł½åŁ¹":10450,"Ġpre":10451,"My":10452,"åĲįè¯į":10453,"éĢ®æįķ":10454,"å®ĥä»¬æĺ¯":10455,"ä¸ĭéĿ¢æĺ¯ä¸Ģä¸ª":10456,"å¤«å¦ĩ":10457,"æĻºåĬĽ":10458,"Ã¨":10459,"åįłæ¯Ķ":10460,"è¿ĽçĲĥ":10461,"æ¸ħéĻ¤":10462,"çļĦæ¯Ķä¾ĭ":10463,"åľ¨åħ¨çĲĥ":10464,"è¯¸å¤ļ":10465,"éĩįè¦ģçļĦä½ľçĶ¨":10466,"Ġ300":10467,"ä¹¦æ³ķ":10468,"ç»´çĶŁç´łC":10469,"DIY":10470,"çļĦä¸Ģä¸ªéĩįè¦ģ":10471,"from":10472,"åħ±è¯Ĩ":10473,"çĵ·çłĸ":10474,"åı¸é©¬":10475,"çĶŁæĢģå¹³è¡¡":10476,"æĿİåįİ":10477,"1946":10478,"Ġå®¶åºŃ":10479,"æľīåºı":10480,"å¹¿æ³ĽåºĶçĶ¨":10481,"ä¸¥æł¼çļĦ":10482,"è¯ķçĿĢ":10483,"è¡Įä¸ºçļĦ":10484,"æľĽè¿ľéķľ":10485,"æĹ¶è¦ģ":10486,"éľĢè¦ģæĪĳ":10487,"åľ¨è¿Ļä¸ªè¿ĩç¨ĭä¸Ń":10488,"ä»¥ä¾¿æĽ´å¥½åľ°":10489,"ç»Ħç»ĩçļĦ":10490,"çľĭçĶµå½±":10491,"çģ«éĶħ":10492,"åį¡è·¯":10493,"å§ĳ":10494,"éĥ½ä¸į":10495,"å±ŀä¸ĭçļĦä¸Ģä¸ªç§į":10496,"1958":10497,"åĴĮä»·åĢ¼":10498,"å´İ":10499,"ä¸Ģæŀļ":10500,"æ·±åħ¥äºĨè§£":10501,"éĺĲæĺİ":10502,"çĲ¼":10503,"é¦ĻèĤł":10504,"éĽĨä½ĵ":10505,"å¡«åħħ":10506,"ile":10507,"èı²å°Ķ":10508,"ä¸´åºĬ":10509,"å¿«æį·":10510,"åŁºéĩĳä¼ļ":10511,"å¹³åºķ":10512,"åįģåĽĽ":10513,"è¿Ļç§įæĥħåĨµ":10514,"åĬ¨æ¼«":10515,"æĭ±":10516,"æ·±æµ·":10517,"éĢŁåº¦åĴĮ":10518,"éĹ½":10519,"éļıä¹ĭ":10520,"Ġ17":10521,"åİ¢":10522,"å°ıè¯´ä¸Ń":10523,"Ġchar":10524,"çĽ´æĴŃ":10525,"æŃ£ç¡®åľ°":10526,"ä¿ĿæĬ¤æĪĳä»¬çļĦ":10527,"æĹłéľĢ":10528,"åĩĢåĮĸåĻ¨":10529,"èĭ¯":10530,"çĪ±æĥħçļĦ":10531,"è§£åĨ³æĸ¹æ³ķ":10532,"åħ¬å®ī":10533,"è´Ńçī©è½¦":10534,"å¦Ĥä½ķå¤ĦçĲĨ":10535,"çŃīå¼ı":10536,"éĻķè¥¿":10537,"ä¸»èıľ":10538,"å¾Īé«ĺçļĦ":10539,"åĨħéĺģ":10540,"ä¹¦ä¸Ń":10541,"æ³¡æ²«":10542,"åĽ°æĥĳ":10543,"ç¨įå¾®":10544,"ä¼ļè®©":10545,"è¿ľçļĦ":10546,"çĶŁæ´»è´¨éĩı":10547,"éĿ¢ç§¯åĴĮ":10548,"ä¸įä»ħæĺ¯":10549,"ĠBe":10550,"èĨ³":10551,"æīĭåĬ¨":10552,"Un":10553,"åĪĿå§ĭåĮĸ":10554,"py":10555,"äº§çĶŁå½±åĵį":10556,"ä¸¤æĿ¡":10557,"æ¸ħæĻ¨":10558,"ç¥Ī":10559,"åĽĽåŃ£":10560,"è¡¨ç¤ºä¸º":10561,"è§Ħæł¼":10562,"ä»¥ä¸ĭæĺ¯ä¸Ģä»½":10563,"ĠäºĨè§£":10564,"ĠåĪ©çĶ¨":10565,"å¥³å£«":10566,"ç»Ļåĩºåħ·ä½ĵçļĦ":10567,"Ġ90":10568,"æīĭå·¥èīºåĵģ":10569,"è¿Ľè¡Įæ¯Ķè¾ĥ":10570,"Ġæľī":10571,"æīĢç¤º":10572,"æ»ĭæ¶¦":10573,"é¦ĸåħĪéľĢè¦ģ":10574,"äº§åľ°":10575,"å¥ĭæĸĹ":10576,"æ¯ĶåĪ©æĹ¶":10577,"anner":10578,"çļĦäººç¾¤":10579,"åĪĹåħ¥":10580,"Ġgu":10581,"å¿ħå¤ĩ":10582,"çĽ¸è¿ŀ":10583,"åĵĪå°Ķ":10584,"ä¸ºåħ¬åı¸":10585,"éĢıæ°Ķ":10586,"åį°å°¼":10587,"çĻ¾å¹´":10588,"ons":10589,"Mike":10590,"äº¤ä»ĺ":10591,"æĢ§ä»·æ¯Ķ":10592,"è¿Ľè¡ĮåĪĨæŀĲ":10593,"åı¯éĿłçļĦ":10594,"value":10595,"çĥĺçĦĻ":10596,"æĸ¯èĴĤ":10597,"play":10598,"å¤§èĴľ":10599,"çĽĨæł½":10600,"ä¸Ģåĳ¨":10601,"è¿Ļä»¶":10602,"ower":10603,"irst":10604,"1920":10605,"æ·ĺæ±°":10606,"åĶ¯ä¸ĢçļĦ":10607,"éĵħç¬Ķ":10608,"aint":10609,"é£ŁæĢ§":10610,"äº«åıĹåĪ°":10611,"éĹ®çŃĶ":10612,"èī²åĪĹ":10613,"ç£·":10614,"ä¸ĸçķĮä¸Ń":10615,"çļĦæııè¿°":10616,"è¨Ģè®º":10617,"æĺ¯åŁºäºİ":10618,"å°ĨæĪĲä¸º":10619,"çļĦçĶŁéķ¿":10620,"press":10621,"åħ¸ç¤¼":10622,"çļĦç¿»":10623,"åº§æ¤ħ":10624,"ä¿ĺ":10625,"æĽ´å¿«åľ°":10626,"ica":10627,"çļĦäººéĻħ":10628,"Ġä½ľä¸ºä¸Ģä¸ª":10629,"æ¨±":10630,"æĥħæĬ¥":10631,"æĻ´æľĹ":10632,"æ¸¸è§Ī":10633,"æĽ²çĽ®":10634,"çļĦç´§":10635,"äº¦æľī":10636,"åĩºåİ»":10637,"çĨŁç»ĥ":10638,"æĪĳéĿŀå¸¸":10639,"TV":10640,"ä¸ĸçºªåĪĿ":10641,"è§£åĨ³éĹ®é¢ĺçļĦ":10642,"å¯¹æĤ¨":10643,"ĠåŁºäºİ":10644,"çł²":10645,"çĽ¸åħ³ä¿¡æģ¯":10646,"åĩĢåĪ©æ¶¦":10647,"1940":10648,"split":10649,"éĢļè½¦":10650,"hk":10651,"åĬłçĽŁ":10652,"åı¯ä»¥çľĭåĪ°":10653,"Ġhelp":10654,"æľĢåıĹæ¬¢è¿İçļĦ":10655,"ç³¯":10656,"å®ŀçĶ¨æĢ§":10657,"çĶµæµģ":10658,"å¥ĸéĩĳ":10659,"å°ıçĮ«":10660,"æ¶Ľ":10661,"çĽĹçªĥ":10662,"è·¯åı£":10663,"çļĦç£":10664,"Ġlist":10665,"çĶµèį·":10666,"åĽłæĸ¯åĿ¦":10667,"è¿ĩç¨ĭä¸ŃçļĦ":10668,"æĿ¥éĢīæĭ©":10669,"å¯¼å¸Ī":10670,"æµ·æ°´":10671,"åĴĮåĬŁèĥ½":10672,"ç¼¸":10673,"Ġhow":10674,"éĢĢå½¹":10675,"åı¯ä»¥éĩĩçĶ¨":10676,"åĴĮæıĲé«ĺ":10677,"çĦ¯":10678,"å¤§åį«":10679,"åĲĦåľ°çļĦ":10680,"æ°´æºĲ":10681,"çļĦé¢ĨåŁŁ":10682,"å¯¹å¤ĸ":10683,"éĴ©":10684,"Ġ22":10685,"åĸľæ¬¢åĲĥ":10686,"æķ²":10687,"ren":10688,"å°Ħåĩ»":10689,"160":10690,"åı£èħĶ":10691,"åĵŃ":10692,"ward":10693,"çļĦä¾ĭåŃĲ":10694,"ä½Ľç½Ĺ":10695,"1948":10696,"alth":10697,"èĢħåĴĮ":10698,"ample":10699,"------":10700,"ä¸Ńè¢«":10701,"å¦Ĥæŀľæ²¡æľī":10702,"åĪĨè¾¨":10703,"åĨĽçļĦ":10704,"reen":10705,"çĹķ":10706,"çľĭçĿĢ":10707,"Ġcomm":10708,"éĻĦåĬł":10709,"çļĦä¸ĢåĪĩ":10710,"åħ¶ä¸ŃçĶ·æĢ§":10711,"sy":10712,"ç²¾ç»Ĩ":10713,"æ¬ł":10714,"æ¿ĢçĥĪçļĦ":10715,"ä½łæľī":10716,"ç¬¬ä¸Ģä½į":10717,"èĴľæľ«":10718,"åģļä¸ĢäºĽ":10719,"ä½ľçī©":10720,"NT":10721,"æĭĮåĮĢ":10722,"çļĦçĶ¨æĪ·":10723,"AB":10724,"æº¶è§£":10725,"å¥½åĥı":10726,"ä»Ĭå¤©çļĦå¤©æ°Ķ":10727,"åĭ¿":10728,"åľºæ¯ĶèµĽ":10729,"å½ĹæĺŁ":10730,"æ³¡æīĵç²ī":10731,"éħĴåĲ§":10732,"åħ³æĢĢ":10733,"çŃīåĬŁèĥ½":10734,"èĢĮæĿ¥":10735,"åı¯ä»¥å¢ŀå¼º":10736,"æĺ¯æĺŁæľŁ":10737,"åı¤åħ¸éŁ³ä¹Ĳ":10738,"è¯·æĤ¨":10739,"ä¸įå¾Ĺä¸į":10740,"Ġ28":10741,"åĲ¾":10742,"è¦ģçĤ¹":10743,"çİ°éĩĳæµģéĩı":10744,"çĽ¸æľº":10745,"çİ¯å¢ĥä¸ĭ":10746,"éĺ²èĮĥ":10747,"åĤ¨çī©":10748,"çļĦç¤ºä¾ĭ":10749,"çİ°ä»Ĭ":10750,"æĬĹè®®":10751,"èĢĮè¨Ģä¹ĭ":10752,"å¯ĨéĽĨ":10753,"éŁ³åĵį":10754,"Ġway":10755,"ä¸ĭéĿ¢æĺ¯ä¸ĢäºĽ":10756,"çĶŁèıľ":10757,"ä¸įå¦Ĥ":10758,"å¾Īéĩįè¦ģçļĦ":10759,"æĪĳåı¯ä»¥ä¸ºæĤ¨":10760,"ĠåĵģçīĮ":10761,"åĪĻåľ¨":10762,"ä½łæĥ³è¦ģ":10763,"çłĤç³ĸ":10764,"çļĦé£Łåĵģ":10765,"rad":10766,"åįĹç¾İæ´²":10767,"é¸¡ç²¾":10768,"Ġpos":10769,"èĬĴæŀľ":10770,"å®ŀéĻħåºĶçĶ¨":10771,"çļĦäººå·¥":10772,"éĽ¶åĶ®":10773,"å¥¢":10774,"è®¸åı¯":10775,"æĤ¬çĸĳ":10776,"æŀģåħ·":10777,"å®Ľ":10778,"ç£ģåľº":10779,"Ex":10780,"åĨĽåĮº":10781,"éĵ¸":10782,"è£ħçĶ²":10783,"æ´Ĺæīĭ":10784,"è¿Ŀçº¦":10785,"åıĤè°ĭ":10786,"èīºæľ¯ä½ľåĵģ":10787,"çļĦè¡¨éĿ¢":10788,"æ²®ä¸§":10789,"éĽĮ":10790,"ĊĠĠĠĠĠĠĠĠĠĠĠĠĠĠĠĠĠĠĠ":10791,"æĹ¶éĹ´è¡¨":10792,"ç¼ĸåĨĻä¸Ģæ®µ":10793,"èµĦæºĲåĴĮ":10794,"çľĭå¾ħ":10795,"ä¸»è¯Ń":10796,"æĺŁåº§":10797,"æĺ¯ä¸º":10798,"éĩĳå±±":10799,"éĩįè¦ģä½ľçĶ¨":10800,"æĦ¤æĢĴ":10801,"çļĦçĥ¹":10802,"att":10803,"åı£çº¢":10804,"è°ĥè¯ķ":10805,"ä¸ĢçĶŁ":10806,"èĩªä¿¡å¿ĥ":10807,"æĮļ":10808,"æµ¸æ³¡":10809,"ä¼łå¥ĩ":10810,"110":10811,"å¤įåĲĪ":10812,"è¿ĺæ²¡æľī":10813,"PS":10814,"è®¾å¤ĩåĴĮ":10815,"è£ģåĪ¤":10816,"æĪĳä»¬åħ¬åı¸çļĦ":10817,"åĩĳ":10818,"æľĢåĲİä¸Ģä¸ª":10819,"åı¯è§ĨåĮĸ":10820,"æ©ĻåŃĲ":10821,"ç»¿åĮĸ":10822,"ĳå¸ĥ":10823,"å·²ç»ıè¢«":10824,"éķľå¤´":10825,"æµģæµª":10826,"æľīä¸Ģåıª":10827,"åı°åĮĹå¸Ĥ":10828,"erry":10829,"çļĦç¤¼çī©":10830,"åķĨä¸ļæ¨¡å¼ı":10831,"æ§½":10832,"Ã³":10833,"Ġ$\\":10834,"ä¿ĿæĮģåģ¥åº·":10835,"åĬłåħ¥äºĨ":10836,"light":10837,"è¥¿çĵľ":10838,"ull":10839,"æ¾Ī":10840,"Ġè¯·åĳĬè¯īæĪĳ":10841,"æ±Łèĭıçľģ":10842,"åħ»åĪĨ":10843,"èĩªå·±åĸľæ¬¢çļĦ":10844,"çļĦçĶŁçī©":10845,"è¡¨è¾¾æĸ¹å¼ı":10846,"è¿ĻæĿ¡":10847,"èĭĳ":10848,"éļıçĿĢæĹ¶éĹ´çļĦæİ¨ç§»":10849,"Ġz":10850,"é¸¡ç¿ħ":10851,"arm":10852,"ä¸Ĭæĸ¹":10853,"åĽ¢éĺŁåįıä½ľ":10854,"ÃŃ":10855,"èªĵ":10856,"çĪ¬è¡Į":10857,"æĥħæĻ¯":10858,"åĨĻåĩº":10859,"çº±":10860,"è´µå·ŀ":10861,"å½¢çĽ®":10862,"å¼ĹæľĹ":10863,"ç©ºæł¼":10864,"åĴĮæĪĳ":10865,"åıĹæįŁ":10866,"åĴĮåİĭåĬĽ":10867,"å¤§åŃ¦çļĦ":10868,"çĶŁæĪĲçļĦ":10869,"é¹¤":10870,"åįİäºº":10871,"1976":10872,"éĺ²æ°´":10873,"æ¸ħåĩī":10874,"ç³»ç»ŁåĴĮ":10875,"æĳĨèĦ±":10876,"çĸ¾çĹħçļĦ":10877,"çļĦéĩįéĩı":10878,"åħĨ":10879,"æ£µ":10880,"Ġque":10881,"åįłåľ°":10882,"ç»Ħè£ħ":10883,"ä¸»ç®¡":10884,"æľĢä½³çļĦ":10885,"èĸĩ":10886,"å¾®è§Ĥ":10887,"åħ¸åŀĭçļĦ":10888,"ä½łèĥ½å¸®æĪĳ":10889,"ä»¥èī²åĪĹ":10890,"éĥ½å¾Ī":10891,"IM":10892,"å¤ªåŃĲ":10893,"riend":10894,"èµ°è¿ĩ":10895,"èĢ³æľº":10896,"åĲĳä¸ĭ":10897,"åĨľåİĨ":10898,"åı¯èĥ½åŃĺåľ¨":10899,"åĶ±æŃĮ":10900,"åĽłæŀľ":10901,"æĹ¶éĹ´åĴĮç²¾åĬĽ":10902,"æĺ¯ä¸Ģä»¶":10903,"åĴĮé£İæł¼":10904,"æľºåĻ¨ç¿»è¯ĳ":10905,"çļĦç¡®":10906,"æīįèĥ½å¤Ł":10907,"æĥĬåı¹":10908,"alk":10909,"åĬłæĭī":10910,"å®ŀæĥł":10911,"æıĲä¾ĽæĽ´å¤ļçļĦ":10912,"åħĭéĩĮ":10913,"Ġ.":10914,"èĿī":10915,"æ£Ģå¯Ł":10916,"çľŁæĺ¯":10917,"èĦĬæ¤İ":10918,"å®ĪæĬ¤":10919,"åĻ¬":10920,"å¤ĸçº¿":10921,"å±±æ°´":10922,"Ġbeen":10923,"Ġlang":10924,"ä¼ļä¸Ĭ":10925,"åĴĮèĶ¬èıľ":10926,"æµĵéĥģçļĦ":10927,"length":10928,"å¹¶è¢«":10929,"æĺ¯æĹ¥æľ¬":10930,").":10931,"åģļä»Ģä¹Ī":10932,"å½ĵäºĭäºº":10933,"èĩªçĶ±åĴĮ":10934,"ultip":10935,"éķ¿æĸ¹":10936,"åħ¬åĬ¡":10937,"æłĩè¯Ĩ":10938,"åĪ¶åĬ¨":10939,"è¡¨ä¸Ń":10940,"åıĺèī²":10941,"çī²":10942,"æķ°åŃ¦é¢ĺ":10943,"æĸĹäºī":10944,"ä¼ĺåħĪçº§":10945,"çĶŁæĪĲä¸Ģä¸ªåħ³äºİ":10946,"å¿«ä¹ĲåĴĮ":10947,"ctor":10948,"Lisa":10949,"åľ¨æ°´ä¸Ń":10950,"åĬłæ²¹":10951,"æ°Ķåĳ³":10952,"atic":10953,"æĹĹä¸ĭ":10954,"ç©ºæ°Ķè´¨éĩı":10955,"çĽ¸å½ĵäºİ":10956,"elif":10957,"å½©èī²":10958,"æħ¨":10959,"éĻĢ":10960,"æĥ³åĪ°":10961,"çģ¯åħ·":10962,"è¿Ļå¯¹":10963,"èĥ½åĬĽçļĦ":10964,"æĽ´åĬłæ³¨éĩį":10965,"åĬĿ":10966,"å°ıåĲĥ":10967,"ä¹ĭæĪĺ":10968,"æĦŁçļĦ":10969,"è°Īè®º":10970,"çļĦçİ°è±¡":10971,"ä¸Ģåħ±":10972,"æł¹æį®ä»¥ä¸Ĭ":10973,"æĶ¾åĪ°":10974,"å°ıåįİ":10975,"1900":10976,"è¾¹å¢ĥ":10977,"çħ®èĩ³":10978,"åįĴ":10979,"åĴĮèĲ¥åħ»":10980,"åĪĽå§ĭäºº":10981,"acci":10982,"åı¯æĺ¯":10983,"äº§çī©":10984,"å¤§å¥ĸ":10985,"çļĦçĳľä¼½":10986,"çī¹çĤ¹æĺ¯":10987,"æĿ¯ä¸Ń":10988,"æĶ»çķ¥":10989,"ç§ĳæĻ®æĸĩç«ł":10990,"ä¸Ģè¾¹":10991,"åĪĨæ³Į":10992,"éĺŁéķ¿":10993,"Pythonä¸Ń":10994,"è¡¨è¿°":10995,"æĽ´å¤ļçļĦäºº":10996,"è¡¬è¡«":10997,"æİ¨çĲĨè¿ĩç¨ĭ":10998,"å¾·å°Ķ":10999,"çĨĶ":11000,"äººåĬĽèµĦæºĲ":11001,"éĥ½èĥ½å¤Ł":11002,"Ġwhat":11003,"ï½":11004,"åį¡æĭī":11005,"å²Ľä¸Ĭ":11006,"æıī":11007,"èĪĴéĢĤåº¦":11008,"1972":11009,"çļĦå¹³æĸ¹":11010,"å¤§èµĽ":11011,"çĦ¶åĲİåľ¨":11012,"èĲ¨åħĭ":11013,"æŃ¥åħµ":11014,"ä¿Ŀæļĸ":11015,"åħħåĪĨåĪ©çĶ¨":11016,"æłĩåĩĨå·®":11017,"ä¸ľä¸´":11018,"Ġ150":11019,"å¤©åĲİ":11020,"åİŁä½ı":11021,"Ġ23":11022,"è§£åĨ³è¿Ļä¸ªéĹ®é¢ĺ":11023,"æĿ¥å®ĮæĪĲ":11024,"åħĭå°Ķ":11025,"åı¸æľº":11026,"çİ²":11027,"è¥¿åĮĹéĥ¨":11028,"ä¸¤åĲį":11029,"çļĦç»ıåħ¸":11030,"æł¹æį®æĤ¨çļĦ":11031,"å¹´åĪ°":11032,"æĮĩæĺİ":11033,"illi":11034,"å·®è·Ŀ":11035,"æ¯ıä¸ªäººéĥ½æľī":11036,"çļĦçĶŁåĳ½":11037,"èµİ":11038,"åľ¨åĮĹäº¬":11039,"å¸ĮæľĽèĥ½":11040,"çļĦåħ¬åı¸":11041,"èĬ¬åħ°":11042,"èĢķ":11043,"çļĦæĹ¶éĹ´åĴĮ":11044,"æĹ¶éľĢè¦ģ":11045,"æľĢå¤ļçļĦ":11046,"åıĳçĶŁåıĺåĮĸ":11047,"æĦıæĦ¿":11048,"è¿ĻåĮħæĭ¬":11049,"äºļåİĨå±±":11050,"String":11051,"ä¸Ģåı¥":11052,"ä¸ŃæīĢ":11053,"1975":11054,"logy":11055,"ĠEx":11056,"å¸ĮæľĽèĥ½å¤Ł":11057,"ibon":11058,"å®ŀä¹ł":11059,"å¤ıå¨ģ":11060,"æ¸©æļĸçļĦ":11061,"æ£ĭåŃĲ":11062,"ä½łåı¯ä»¥åľ¨":11063,"ç±³å°Ķ":11064,"å¸¦æĿ¥æĽ´å¤ļçļĦ":11065,"æķĪåĬĽ":11066,"ç§įç§į":11067,"éľĢè¦ģèĢĥèĻĳåĪ°":11068,"å°Ķå¤«":11069,"åľ¨æľ¬":11070,"åĨ³å¿ĥ":11071,"åĲ¸å¼ķæĽ´å¤ļçļĦ":11072,"çļĦæĮĩåįĹ":11073,"åħ¶ä¸»è¦ģ":11074,"km":11075,"æĽ²çº¿":11076,"åĩŃåĢŁ":11077,"èĩªå·±çļĦæĥħç»ª":11078,"ĠæľĪ":11079,"1930":11080,"è°ĥè§£":11081,"çļĦé£İæł¼":11082,"æĸ¯é¡¿":11083,"æķ¬ç¤¼":11084,"æµ·è¾¹":11085,"çĪ±åĽłæĸ¯åĿ¦":11086,"æĥ¨":11087,"éĻĨåľ°éĿ¢ç§¯ä¸º":11088,"åĺīå®¾":11089,"ç¬¬ä¸īä¸ª":11090,"æ©ĺ":11091,"æĬĴ":11092,"åĢ¡å¯¼":11093,"ä½¿çĶ¨æĸ¹æ³ķ":11094,"éħįä¸Ĭ":11095,"æ°´åŁŁéĿ¢ç§¯ä¸º":11096,"ä¹ĭåŃĲ":11097,"æ¤įçī©çĶŁéķ¿":11098,"æĶ¿åºľåĴĮ":11099,"lock":11100,"éĢīæĭ©äºĨ":11101,"è¿ĺåĮħæĭ¬":11102,"æĢ»åĴĮ":11103,"å¾¡åı²":11104,"çļĦä¸Ģé¡¹":11105,"1956":11106,"æĺ¯æľī":11107,"æĿ¥è¡¨è¾¾":11108,"æı´åĬ©":11109,"åĨ¬å¤©":11110,"çļĦç¹ģ":11111,"å¤ıå¨ģå¤·":11112,"è½»æĺĵ":11113,"|------":11114,"æ°ĶçĲĥ":11115,"ä»¥åıĬå¯¹":11116,"æģ¶æĦı":11117,"åĢºåĪ¸":11118,"è®ºåĿĽ":11119,"Le":11120,"ibonacci":11121,"æĭ¥æĬ±":11122,"åı¯åľ¨":11123,"æĹ¬":11124,"ç¼ĸåī§":11125,"åıĳå±ķåĴĮ":11126,"ĠWe":11127,"åľ¨åĵªéĩĮ":11128,"1500":11129,"èĪŀèĢħ":11130,"çļĦç¬Ķ":11131,"çĦ¶åĲİçĶ¨":11132,"æĸ°çĸĨ":11133,"ä¸ĭæĸ¹":11134,"ç¬¬ä¹Ŀ":11135,"çķĻä¸ĭäºĨ":11136,"åıªéľĢ":11137,"å¾·åįİ":11138,"éº»è¾£":11139,"å¤Ħç½ļ":11140,"çļĦåıĳå±ķåĴĮ":11141,"Ste":11142,"è¿Ļç»Ħ":11143,"ç¿»è¯ĳæĪĲæ³ķè¯Ń":11144,"æ²»çĸĹæĸ¹æ¡Ī":11145,"æī®æ¼ĶçĿĢ":11146,"ĠWhat":11147,"äºĽä»Ģä¹Ī":11148,"åĪ¶ä½ľä¸Ģä¸ª":11149,"åĮħåĽ´":11150,"çļĦåľ°åĮº":11151,"å®¢æĪ·éľĢæ±Ĥ":11152,"çļĦæľĢä½³":11153,"åĲı":11154,"å¤©çİĭæĺŁ":11155,"åħ«å¹´":11156,"ä»¥åıĬåħ¶ä»ĸ":11157,"åľºä¸Ĭ":11158,"å¥ĩå¹»":11159,"èµ·ä¹ī":11160,"ä¸įæĩĪ":11161,"éĵ¶æ²³ç³»":11162,"çļĦä½ĵéªĮ":11163,"çĲĲ":11164,"è´Łè´£äºº":11165,"å«ģ":11166,"è¯¦ç»ĨåĽŀçŃĶä¸ĬéĿ¢çļĦéĹ®é¢ĺ":11167,"åī¯ä¸»ä»»":11168,"æĺ¯ä¸Ģä»½":11169,"çļĦèī²å½©":11170,"é¥º":11171,"æī¹ç¤º":11172,"æĺİæľĿæĶ¿æ²»äººçī©":11173,"æĺ¯åĵª":11174,"ä¼ļçļĦ":11175,"choice":11176,"ä¼łåªĴ":11177,"å®¢æĪ¿":11178,"Ġthere":11179,"Ġmath":11180,"å®ĥä¸įä»ħ":11181,"ony":11182,"Ġå¦Ĥä½ķ":11183,"æ¼Ķåıĺ":11184,"Ġthey":11185,"åħ¼ä»»":11186,"çļĦåı¯èĥ½æĢ§":11187,"ç»¸":11188,"èļĬ":11189,"æįĲèµł":11190,"çĽİ":11191,"ä¸ĩåİĨ":11192,"åĵĪåĵĪ":11193,"éħ¿":11194,"çļĦç»ıåİĨ":11195,"åŃ¦å£«":11196,"çĻ»è®°":11197,"ream":11198,"è¿Ļæł·æīįèĥ½":11199,"çº·çº·":11200,"å±ĤçļĦ":11201,"çĥĽ":11202,"åī§éĽĨ":11203,"ä¸įè¶ħè¿ĩ":11204,"Ġknow":11205,"David":11206,"å®īåħ¨éĹ®é¢ĺ":11207,"ä½¿åĳ½":11208,"æĪĳåĲ¬è¯´":11209,"ä¸»æµģ":11210,"æīĵè´¥":11211,"éĻ¨çŁ³":11212,"HTML":11213,"éĩĩåıĸæİªæĸ½":11214,"ature":11215,"PU":11216,"Ġstud":11217,"æĶ¶è´¹":11218,"åįĹéĿŀ":11219,"éĿ¢æĸĻ":11220,"å°¼è¥¿äºļ":11221,"æĿ¡ä¾ĭ":11222,"è¡¡éĩı":11223,"é¦ĸåħĪè¦ģ":11224,"åħ³ç³»çļĦ":11225,"å¥½è¯Ħ":11226,"æİ¢ç´¢åĴĮ":11227,"å¥¶æ³¡":11228,"æ¶¡":11229,"åĲĪä½ľä¼Ļä¼´":11230,"çĪ±åĴĮ":11231,"ç»½":11232,"èĬŃ":11233,"Ġsort":11234,"ä¿¡èªī":11235,"èµ°è¿Ľ":11236,"lish":11237,"æĳĶ":11238,"åĴĮè´¨éĩı":11239,"è¯ĹåĲ§":11240,"æĭŃ":11241,"è¿Ļä¸ĢçĤ¹":11242,"è¤Ĳ":11243,"land":11244,"å¯ĨçļĦ":11245,"ç«Ļåı°":11246,"æĥŁ":11247,"ä¸İäºº":11248,"Ġnumber":11249,"ä¸ŃæľŁ":11250,"æİł":11251,"éĢļçĶ¨":11252,"åĴĮè°ĥæķ´":11253,"ç¹ģå¿Ļ":11254,"åħ¥éĹ¨":11255,"é¢Ħå¤ĦçĲĨ":11256,"çĺ¤":11257,"ç¼ĸåĨĻä¸Ģç¯ĩåħ³äºİ":11258,"èĭį":11259,"åı¯ä»¥å¯¹":11260,"è¡Ĺå¤´":11261,"æ²Ĳ":11262,"ä»ĸäºİ":11263,"éĢĤä¸Ń":11264,"éķ¿æľŁçļĦ":11265,"åı¯ä»¥åĪ©çĶ¨":11266,"æ£ĢéªĮ":11267,"åľ¨ä¸ĢäºĽ":11268,"é¡¶éĥ¨":11269,"åĵĳéĵĥ":11270,"åį¡çīĩ":11271,"ä¼ģé¹ħ":11272,"è¯·å¸®æĪĳ":11273,"ä¼Ĭæĸ¯åħ°":11274,"æłĳæŀĹ":11275,"éĿ¢åīį":11276,"æĬķéĻį":11277,"å¦Ĥæŀľä¸Ģä¸ª":11278,"è±ļ":11279,"æĹģè¾¹":11280,"é¥°åĵģ":11281,"æķ°åŃ¦éĹ®é¢ĺ":11282,"åı¯ä¿¡":11283,"irc":11284,"èĭ¥å¹²":11285,"æ¯ĶåĪĨ":11286,"åĬŁçİĩ":11287,"éĩİé¤Ĳ":11288,"æ°´åºĵ":11289,"æŀģéĻĲ":11290,"çļĦç¡¬":11291,"æĪĳä¸į":11292,"çıįçıł":11293,"çĲĥåŃ£":11294,"è®©è§Ĥä¼Ĺ":11295,"åĴĸåķ¡åĽł":11296,"ä¸įèµ·":11297,"æĪĳä»¬çĽ¸ä¿¡":11298,"æ°¸ä¹ħ":11299,"èĬ±çĵ£":11300,"å¹´é¾Ħæ®µ":11301,"æ¡ĮåŃĲ":11302,"Tæģ¤":11303,"å®¡ç¾İ":11304,"è®¾è®¡ä¸Ń":11305,"å®ĥèĥ½å¤Ł":11306,"ä¾ĭåŃĲä¸Ń":11307,"éĥ½åħ·æľī":11308,"åĸľæĤ¦":11309,"itt":11310,"æµ´å®¤":11311,"Pro":11312,"éªļ":11313,"è§Ħå®ļçļĦ":11314,"å¤ĸå¥Ĺ":11315,"çĦ¶åĲİä½¿çĶ¨":11316,"åĽŀçŃĶä»¥ä¸ĭéĹ®é¢ĺ":11317,"æł¼æĭī":11318,"æ¸Ĭ":11319,"come":11320,"çļĤ":11321,"éħįé¥°":11322,"èĢĮæ°´åŁŁéĿ¢ç§¯ä¸º":11323,"å½ĵä¸ŃéĻĨåľ°éĿ¢ç§¯ä¸º":11324,"çļĦè¡£æľį":11325,"ustom":11326,"ç§ĳåŃ¦éĻ¢":11327,"çĶŁäº§åĬĽ":11328,"Emily":11329,"çĶµè§ĨèĬĤçĽ®":11330,"ãĢı":11331,"çĸ¯":11332,"ä¸ĢåĿĹ":11333,"1937":11334,"ãĢİ":11335,"åľ¨ä¸Ń":11336,"ä¸Ģå¹ħ":11337,"å¥İ":11338,"çļĦéģĵè·¯":11339,"ä¸įå½ĵ":11340,"å¾®çĶŁçī©":11341,"éĢģåĪ°":11342,"å¹¶ç»Ļåĩºè¯¦ç»ĨçļĦ":11343,"å±ĭé¡¶":11344,"éĢĥç¦»":11345,"æľĢå°ıåĢ¼":11346,"èĬ¹":11347,"ä¸įå®ī":11348,"è¯Ńä¹ī":11349,"åĲĮæŃ¥":11350,"åº·çĨĻ":11351,"åĬŀäºĭå¤Ħ":11352,"çªĦ":11353,"å®ĥæĺ¯ä¸Ģç§į":11354,"è§Ĵèī²çļĦ":11355,"Ġ!":11356,"åĴĮéģĵå¾·":11357,"åħ¬çĪµ":11358,"åĴĮä¸ĢäºĽ":11359,"åĳİ":11360,"åĴĮæµĭè¯ķ":11361,"åĢŁæ¬¾":11362,"åĽĽå·Ŀçľģ":11363,"ä¸Ģåı¥è¯Ŀ":11364,"ä¹Łèĥ½å¤Ł":11365,"æµģéĢļ":11366,"æŁ¥ä¸Ģä¸ĭ":11367,"åĸ·åıĳ":11368,"æĦıå¼ı":11369,"è¿ĻéĩĮçļĦ":11370,"by":11371,"Er":11372,"æĴ°åĨĻä¸Ģç¯ĩåħ³äºİ":11373,"æĺ¯åľ°çĲĥ":11374,"æĦģ":11375,"åģļåĩºè´¡çĮ®":11376,"åĪ¶å¤ĩ":11377,"è±Ĩçĵ£éħ±":11378,"å®łçī©çļĦ":11379,"è¿ĺæľīå¾Īå¤ļ":11380,"æĹ¶ä¼ļ":11381,"ä¸»åĬŀ":11382,"èµļ":11383,"çĮ©":11384,"æĮīæĹ¶":11385,"æ´Ĺåıĳ":11386,"iew":11387,"éħµæ¯į":11388,"ĠåĹ¯":11389,"yn":11390,"Ġkey":11391,"åľ°çĲĨä½įç½®":11392,"çľŁå®ŀçļĦ":11393,"å¿łè¯ļåº¦":11394,"ä¸Ģæĸ¹":11395,"å´ĸ":11396,"CR":11397,"åľ¨èģĮåľº":11398,"æĬ¥çº¸":11399,"enn":11400,"æĽ´éĢĤåĲĪ":11401,"1947":11402,"ç¬¬äºĮæ¬¡ä¸ĸçķĮå¤§æĪĺ":11403,"åĨĻçļĦ":11404,"çļĦçĹĩ":11405,"æĩĴ":11406,"ĠFalse":11407,"æĪĳä»¬æīĢ":11408,"å¥³ä¸»è§Ĵ":11409,"æĿĲæĸĻçļĦ":11410,"ĠUn":11411,"å§ļ":11412,"æľ¬æĸĩå°Ĩ":11413,"Ġ35":11414,"æ³ķåħ°è¥¿":11415,"åľ¨åľ°":11416,"æ¸ħæ¾Ī":11417,"å°Ĩè¢«":11418,"åĩºæ¼Ķ":11419,"åį¡è·¯éĩĮ":11420,"é©±éĢĲ":11421,"Ġ70":11422,"Ġè¿Ļä¸ªéĹ®é¢ĺ":11423,"åĪ¶ä½ľæŃ¥éª¤":11424,"éĢļå¸¸çĶ±":11425,"æĸ°å¨ĺ":11426,"åľ¨ä»ĸçļĦ":11427,"Ġä¸įçĶ¨":11428,"è½»è½»åľ°":11429,"éĢļè¿ĩè¿ĻäºĽ":11430,"èĪĴç¼ĵ":11431,"åºĶèģĺ":11432,"MP":11433,"çľŁè¯ļ":11434,"ç¼ºéĻ·":11435,"èĪ¹åıª":11436,"ç»ĪæŃ¢":11437,"è¯Ńè¨ĢåĴĮ":11438,"èĤ¾":11439,"Ġdif":11440,"èģĨ":11441,"æĢģåº¦åĴĮ":11442,"ç»Ħä»¶":11443,"æļĤæĹ¶":11444,"é£İéĽ¨":11445,"æĥħæĦŁåĪĨæŀĲ":11446,"åıĤéĢī":11447,"çĶĺèĤĥ":11448,"æĹ¥ç¨ĭ":11449,"åĩīçĪ½":11450,"éªĳèĩªè¡Įè½¦":11451,"éº»çĥ¦":11452,"è½»ä¾¿":11453,"ä¸Ģçº§":11454,"è´¼":11455,"è´Ńçī©æ¸ħåįķ":11456,"æįķæįī":11457,"Ġop":11458,"ĠĠĠĠĠĠĠĠĠĠĠĠĠĠ":11459,"éĽ¶é£Ł":11460,"åĥıç´ł":11461,"ĠPl":11462,"éľĢè¦ģéĢļè¿ĩ":11463,"çļĦç»ĨèĬĤ":11464,"å·ŀåºľ":11465,"æµ·æĬ¥":11466,"çļĦä¸Ńå¿ĥ":11467,"ä¸įå°ĳäºİ":11468,"Ġ21":11469,"Ġåĩıå°ĳ":11470,"çĽ¸ç»ĵåĲĪ":11471,"ç³»ç»Łä¸Ń":11472,"1968":11473,"ä¸įæĸŃè¿ĽæŃ¥":11474,"å¥³ç¥ŀ":11475,"é²¨é±¼":11476,"ç½ĳè·¯":11477,"äºĮæĪĺ":11478,"æĬ¤èĤ¤åĵģ":11479,"å¤§çĲĨ":11480,"æľ¬äºº":11481,"çİ¯å¢ĥéĹ®é¢ĺ":11482,"èĵī":11483,"ä¿®çĲĨ":11484,"è¾©æĬ¤":11485,"åı¤è¿¹":11486,"Emma":11487,"æľºåĻ¨äººçļĦ":11488,"åĴĮæ´»åĬ¨":11489,"ä¸īæĺŁ":11490,"Ġjust":11491,"çļĦæĥħèĬĤ":11492,"test":11493,"è½»çĽĪ":11494,"åľ¨å¼Ģå§ĭ":11495,"ited":11496,"ä½¿æĪĳä»¬":11497,"äººå·¥æĻºèĥ½åľ¨":11498,"çģ¾éļ¾":11499,"åīįåĲİ":11500,":|":11501,"çħ§çīĩ":11502,"çļĦç³ĸ":11503,"åĴĮèĩªæĪĳ":11504,"banana":11505,"è¾½å®ģ":11506,"åĳ¨å¹´":11507,"Re":11508,"Ġlife":11509,"å¤±è¸ª":11510,"æ´»åĬĽåĴĮ":11511,"çº¹çĲĨ":11512,"CA":11513,"åĽĽåįģ":11514,"åĴĮçĽĲ":11515,"ä¾ĽåıĤèĢĥ":11516,"è¥¿åįĹéĥ¨":11517,"åĲĮæĢ§":11518,"åİŁåĲį":11519,"ä»£æķ°":11520,"åħīèĬĴ":11521,"èĢģå¹´äºº":11522,"ãĢĳ":11523,"æĭĨéĻ¤":11524,"æľįåĬ¡çļĦ":11525,"ä¸įå¥½":11526,"olut":11527,"éĻĨç»Ń":11528,"æİ¨çĲĨéĢ»è¾ĳ":11529,"æİ·":11530,"çģµéŃĤ":11531,"çº³ç²¹":11532,"è¯¯å·®":11533,"cre":11534,"çŁŃæĸĩ":11535,"å¤©åľ°":11536,"ä½Ĩè¿Ļ":11537,"ä¸»è¦ģçĶ±":11538,"ãĢĲ":11539,"å±ł":11540,"ä¹ĺç§¯":11541,"çļĦçĦ":11542,"å½±è§Ĩ":11543,"å®ļå±ħ":11544,"Ġstring":11545,"çłģå¤´":11546,"td":11547,"åŃ¦çļĦ":11548,"æĶ¹åĪ¶":11549,"çļĦçĪ¶æ¯į":11550,"Lily":11551,"åĲ»":11552,"éľĢè¦ģäºĨè§£":11553,"æ¯Ľæ³½":11554,"ç²¾å¿ĥ":11555,"å®¶åĴĮ":11556,"çļĦçĹĩçĬ¶":11557,"éĶĪ":11558,"å¡ŀçº³":11559,"éĢĹ":11560,"ä¿ĥè¿ĽäºĨ":11561,"å¤©èµĭ":11562,"çıĢ":11563,"Ġany":11564,"å°ıçİĭ":11565,"åĪ¶ä½ľåĩº":11566,"ä¸ºäººç±»":11567,"éĿ¢ç³Ĭ":11568,"åī¯ä¸»å¸Ń":11569,"å°¼å°Ķ":11570,"å·²ç»ıæĪĲä¸ºäºĨ":11571,"éĿŀå»ºåĪ¶":11572,"lement":11573,"æ¿Ĵ":11574,"æ¸¸æ³³æ±ł":11575,"åĽłä¸ºä»ĸä»¬":11576,"åĪĨç±»åĻ¨":11577,"åı¶çīĩ":11578,"Ġ\"\"\"":11579,"æ±ŁåįĹ":11580,"æĪĳæŃ£åľ¨":11581,"å¹³æĿ¿":11582,"å»ºè®®åĲĹ":11583,"çļĦæĹ¶åĪ»":11584,"éĩĳèī²":11585,"é«ĺå³°":11586,"æıĲä¾ĽæĽ´åĬł":11587,"åĴĮå¸Ĥåľº":11588,"æµģä¼ł":11589,"åĴĮçĶŁæ´»":11590,"æ¬¡å¹´":11591,"åŃĹæ®µ":11592,"usic":11593,"air":11594,"åĪĨéļĶ":11595,"èĳ±èĬ±":11596,"è®²è¿°äºĨä¸Ģä¸ª":11597,"åĲµ":11598,"Ġï¿¥":11599,"åŃķå¦ĩ":11600,"æľĢæľī":11601,"ç½ĳé¡µ":11602,"èģĬå¤©æľºåĻ¨äºº":11603,"çĶ¨æ°´":11604,"æĺ¯åĲ¦ç¬¦åĲĪ":11605,"æ··åĩĿ":11606,"æ¨¡åŀĭçļĦ":11607,"éĻĮçĶŁäºº":11608,"ç»Ļåĩºåħ·ä½ĵçļĦæİ¨çĲĨéĢ»è¾ĳ":11609,"åĽŃæŀĹ":11610,"åºĵåŃĺ":11611,"ä½ľèĢħçļĦ":11612,"éļıåį³":11613,"ä½ıåľ¨":11614,"äºĨè¿Ļä¸ª":11615,"éŁ³æķĪ":11616,"éī´å®ļ":11617,"åĪĻä¼ļ":11618,"æ´¾éģ£":11619,"oint":11620,"ä¸ĸçķĮåĲĦåľ°":11621,"Ġ120":11622,"åįıåĲĮ":11623,"çļĦæ¦Ĥçİĩ":11624,"çİ°éĩĳæµģ":11625,"ales":11626,"åĭĩæ°ĶåĴĮ":11627,"èī²ç´ł":11628,"Ġä¸ŃåĽ½":11629,"æµ·å¹³éĿ¢ä¸Ĭåįĩ":11630,"æĺ¨å¤©":11631,"ures":11632,"åĴĮä»·åĢ¼è§Ĥ":11633,"æķ°åįģ":11634,"äºĨä¸Ģåľº":11635,"äº®åº¦":11636,"é¸ŃåŃĲ":11637,"åĽŀçŃĶéĹ®é¢ĺå¹¶ç»Ļåĩºè¯¦ç»ĨçļĦ":11638,"åĽŀçŃĶéĹ®é¢ĺå¹¶ç»Ļåĩºè¯¦ç»ĨçļĦæİ¨çĲĨè¿ĩç¨ĭ":11639,"çĥģ":11640,"ram":11641,"åĲĮçĽŁ":11642,"å¥Ķè·ĳ":11643,"ä¸ĬéĿ¢çļĦ":11644,"çĨŁéĢı":11645,"æľĢåħ·":11646,"åĴĮèµĦæºĲ":11647,"å¹¶èİ·å¾Ĺ":11648,"éĽ¨æŀĹ":11649,"1952":11650,"å§¬":11651,"éħ±æĸĻ":11652,"ä¸įåı¯èĥ½":11653,"æ¸¯åı£":11654,"çļĦæĬķèµĦ":11655,"åĴĮæľī":11656,"AåĴĮ":11657,"æĹ¥æ²»":11658,"äºĶèĬ±":11659,"als":11660,"ä½©æĪ´":11661,"åİļåº¦":11662,"å¼Ĭ":11663,"å¸ĥæľĹ":11664,"å¯ºåºĻ":11665,"Ġet":11666,"è¸¢":11667,"1964":11668,"èįīèį¯":11669,"èĴĻçī¹":11670,"éĵľçīĮ":11671,"ä¼łç»ŁæĸĩåĮĸ":11672,"æįŀåĩº":11673,"ä¹Łæĺ¯ä¸Ģç§į":11674,"åĽºä½ĵ":11675,"è´©":11676,"èĮĦåŃĲ":11677,"æıĲåĩºçļĦ":11678,"è¯ı":11679,"å»ºç«ĭèµ·":11680,"çļĦçĥ¹é¥ª":11681,"å´©æºĥ":11682,"èĨ³é£Ł":11683,"çĻ»å±±":11684,"èīºäºº":11685,"æ°Ķä½ĵçļĦ":11686,"ĠHow":11687,"cept":11688,"ative":11689,"æĹ¥èĲ½":11690,"æĿĥå¨ģ":11691,"è¿Ļé¦ĸè¯Ĺ":11692,"TA":11693,"è¯·è¾ĵåħ¥ç¬¬ä¸Ģä¸ª":11694,"æµĵç¼©åĴĸåķ¡":11695,"åĴĮæķĻèĤ²":11696,"è¿ĩæĿ¥":11697,"Ġstart":11698,"ror":11699,"çļĦè®¡ç®Ĺ":11700,"è¯·è¾ĵåħ¥ç¬¬äºĮä¸ª":11701,"æ¤įè¢«":11702,"æ»ĳéĽª":11703,"åĬ¨è¯į":11704,"å§¿æĢģ":11705,"tal":11706,"åĲ¸çĥŁ":11707,"æĺ¯é¦Ļæ¸¯":11708,"æĸ¹è¨Ģ":11709,"åĪĨä¹ĭä¸Ģ":11710,"0000":11711,"æ¬²æľĽ":11712,"æľ¬å±ŀ":11713,"ä¸¤å¹´":11714,"çĻ¾ä¸ĩ":11715,"è¿Ļåı¯ä»¥":11716,"Ġ------":11717,"æ¯Ľæ³½ä¸ľ":11718,"ĠAn":11719,"æĸĩæľ¬ä¸ŃçļĦ":11720,"--------------------------------":11721,"çļĦçĩ":11722,"ä¸Ģå¼Ģå§ĭ":11723,"ä¸ªæĢ§åĴĮ":11724,"äºĨä»ĸ":11725,"å¤ļåħĥåĮĸ":11726,"åĲŀåĻ¬":11727,"äºĮäºº":11728,"åĴĸåķ¡é¦Ĩ":11729,"å¼łä¸ĵè¾ĳ":11730,"ople":11731,"æĦŁåıĹåĴĮ":11732,"æĬĦ":11733,"è¾Ł":11734,"ç²¥":11735,"åħ±è®¡":11736,"Ġset":11737,"åľ£è¯ŀ":11738,"çĶµçº¿":11739,"ument":11740,"æŁĦ":11741,"å¥½å¥½":11742,"æĽĿ":11743,"Ġå¢ŀåĬł":11744,"å°ıçĲĥ":11745,"éĿŀå»ºåĪ¶åľ°åĮº":11746,"æŀķ":11747,"è¯´æľį":11748,"èģĶç³»æĸ¹å¼ı":11749,"åĽºå®ļçļĦ":11750,"å¥¥æĸ¯åį¡":11751,"åĪĻä¸º":11752,"å¤§åŃ¦çĶŁ":11753,"Ġå¸®æĪĳæĥ³":11754,"ä¸įåºĶè¯¥":11755,"æĹ©æĻ¨":11756,"æ¢¦å¢ĥ":11757,"çŁ¥åĲįåº¦":11758,"äººå·¥æĻºèĥ½æĬĢæľ¯çļĦ":11759,"åĴĮåİĨåı²":11760,"äººä»¬çļĦçĶŁæ´»":11761,"ä¼ļéķ¿":11762,"è´¨çļĦ":11763,"èĿł":11764,"å®ļæĹ¶":11765,"ä¹ĭéĹ´çļĦè·Ŀç¦»":11766,"åı¯ä»¥æĮĩ":11767,"æĴ°åĨĻä¸Ģä»½":11768,"éļĻ":11769,"be":11770,"éĩĮäºļ":11771,"èº«ä¸º":11772,"å·¡åĽŀ":11773,"éĶ®çĽĺ":11774,"ä½łåºĶè¯¥":11775,"æıĲåıĬ":11776,"ï¼ģ\")":11777,"äººéĻħäº¤å¾Ģ":11778,"æł¼ä¸º":11779,"æĿ¥å¢ŀåĬł":11780,"æīĭå¥Ĺ":11781,"éĢīæĭ©çļĦ":11782,"Ġpr":11783,"æľºåĬ¨":11784,"çĥ¯":11785,"æĻĭçº§":11786,"æłĩçĤ¹":11787,"å°½éĩıéģ¿åħį":11788,"çľĭæĿ¥":11789,"ç©ºæ°Ķæ±¡æŁĵ":11790,"çī©ä½ĵçļĦ":11791,"OR":11792,"é¸¡èħ¿":11793,"æŃĮåĶ±":11794,"æ´¾åĩº":11795,"ä»ªåĻ¨":11796,"çº¦æĿŁ":11797,"ĠçĶ¨æĪ·":11798,"éŁ³é¢ĳ":11799,"å¥³æĢ§çļĦ":11800,"æ¡£æ¡Ī":11801,"amp":11802,"æĺ¥å¤©çļĦ":11803,"å¾ĹåĲį":11804,"éĴī":11805,"æĢ»èĢĮè¨Ģä¹ĭ":11806,"åľ¨æ¸¸æĪıä¸Ń":11807,"eta":11808,"åľ°è¿Ľè¡Į":11809,"åı¯éĢī":11810,"ä¸Ģæ®µæĹ¶éĹ´":11811,"ä¸»ä¹īçļĦ":11812,"ä¼´éļıçĿĢ":11813,"rough":11814,"èº«æĿĲ":11815,"æĮĩå®ļçļĦ":11816,"çī©ç§įçļĦ":11817,"æĺ¯åħ³äºİ":11818,"ç»ŃåĨĻ":11819,"ä¸įç®¡":11820,"åĪºåı²":11821,"æ³°åĿ¦":11822,"åĴĮèĩªçĦ¶":11823,"user":11824,"ä¸įä½³":11825,"____________":11826,"éĹªçĥģ":11827,"æĦ¿æľĽ":11828,"1955":11829,"èº«å¿ĥåģ¥åº·":11830,"å¦Ĥæľī":11831,"ABC":11832,"Ġè¿Ľè¡Į":11833,"æĶ¶åħ¥åĴĮ":11834,"æıĲä¾Ľå¸®åĬ©":11835,"è¯ģä¹¦":11836,"ç¼©çŁŃ":11837,"çļĦç¿»è¯ĳ":11838,"åŁİå¸ĤåĮĸ":11839,"æ¸©æ°´":11840,"èĢĥåı¤":11841,"æ··åĩĿåľŁ":11842,"ä½łè¦ģ":11843,"æģ¶åĬ£":11844,"çŃīåĲĦç§į":11845,"å¤©ä¸ĭ":11846,"åĬłæ·±":11847,"èįĨ":11848,"åıĳè¾¾":11849,"é¼İ":11850,"çļĦæľīæķĪ":11851,"ä¸Ĭåİ»":11852,"æĪĳä»¬æľī":11853,"ç¡®è¯ĬçĹħä¾ĭ":11854,"ç¥ł":11855,"å¼ķé¢Ĩ":11856,"åĴĮæİ§åĪ¶":11857,"1941":11858,"çŃīæ´»åĬ¨":11859,"èĦļæľ¬":11860,"éĶĢåĶ®éĩı":11861,"å»ºçŃĳçļĦ":11862,"Ġéģ¿åħį":11863,"åĮł":11864,"æĹ¶éĹ´ç®¡çĲĨ":11865,"ç¿Į":11866,"ä¹ĲæĦı":11867,"åĩĿèģļ":11868,"å½¦":11869,"èĥľåľ°":11870,"ä¹¦éĻ¢":11871,"åĽĽç§į":11872,"åĴĮä¿ĿæĬ¤":11873,"ç§°ä½ľ":11874,"éĥ½æľīåħ¶":11875,"æĵ¦æĭŃ":11876,"æ±Ĥåĩº":11877,"å¥¥å°Ķ":11878,"size":11879,"åľŃ":11880,"è½°çĤ¸":11881,"02":11882,"sp":11883,"éŃģ":11884,"1938":11885,"æĪªæŃ¢":11886,"éĽĨä¸Ńåľ¨":11887,"åĪĻæľī":11888,"æ¸©å®¤æ°Ķä½ĵæİĴæĶ¾":11889,"hello":11890,"Ġwho":11891,"Ġnums":11892,"å¼ķè¿°":11893,"çļĦå¹³è¡¡":11894,"è¯·ç¡®ä¿Ŀ":11895,"ç»´å¤ļ":11896,"æ³¢ç½Ĺ":11897,"åĮºåĴĮ":11898,"å¼Łå¼Ł":11899,"æĭĸå»¶":11900,"Verse":11901,"ä½ľä¸ºä¸Ģç§į":11902,"åĪ¶çīĩ":11903,"Sarah":11904,"å°¿å¸ĥ":11905,"åķ¦":11906,"++)":11907,"éĢīä¸Ń":11908,"åĲĽä¸»":11909,"åĬ¨æľº":11910,"åĲĮæĹ¶è¿ĺ":11911,"éĹ¸":11912,"æ¯Ľå·¾":11913,"________________________________________________________________":11914,"å¿Į":11915,"èģĬä»Ģä¹Ī":11916,"æ¬ºè¯Ī":11917,"çļĦæľĢå¤§":11918,"èŃ¦æĬ¥":11919,"åģĩæľŁ":11920,"èĮħ":11921,"ä¹ĲåĽŃ":11922,"äºĨè§£åĪ°":11923,"1966":11924,"æį®è¯´":11925,"åľ¨é¦Ļæ¸¯":11926,"èŀºæĹĭ":11927,"ä¸īæ¬¡":11928,"åı¤å¸ĮèħĬ":11929,"ser":11930,"è¢«çĶ¨äºİ":11931,"åīįè¡Į":11932,"Mary":11933,"åĲİéĿ¢":11934,"åĪĨå¼Ģ":11935,"èµĮ":11936,"æµ·æµª":11937,"Ġå®īè£ħ":11938,"è¿Ļåı¯èĥ½":11939,"çºº":11940,"é¥¥":11941,"åİĭåĬĽåĴĮçĦ¦èĻĳ":11942,"08":11943,"åĤ¬åĮĸ":11944,"è½¦èº«":11945,"åģļä¸Ģä¸ª":11946,"é¾Ļå¤´":11947,"çī¹èī²çļĦ":11948,"ä¸įæĸŃæıĲé«ĺ":11949,"roid":11950,"Ġwords":11951,"ä¼ĺæĥłåĪ¸":11952,"çľŁçĽ¸":11953,"æĤ¨åı¯ä»¥ä½¿çĶ¨":11954,"åĲįä¹ī":11955,"éĢļå¸¸çĶ¨äºİ":11956,"æĪĸè®¸":11957,"çĻ»ä¸Ĭ":11958,"è¿ĩäºĨ":11959,"å¼ĵ":11960,"æłĩæ³¨":11961,"åģļèµ·":11962,"å°ıæķ°":11963,"oth":11964,"å®łçī©çĭĹ":11965,"æĢ§éĹ®é¢ĺ":11966,"çĶ°å¾Ħ":11967,"çļĦçī©è´¨":11968,"é¸¦":11969,"éĵģå¡Ķ":11970,"ä¸İåŃ©åŃĲ":11971,"ç«ĭä½ĵ":11972,"åĲĵ":11973,"1973":11974,"score":11975,"åĨĽåĽ¢":11976,"box":11977,"è¯»åıĸ":11978,"æĥħäºº":11979,"åİĮ":11980,"ç¼ĸåĨĻä¸Ģä¸ªç¨ĭåºı":11981,"æ¾Ħ":11982,"èĩªå·±çļĦæ¢¦æĥ³":11983,"ç²¾ç¾İçļĦ":11984,"å¯¹è¯¥":11985,"çīĪæĿĥ":11986,"æ±īæĹı":11987,"è¾©è®º":11988,"çļĦçī¹":11989,"ç¤¾ä¼ļä¸Ń":11990,"çŁ¥è¯Ĩäº§æĿĥ":11991,"çĻ½äºĳ":11992,"He":11993,"åĴĮæĸ¹æ³ķ":11994,"æĺİæĻº":11995,"ä¸¤ä¸ªæķ°åŃĹ":11996,"åħ¬åĳĬ":11997,"over":11998,"è°ĭæĿĢ":11999,"ä¸Ģä¸ªåŃĹç¬¦ä¸²":12000,"Ġher":12001,"03":12002,"å§ĭäºİ":12003,"åıĺå¾ĹæĽ´":12004,"ç¢Ł":12005,"åı¯åı¯ç²ī":12006,"å®¤å¤ĸ":12007,"äºļçĽ®":12008,"clude":12009,"å®īå¨ľ":12010,"AIæĬĢæľ¯":12011,"çłį":12012,"Ġdiv":12013,"åħĭç½Ĺ":12014,"åĸĬ":12015,"æĺĶ":12016,"æ´»æ³¼":12017,"æ¨¡åħ·":12018,"çļĦæĹ¶åħī":12019,"æĦŁè§īåĪ°":12020,"ular":12021,"ä½Ĩåį´":12022,"åĩıå°ĳå¯¹":12023,"é»ĳå®¢":12024,"ç½ĳç«Ļä¸Ĭ":12025,"1939":12026,"icro":12027,"å§ĭå»ºäºİ":12028,"åľ¨æĸ°":12029,"è®¤å®ļ":12030,"è®¾è®¡ä¸Ģä»½":12031,"çĽ®æłĩæĺ¯":12032,"wit":12033,"label":12034,"è¾¾å°Ķ":12035,"ĠAd":12036,"alculate":12037,"éªĳåħµ":12038,"line":12039,"å¼ĢåıĳèĢħ":12040,"Ġç»Ļ":12041,"\".":12042,"åľ°ä¸Ń":12043,"ms":12044,"è¿Ļå°ĨæľīåĬ©äºİ":12045,"åĪ¶æĪĲçļĦ":12046,"ender":12047,"ä»¥ä¾¿åľ¨":12048,"åĴĮå°Ĭéĩį":12049,"é¦ĸå¸Ń":12050,"èµŀåĬ©":12051,"äº§éĩı":12052,"åĽŀæĸĩ":12053,"1969":12054,"é¥¿":12055,"ç¨įçŃī":12056,"äººç±»æ´»åĬ¨":12057,"ä¾¨":12058,"æļĤåģľ":12059,"ä½łçŁ¥éģĵ":12060,"åħ¬åĽŃéĩĮ":12061,"Ġdel":12062,"ç§ĳåŃ¦çļĦ":12063,"åºĶçĶ¨åľºæĻ¯":12064,"åĺīéĿĸ":12065,"æ¿ĢåĬ¨":12066,"1974":12067,"åĲİåĨį":12068,"æīĭä¸Ń":12069,"è´¨æĦŁ":12070,"åħ¨èº«":12071,"æľ¨æĿ¿":12072,"æĪĺå£«":12073,"LECT":12074,"Ġleft":12075,"ãĢĤï¼Ī":12076,"ä¾ĽåºĶéĵ¾":12077,"Ġé¸¡èĽĭ":12078,"èº«ä½ĵçĬ¶åĨµ":12079,"Ġpart":12080,"Ġ2000":12081,"åĬłåĵ¥":12082,"[]":12083,"åĩıæ³ķ":12084,"ä¸»ä½ĵ":12085,"èĬĿåĬłåĵ¥":12086,"éĢŁçİĩ":12087,"æŀ«åı¶":12088,"éĢīä¸º":12089,"è¯·ç»ŃåĨĻ":12090,"å®ļæľŁæ£ĢæŁ¥":12091,"åĴĮç³ĸ":12092,"åĮħè£¹":12093,"ä»¥å®ŀçİ°":12094,"ä½įçļĦ":12095,"åħĭæŀĹ":12096,"ĠRe":12097,"ä»¥ç¡®å®ļ":12098,"å¾ĴæŃ¥":12099,"1954":12100,"èºº":12101,"çħ§å°Ħ":12102,"éĴ¾":12103,"çºłæŃ£":12104,"è®©ä½łçļĦ":12105,"è¾ĥå°ĳ":12106,"æİ¨åĩºçļĦ":12107,"ãĢĤâĢľ":12108,"åĩ½æķ°çļĦ":12109,"æıĲéĹ®":12110,"çļĦçĦ¦":12111,"åľ¨å®¶åºŃ":12112,"æĹłæķĪ":12113,"æ¢Ń":12114,"tract":12115,"åĨĽå®ĺ":12116,"Ġ```":12117,"åĲĮä¸Ģä¸ª":12118,"éħįèıľ":12119,"çļĦè®¡åĪĴ":12120,"ä¼¤äº¡":12121,"éĩĬæĶ¾åĩº":12122,"äºĶèĬ±èĤī":12123,"è·ŁæĪĳ":12124,"`ãĢĤ":12125,"çļĦä¹¦":12126,"æŃ»åĲİ":12127,"ç¾¤ä¼Ĺ":12128,"è°İ":12129,"æľĿå»·":12130,"ï¼Į\"":12131,"åĲ¬èµ·æĿ¥ä¸įéĶĻ":12132,"ç«ĭæĸ¹ç±³":12133,"ä¸ŃæľĢå¤§çļĦ":12134,"èĻ«å®³":12135,"è¿·å®«":12136,"å¤§èĩªçĦ¶çļĦ":12137,"æĭįçħ§":12138,"åĭĺ":12139,"izz":12140,"åĴĮç»ıéªĮ":12141,"åº§æłĩ":12142,"åĴĮæĦıä¹ī":12143,"ä¸īæĸĩ":12144,"çĶ¨æ³ķ":12145,"æĹ¶éĹ´ä¸º":12146,"éĢļå¸¸éľĢè¦ģ":12147,"çļĦæĹ¶ä»£":12148,"åĿł":12149,"SU":12150,"Ġ**":12151,"å¹¶ä¸įèĥ½":12152,"æĹłå°½çļĦ":12153,"æĿ¥è¡¨ç¤º":12154,"ä¸Ńå¿ĥçļĦ":12155,"åį³åı¯äº«çĶ¨":12156,"æ´»æĢ§":12157,"é¢ģåıĳ":12158,"åĲ¬åĬĽ":12159,"æ®ĸæ°ĳåľ°":12160,"çļĦå¥½å¤Ħ":12161,"ä¾ĭå¦Ĥåľ¨":12162,"å®ļä¹īäºĨä¸Ģä¸ª":12163,"ä¸įåı¯éģ¿åħį":12164,"Ġä¸Ģç§į":12165,"çªĿ":12166,"ï¼ı":12167,"Ġåģĩè®¾":12168,"ä¿Ŀå¯Ĩ":12169,"Ġsm":12170,"åºĹéĵº":12171,"çļĦçŁŃæĸĩ":12172,"çº¢çĥ§èĤī":12173,"ara":12174,"ä¸ĢçĽ´æĺ¯":12175,"èģĨåĲ¬":12176,"ä»ĸçļĦä½ľåĵģ":12177,"éĻ¶çĵ·":12178,"æĴ¼":12179,"This":12180,"æ°´åĪĨåŃĲ":12181,"éĴĵé±¼":12182,"æ½º":12183,"åħ³äºİå¦Ĥä½ķ":12184,"åī¥":12185,"åŃ¦åĴĮ":12186,"éķ¿ä¹ħ":12187,")ï¼ļ":12188,"da":12189,"ä¾¿äºİ":12190,"åĽłæŃ¤éľĢè¦ģ":12191,"è¿ľå¤Ħ":12192,"éĴ¢éĵģ":12193,"ç«ŀéĢī":12194,"ä¸įæĸŃåıĺåĮĸ":12195,"å¤ļæł·åĮĸçļĦ":12196,"çĽĳå¯Ł":12197,"æ´»åĬ¨ä¸Ń":12198,"èĲ¨å°Ķ":12199,"ä»İå°ıåĪ°":12200,"çĢĳå¸ĥ":12201,"Ġ45":12202,"çļĦä»·åĢ¼":12203,"å°ıåĮº":12204,"Ġnp":12205,"é»ı":12206,"ä¸¤åĽ½":12207,"RNA":12208,"åģ¥åº·çĬ¶åĨµ":12209,"çļĦæĬ¥åĳĬ":12210,"éĵ¶çīĮ":12211,"æķ°åĴĮ":12212,"appy":12213,"å®¡çĲĨ":12214,"ä¸ŃæľĢéĩįè¦ģçļĦ":12215,"å·´èµ«":12216,"å°½æĥħ":12217,"ç§ĭé£İ":12218,"ä¿ĿæĮģåĨ·éĿĻ":12219,"åĴĮæĸ°":12220,"oin":12221,"éĺ³åħīä¸ĭ":12222,"ä¸ĵåĪ©":12223,"çļĦæĪĲåĬŁ":12224,"ä»ĸå¼Ģå§ĭ":12225,"ium":12226,"è´Ŀå¤ļ":12227,"éĺ¿å°Ķåįĳ":12228,"èİīèİī":12229,"å³¡è°·":12230,"col":12231,"éģĵçļĦ":12232,"éĽķåĪ»":12233,"ĠçĮ«":12234,"æīĢåľ¨åľ°":12235,"æĬĬå®ĥ":12236,"å±ĳ":12237,"æľ¨è´¨":12238,"è§ģè§£":12239,"];":12240,"åĨľåľº":12241,"çļĦä¼ĺçĤ¹":12242,"Ġå°ıæĺİ":12243,"å®īä¸ľ":12244,"ĠMe":12245,"æĬĹæ°§åĮĸ":12246,"ï½ŀ":12247,"åĸ±":12248,"æİĴåºıåĲİçļĦ":12249,"ĠæĿĲæĸĻ":12250,"åľ¨åŁİå¸Ĥ":12251,"è·¯æ®µ":12252,"æľįå½¹":12253,"ä¸Ģèµ·åİ»":12254,"çĶµæ¢¯":12255,"åĽļ":12256,"ities":12257,"å®¡æł¸":12258,"è¡Įè½¦":12259,"å°ıç±³":12260,"åĨĻä¸Ģé¦ĸåħ³äºİ":12261,"åİŁä½ıæ°ĳ":12262,"ç´łåħ»":12263,"ital":12264,"æ²¥":12265,"1977":12266,"1944":12267,"åĽ½æ°ĳæĶ¿åºľ":12268,"ouse":12269,"å¾·æĭī":12270,"å¼Ģè½¦":12271,"ä»İèĢĮä½¿":12272,"ç¾İåĨĽ":12273,"è¿ªå£«":12274,"ä¸»æĦı":12275,"echno":12276,"To":12277,"Ġplay":12278,"æĿ°åĩº":12279,"å¸ĥæĸ¯":12280,"éĺ³å¸Ĥ":12281,"æ²»æĦĪ":12282,"æĪĳçİ°åľ¨":12283,"ç¼©åĨĻ":12284,"ä¸Ģäºº":12285,"çĤ¹ç¼Ģ":12286,"éĺ¿å°Ķåįĳæĸ¯":12287,"è¡·":12288,"ç»½æĶ¾":12289,"åĴĮä»·æł¼":12290,"å°ıå¼ł":12291,"æľĭåıĭä»¬":12292,"èŀįèµĦ":12293,"å¿ĥçİĩ":12294,"çĽĸèĮ¨":12295,"æľīå¾Īå¤§çļĦ":12296,"æ²³åįĹçľģ":12297,"å¿ĥèĤº":12298,"å»ºè®®éĢīæĭ©":12299,"ä¸Ģåı°":12300,"çº¿ä¸ĭ":12301,"é¥®é£ŁåĴĮ":12302,"éĩĳåŃĹ":12303,"ä½İç¢³":12304,"æ»¨æµ·":12305,"è§ĦåĪĴåĴĮ":12306,"List":12307,"å·²ç»ıåľ¨":12308,"æģ°å½ĵ":12309,"èģļç±»":12310,"çłĶç©¶åĴĮ":12311,"è¿ªå£«å°¼":12312,"æ£į":12313,"å§Ķæīĺ":12314,"çļĦçĥ¤ç®±ä¸Ń":12315,"å¹¿å¤§":12316,"å®īæħ°":12317,"å»ºè®®åľ¨":12318,"ä»£è¡¨åĽ¢":12319,"True":12320,"æľįé¥°":12321,"çļĦçģµæĦŁ":12322,"next":12323,"çĩĥæ²¹":12324,"çķĮçļĦ":12325,"çŃīå¤ļ":12326,"åĲĦç§įä¸įåĲĮçļĦ":12327,"è®¡æķ°":12328,"ä¼ļåĩºçİ°":12329,"Ġeff":12330,"å¿ĥè¡Ģç®¡":12331,"è¶ħåĩº":12332,"ç²īä¸Ŀ":12333,"å¹³è¡Į":12334,"æŀģé«ĺçļĦ":12335,"æĪĲçļĦ":12336,"ley":12337,"ĠæĿ¯":12338,"å¸®åĬ©äººä»¬":12339,"æİĴåºıç®Ĺæ³ķ":12340,"ä¸īæĸĩé±¼":12341,"ä»¥å¢ŀåĬł":12342,"ä»£è¡¨æĢ§çļĦ":12343,"åİ¨å¸Ī":12344,"çļĦçĭ¬ç«ĭ":12345,"è½¨è¿¹":12346,"å·¥ä½ľäººåĳĺ":12347,"çļĦæĳĦåħ¥":12348,"äºĭä»¶çļĦ":12349,"çīº":12350,"å¤§å°ıçļĦ":12351,"Ġgood":12352,"èĵĿèİĵ":12353,"æ··åĲĪåĿĩåĮĢ":12354,"ãĢĭï¼ļ":12355,"æİ¨éĶĢ":12356,"ä¸įçŁ¥":12357,"æ±Ŀ":12358,"åį¡ç½Ĺ":12359,"ä¸įç¨³å®ļ":12360,"çĶµåŃĲè®¾å¤ĩ":12361,"éħ¸ç¢±":12362,"èĢĥå¯Ł":12363,"è´Ŀå¤ļèĬ¬":12364,"å¾·çļĦ":12365,"uage":12366,"Ġpri":12367,"Ġæľ¬":12368,"çī¹åĮº":12369,"å¸¦ç»Ļ":12370,"èİİå£«":12371,"åŁºç¡Ģä¸Ĭ":12372,"èĩªçĦ¶ä¿ĿæĬ¤":12373,"æĮĩéĴĪ":12374,"ä»¥ä¸ĭåı¥åŃĲ":12375,"å®°":12376,"éļĭ":12377,"ä»¥åįĹ":12378,"é¢Ħå®ļ":12379,"åĲīæŀĹ":12380,"1971":12381,"CSS":12382,"ä¸Ńåįİäººæ°ĳåħ±åĴĮåĽ½æĶ¿æ²»äººçī©":12383,"åĩıå°ĳäºĨ":12384,"èİİå£«æ¯Ķäºļ":12385,"çļĦçģ¯åħī":12386,"åĴĸåĸ±":12387,"1965":12388,"ĠAr":12389,"Ġ32":12390,"åºŁéĻ¤":12391,"è¾Ī":12392,"çłĶç©¶è¡¨æĺİ":12393,"Ġquick":12394,"init":12395,"è¶³çĲĥè¿ĲåĬ¨åĳĺ":12396,"æ°´èµĦæºĲ":12397,"å¿ĥçļĦ":12398,"ç£¨æįŁ":12399,"å¹¶å°Ŀè¯ķ":12400,"é¥®éħĴ":12401,"æĹ¶è£ħ":12402,"æŃ£æĺ¯":12403,"ä¸ŃçļĦéĩįè¦ģ":12404,"åħ±åĲĮçļĦ":12405,"è¿Ļç±»":12406,"æµ·åºķ":12407,"ä¸Ĭå¸Ŀ":12408,"èģĶç»ľ":12409,"Ġte":12410,"Ġä½ľä¸ºä¸ĢåĲį":12411,"ä¸īäºº":12412,"è¿ĺæľīè®¸å¤ļ":12413,"éĺ»åĬĽ":12414,"å»ºçŃĳé£İæł¼":12415,"èĥĮéĥ¨":12416,"game":12417,"ä»¥éĢĤåºĶ":12418,"è¡¨çİ°åĩºèī²":12419,"æ½ľåľ¨çļĦ":12420,"Ġè¯·å¸®æĪĳ":12421,"çļĦåĪĹè¡¨":12422,"éģĵæŃī":12423,"æĺ¯ä¸Ģåıª":12424,"æĸ¹å¼ıæĿ¥":12425,"å±ĤéĿ¢":12426,"æĹłäººæľº":12427,"è¥¿æİ¥":12428,"ä¸Ĭæ¶¨":12429,"å°Ĩç»§ç»Ń":12430,"å®Įå·¥":12431,"ç®¡çĲĨå±Ģ":12432,"Ġtotal":12433,"èĬ¯çīĩ":12434,"06":12435,"æ³ķå¼ı":12436,"æ·»åĬłä¸ĢäºĽ":12437,"æ¸ĹéĢı":12438,"éĹ®é¢ĺæĪĸ":12439,"çĶµè§Ĩæľº":12440,"èµĽè½¦":12441,"åĲĦå¤§":12442,"å¹¶å¼Ģå§ĭ":12443,"åİŁåŀĭ":12444,"åħ¬åĬ¡åĳĺ":12445,"æĥķ":12446,"æ£ĴäºĨ":12447,"åĩºæĪĺ":12448,"çļĦæĮĩå¯¼":12449,"èĥĮåĲİ":12450,"èĤ¥èĥĸ":12451,"æĪĲéķ¿åĴĮ":12452,"ä¸įæĺĵ":12453,"æ¤įçī©çļĦçĶŁéķ¿":12454,"å·¦ä¾§":12455,"ä¸īåĽ½":12456,"åĿ¦åħĭ":12457,"åīįéĿ¢":12458,"Ġest":12459,"æ¬ºéªĹ":12460,"ating":12461,"éĺ³åħīæĺİåªļ":12462,"©çĮİ":12463,"ç¼ºå¤±":12464,"åĮĨ":12465,"åĪ©æĸ¯":12466,"ä¸Ģå¯¹":12467,"äº¤éĢļäºĭæķħ":12468,"é»ĳèī²çļĦ":12469,"Ġgreat":12470,"ä¹ĭåľ°":12471,"åı¯ä»¥è¯´":12472,"åĨįåĬłä¸Ĭ":12473,"æłĩçĤ¹ç¬¦åı·":12474,"èĲ¥åħ»ç´ł":12475,"å¢ŀè¿Ľ":12476,"ä»ĸæĽ¾ä»£è¡¨":12477,"Ġ?":12478,"åĴĮçī¹çĤ¹":12479,"è¶³çĲĥéĺŁ":12480,"æłĳæŀĿ":12481,"äººå·¥æĻºèĥ½çļĦåıĳå±ķ":12482,"Ġyear":12483,"ä»¥åĮĹ":12484,"è¿ĻäºĽæĸ¹æ³ķ":12485,"çĶµåķĨå¹³åı°":12486,"=\",":12487,"ä¹ĭç¾İ":12488,"éĶ¥":12489,"åı³ä¾§":12490,"Ġåľ¨ä¸Ģä¸ª":12491,"ä½£":12492,"ä¸Ĭè¯ī":12493,"å°Ĩé¢Ĩ":12494,"è¢«åıĳçİ°":12495,"ç¤¼è²Į":12496,"ä¸įåĲĮäºİ":12497,"å°±åľ¨":12498,"æ·±åİļ":12499,"å¤´çĹĽ":12500,"äºĶæľĪ":12501,"çĶŁæľº":12502,"æĭīä¼¸":12503,"åĴĮæĶ¾æĿ¾":12504,"æŃ¤ç«Ļ":12505,"éĶ¤":12506,"è¯·ç»ŃåĨĻä»ĸä»¬çļĦå¯¹è¯ĿåĨħå®¹":12507,"è¡£è£Ļ":12508,"æŃ¤èĩ´":12509,"éĢīæĭ©åĴĮ":12510,"äººæł¼":12511,"åĲĦèĩªçļĦ":12512,"å¸ĮæľĽæĤ¨":12513,"æıĲçĲ´":12514,"çļĦäººå·¥æĻºèĥ½":12515,"äº¤æ±ĩ":12516,"ä½ľæĽ²å®¶":12517,"åħĥéŁ³":12518,"çļĦçĸ¾":12519,"123":12520,"ĠSm":12521,"åħ¸åŀĭ":12522,"èĥ½å¤Łæ»¡è¶³":12523,"æ¬§çĽŁ":12524,"ç»´å¤ļåĪ©äºļ":12525,"éĩĳåŃĹå¡Ķ":12526,"å±ĢéĻĲ":12527,"è¿Ļä¸ªä¸ĸçķĮ":12528,"ä»ĸä»¬åľ¨èģĬä»Ģä¹Ī":12529,"aur":12530,"æĹłæ¯Ķ":12531,"åĨħæĪĺ":12532,"ä½ķæĹ¶":12533,"åĬĽéĩıåĴĮ":12534,"æĥ«":12535,"ä»ĸä»¬ä¼ļ":12536,"æĹ¥è®°":12537,"å§ĭç»Īä¿ĿæĮģ":12538,"æİ¨åĬ¨äºĨ":12539,"å®ĥä»¬åı¯ä»¥":12540,"é©°":12541,"ä»Ĭå¤©å¤©æ°Ķ":12542,"è½¬åıĺ":12543,"é«ĺå±±":12544,"ä¿±":12545,"å¾®è½¯":12546,"çļĦåıįåºĶ":12547,"å¼§":12548,"æĽ´åĸľæ¬¢":12549,"äº«æľī":12550,"åľ¨æķ´ä¸ª":12551,"ä¸īä¸ĸ":12552,"è¾¾å·ŀ":12553,"Sp":12554,"ç¢Į":12555,"å®¶åĬ¡":12556,"Ġvoid":12557,"ä¸Ńè¿Ľè¡Į":12558,"èĸĦçīĩ":12559,"åıªæľīåľ¨":12560,"èĳ£äºĭéķ¿":12561,"æķ°åįĥ":12562,"åıĹè®¿":12563,"çļĦç¥ŀç§ĺ":12564,"çļĦçĵ":12565,"ä¸ªå°ıæĹ¶":12566,"ultiply":12567,"å°ĨæīĢæľī":12568,"è§£æķ£":12569,"body":12570,"æĿ¥æºĲäºİ":12571,"åħįçĸ«ç³»ç»Ł":12572,"ĠEng":12573,"éĹ¨åı£":12574,"çīºçī²":12575,"èİ±èĮµ":12576,"åĴ³":12577,"çļĦå±±":12578,"æ©±":12579,"1936":12580,"æķħå®«":12581,"æ²¹èĦĤ":12582,"æľºåĻ¨åŃ¦ä¹łç®Ĺæ³ķ":12583,"ä»ĸä»¬ä¹ĭéĹ´":12584,"arget":12585,"åģļäºĨ":12586,"æī«æıı":12587,"é¦Ļèįīç²¾":12588,"çļĦå¤ĸè§Ĥ":12589,"æĮĩè´£":12590,"å¾Īæľīè¶£":12591,"èĩªå°Ĭ":12592,"é¢ģå¥ĸ":12593,"åĩłåĪĨéĴŁ":12594,"éºŁ":12595,"åħĥçļĦ":12596,"æ³¢éķ¿":12597,"éĺ³åħīåĴĮ":12598,"éĩİå¤ĸ":12599,"å³»":12600,"åĹ£":12601,"éħįä»¥":12602,"07":12603,"ä¸ĸçºªæľ«":12604,"è¯´çļĦ":12605,"Ġwant":12606,"å¾ĹåĪ°çļĦ":12607,"æ¶īå«Į":12608,"åŁİå¸Ĥäº¤éĢļ":12609,"ä¸Ģæ¬¡æĢ§":12610,"å¦ĤæŀľæĤ¨éľĢè¦ģ":12611,"åĴĮåı£æĦŁ":12612,"åĪĨè¯į":12613,"ä¸ĭä»¤":12614,"èī°éļ¾":12615,"èĨĿçĽĸ":12616,"åľ°åŁŁ":12617,"ç§ĳçļĦåħ¶ä¸Ńä¸Ģç§į":12618,"SC":12619,"è¿ŀæİ¥åĪ°":12620,"åĨĻä¸ĭ":12621,"ä¸İä¹ĭ":12622,"Ġph":12623,"æ¨¡ç³Ĭ":12624,"æľīä¸įåĲĮ":12625,"çº³åħ¥":12626,"å¸½åŃĲ":12627,"èĩŃ":12628,"æĺ¯åĲ¦æĺ¯":12629,"Com":12630,"å®ŀéªĮç»ĵæŀľ":12631,"1959":12632,"æİ¨åĩºäºĨ":12633,"åŁİå¢Ļ":12634,"çļĦä¸Ģæ¬¡":12635,"è°ľé¢ĺ":12636,"çĽĴåŃĲ":12637,"çļĦå®īåħ¨æĢ§":12638,"å¼Ģæĭĵ":12639,"çģ¿":12640,"èĥº":12641,"Ġevery":12642,"å¤§æµ·":12643,"ç¤ºå¨ģ":12644,"xxxx":12645,"ä¸Ńæī¾åĪ°":12646,"å¹³ç¨³":12647,"åĪĽä½ľçļĦ":12648,"ç²īèī²":12649,"å¤©æĸĩåŃ¦å®¶":12650,"ä¸Ģæĸ¹éĿ¢":12651,"||":12652,"Ġhigh":12653,"åĲĦç§įåĲĦæł·çļĦ":12654,"èĸĦèį·":12655,"æµ·æ´ĭçĶŁçī©":12656,"åį¢çĵ¦å°Ķçľģ":12657,"æľªç»ı":12658,"éľ²èĲ¥":12659,"æĢĿç»´æĸ¹å¼ı":12660,"ä»¥éĺ²æŃ¢":12661,"æĺĵæĩĤ":12662,"éļıæľºæķ°":12663,"çĶ·äºº":12664,"åĲ¬éŁ³ä¹Ĳ":12665,"ç§ĺä¹¦éķ¿":12666,"ç§ī":12667,"ä»ĭç»įä¸Ģç§į":12668,"åħħå®ŀ":12669,"çļĦå®¶åħ·":12670,"æĺİæľĪ":12671,"ä½ĵæ¸©":12672,"ä¸¤ä¸ªåı¥åŃĲ":12673,"function":12674,"åıĳåħī":12675,"å¸ĤæĶ¿":12676,"è¯Ńå¢ĥ":12677,"å¹²é¢Ħ":12678,"ĠTom":12679,"è½¿":12680,"ç¼©å°ı":12681,"å¤ªéĺ³ç³»ä¸Ń":12682,"acebook":12683,"çľĭè§ģ":12684,"çļĦçĸ¾çĹħ":12685,"èĢģæĬ½":12686,"çĥ¤é¸Ń":12687,"çĶŁæķĪ":12688,"çħĮ":12689,"ä¹Łåı¯ä»¥åľ¨":12690,"äºĨä¸Ģç§į":12691,"éĥ½æ²¡æľī":12692,"Ġnever":12693,"éĶ»çĤ¼èº«ä½ĵ":12694,"åĤ¨å¤ĩ":12695,"æł¡åĮº":12696,"Ġç¾İåĽ½":12697,"1953":12698,"é©¾é©¶åĳĺ":12699,"ï¼ī-":12700,"ç»£":12701,"äººéĢł":12702,"æĢ»çĽĳ":12703,"å¯ĤéĿĻ":12704,"èĲ½åľ°":12705,"Ġ__":12706,"ç½Ĺä¼¯çī¹":12707,"é¢Ĥ":12708,"ues":12709,"æĲŃå»º":12710,"åħ¬çº¦":12711,"æ¯Ķåħ¶ä»ĸ":12712,"èµŀèµı":12713,"æ²Ĳæµ´":12714,"å®ŀæľ¨":12715,"æ°´ä¸Ĭ":12716,"1967":12717,"çĶŁæ´»ä¹łæĢ§":12718,"çĶ³æĬ¥":12719,"äº²çĪ±çļĦ":12720,"1961":12721,"äºĨä»ĸçļĦ":12722,"é¸¡ä¸ģ":12723,"å¯¹èĩªå·±çļĦ":12724,"aking":12725,"çº¦ä¼ļ":12726,"è¯»èĢħçļĦ":12727,"ĠæĪĸ":12728,"äº²çİĭ":12729,"ç»´çĶŁç´łåĴĮ":12730,"è¿ŀè¡£è£Ļ":12731,"åģ¥åº·éĹ®é¢ĺ":12732,"çļĦåĵģçīĮ":12733,"åįłæľī":12734,"å¸Ĥåľºç«ŀäºī":12735,"ek":12736,"ĠSc":12737,"åħ»æ®ĸ":12738,"ĠçĪ±æĥħ":12739,"ä½ĵèĤ²åľº":12740,"ä¹¦åĨĻ":12741,"ä»»åĳ½ä¸º":12742,"html":12743,"è¯ĬæĸŃåĴĮæ²»çĸĹ":12744,"è§£éĻ¤":12745,"ä»İä»¥ä¸ĭ":12746,"æĪĳæİ¨èįĲ":12747,"ä»¥ä¸Ĭå°±æĺ¯":12748,"çļĦç¬¬ä¸ī":12749,"å½ĵçĦ¶åı¯ä»¥":12750,"æĽ´æ³¨éĩį":12751,"ä¹ĭä¸º":12752,"åħ¨åĬĽ":12753,"ç¬Ķè®°æľ¬":12754,"éĢļè¡Į":12755,"æ¸ħä»£":12756,"1942":12757,"å¹»æĥ³":12758,"çļĦçĥŃéĩı":12759,"Ġè¿ĲåĬ¨":12760,"æľįåĬ¡åĴĮ":12761,"å»ĵ":12762,"åŀ¢":12763,"ä½¿çĶ¨èĢħ":12764,"é¢ĦèŃ¦":12765,"ä½łçļĦåĽŀçŃĶ":12766,"è¿Ļä¸ªåĩ½æķ°":12767,"å¢ŀåĢ¼":12768,"ç¢³æİĴæĶ¾":12769,"åľ¨è®¾è®¡":12770,"çľĭä½ľ":12771,"HD":12772,"å¤ĩä»½":12773,"æĻºèĥ½æīĭè¡¨":12774,"éķ¿æ²Ļ":12775,"è¿Ļä¸ªè¯į":12776,"é£ŀèĪ¹":12777,"åĽ½éĻħæľºåľº":12778,"çģµæ´»æĢ§":12779,"ural":12780,"æķ£åıĳ":12781,"è¿Ļè¡¨æĺİ":12782,"ever":12783,"åĮĸçŁ³çĩĥæĸĻ":12784,"çĶŁå§ľ":12785,"åľ¨åĨħçļĦ":12786,"èĥĮåĲİçļĦ":12787,"MV":12788,"çļĦç¤¾åĮº":12789,"ä¸ŃåĬłåħ¥":12790,"æķħæĦı":12791,"åĲĦä¸ªé¢ĨåŁŁ":12792,"æ¸¸è®°":12793,"éĤ»è¿ĳ":12794,"ç§ĳæĬĢçļĦåıĳå±ķ":12795,"çĥ¤èĤī":12796,"å¼ķäººåħ¥":12797,"Ġä»¥":12798,"åĴĮéĶĢåĶ®":12799,"æĬĳåĪ¶":12800,"éģĹè¿¹":12801,"åľ¨çİ°ä»£":12802,"æ¸©æļĸåĴĮ":12803,"å¹¶çĶ±":12804,"æµģè¡ĮæŃĮæĽ²":12805,"çĤĴé¥Ń":12806,"Ġgr":12807,"éľĩæĴ¼":12808,"å¯®":12809,"éħįéĢģ":12810,"åľ°çĲĥè¡¨éĿ¢":12811,"å»¶ç»Ń":12812,"ridge":12813,"1957":12814,"ä¸ĭä¸ĢæŃ¥":12815,"çļĦè½¨éģĵ":12816,"ä¹ĲæĽ²":12817,"åįģäºĮå¹´":12818,"åı£æĦŁåĴĮ":12819,"çļĦçĩĥ":12820,"å°Ķå¤ļ":12821,"èĴ¸åıĳ":12822,"åºķå±Ĥ":12823,"å¯¹ä½ł":12824,"é£ŀç¿Ķ":12825,"åįģä¹Ŀ":12826,"sin":12827,"æŀģå¤§":12828,"æĻ¶ä½ĵ":12829,"ä¸Ģç¾¤":12830,"åķ¸":12831,"åŃ¦ä¹łæĸ°":12832,"æ¬¢å¿«":12833,"å®«æ®¿":12834,"Ġæµĭè¯ķ":12835,"çģ¯æ³¡":12836,"èģĶåĲĪä¼ļ":12837,"æĭ¬åı·":12838,"çļĦç¦ı":12839,"èĩªå·±åľ¨":12840,"è¥¿åħ°èĬ±":12841,"é¦Ļèıľ":12842,"ä¼ĬæľĹ":12843,"åĴĸåķ¡æľº":12844,"åħ¬åı¸åĴĮ":12845,"çļĦä¸ĢæĿ¡":12846,"æĪĳä»¬å°±":12847,"çļĦæĪĲç»©":12848,"åŃĺåĤ¨åľ¨":12849,"å¼ķäººåħ¥èĥľ":12850,"å¥³çİĭ":12851,"å°ģå»º":12852,"æ²ª":12853,"å¦¨":12854,"çĶľèľľ":12855,"åĴĮæĦŁåıĹ":12856,"æµ·å¹³éĿ¢":12857,"å¹²æ¶ī":12858,"æĮĩå¼ķ":12859,"è¿Ļå°±":12860,"ision":12861,"çĶµåĬ¨æ±½è½¦":12862,"åĲİåĬłåħ¥":12863,"èĦ±ç¦»":12864,"æ·±åħ¥çļĦ":12865,"å¤ļåĬŁèĥ½":12866,"lower":12867,"é©¬ä¸ģ":12868,"ç¦ıå»ºçľģ":12869,"è¥¿æĸ¯":12870,"çľŁçĲĨ":12871,"ä¸ªæķ°":12872,"è´¨åĴĮ":12873,"æĺ¯èĭ±åĽ½":12874,"åĪ¶éĢłä¸ļ":12875,"ube":12876,"éĤ®ç®±":12877,"åİ»å¹´":12878,"åı¯ä»¥èİ·å¾Ĺ":12879,"ĠShe":12880,"ç»ŃèĪª":12881,"çļĦåĽ½å®¶":12882,"èŀºä¸Ŀ":12883,"æĦıæĢĿæĺ¯":12884,"1962":12885,"Ġvalue":12886,"å¹²éĥ¨":12887,"èĭıéĩĮ":12888,"ä¹īå¤§åĪ©":12889,"è°Ń":12890,"ä¿ĿæĬ¤åĴĮ":12891,"æĢİä¹Īåģļ":12892,"pri":12893,"çļĦåľ°ä½į":12894,"password":12895,"è´ŁéĿ¢æĥħç»ª":12896,"æľºç¥¨":12897,"æĸ½åĬł":12898,"æľĢé«ĺæ¸©åº¦":12899,"ä½łåı¯ä»¥å°Ŀè¯ķ":12900,"çļĦäººéĻħåħ³ç³»":12901,"æµ·ä¸Ĭ":12902,"price":12903,"çļĦæĵįä½ľ":12904,"çº¦çĳŁ":12905,"éĻĦå±ŀ":12906,"09":12907,"ç«¥è¯Ŀ":12908,"OH":12909,"èľ¥":12910,"æħ¢æĢ§":12911,"èŃ¦æĥķ":12912,"ä»ħæľī":12913,"éķ¿å®ĺ":12914,"ä¸Ģè¯į":12915,"éĢļå¾Ģ":12916,"ivers":12917,"}\\":12918,"è¿ĺèĥ½å¤Ł":12919,"æ¬¢è¿İæĿ¥åĪ°":12920,"æľ¬å°ıè¯´":12921,"åĨħéĻĨçľģä»½":12922,"æŁĵèī²":12923,"Mar":12924,"ä¸»é¢ĺåĴĮ":12925,"äº©":12926,"çıįè´µçļĦ":12927,"åĪ°ä¸Ģä¸ª":12928,"äº§åĵģè´¨éĩı":12929,"è¯¸å¦Ĥ":12930,"èĦĨå¼±":12931,"æ·±èī²":12932,"éľĢè¦ģçĶ¨":12933,"åºĬä¸Ĭ":12934,"æĥħåĨµåĴĮ":12935,"ĠAs":12936,"çªģåıĳ":12937,"Ġ['":12938,"Person":12939,"æŀģåľ°":12940,"-----":12941,"åĩĨç¡®æĢ§åĴĮ":12942,"å®ļäºĨ":12943,"æĽ´å¤ļåľ°":12944,"æĶ¯ä»ĺæĸ¹å¼ı":12945,"éĽ¶ä»¶":12946,"çĤ¹æķ°":12947,"æµ·åįĹ":12948,"ĠçĭĹ":12949,"æ½ľæ°´":12950,"åĮĸåŃ¦å¼ı":12951,"ç²¾ç¾İ":12952,"æģ©çľģ":12953,"1943":12954,"Ġlearn":12955,"äººéĹ´":12956,"ift":12957,"},":12958,"æĹ¥åĲİ":12959,"éĺŁåıĭ":12960,"ness":12961,"å¦¥åįı":12962,"æĤĦ":12963,"è¿ĩæ¸¡":12964,"è¿ĻäºĽæķ°æį®":12965,"éľĢè¦ģä¸Ģä¸ª":12966,"æĸĻçĲĨ":12967,"ä¹ĭä¸Ĭ":12968,"ç»¿èĮ¶":12969,"æľĢé«ĺæ°Ķæ¸©":12970,"å¯¹æĪĳä»¬":12971,"åħīåŃ¦":12972,"èĬ±é¦Ļ":12973,"ä»»æľŁ":12974,"æ¸¸æĪıè§ĦåĪĻ":12975,"æĲŃè½½":12976,"æĪĲç«ĭçļĦ":12977,"ç´¯è®¡":12978,"éĹ¯":12979,"lect":12980,"æĻ®æĭī":12981,"èĲ¥åħ»çī©è´¨":12982,"èĩªçĦ¶æĻ¯è§Ĥ":12983,"æĸ©":12984,"é»Ħæ²³":12985,"otal":12986,"çŃ¾çº¦":12987,"Ġç¡®ä¿Ŀ":12988,"ç©¿ä¸Ĭ":12989,"èĥ½æºĲæ¶ĪèĢĹ":12990,"çĶŁäº§æķĪçİĩ":12991,"éĢĽ":12992,"Ġtake":12993,"Ġåħĭ":12994,"çİ°æľīçļĦ":12995,"ç»´æĸ¯":12996,"æľīä¸Ģç§į":12997,"èµĦåĬ©":12998,"AN":12999,"ç³Ł":13000,"å½ķåĪ¶":13001,"ä¸įåı¯æĪĸç¼ºçļĦä¸Ģéĥ¨åĪĨ":13002,"ç¡«éħ¸":13003,"åī¯ä¹¦è®°":13004,"åī©ä¸ĭçļĦ":13005,"åĪĨåĮº":13006,"çļĦæłĩåĩĨ":13007,"ROM":13008,"Ġother":13009,"åİŁåĽłæĺ¯":13010,"è½¦éĺŁ":13011,"ä¿Ŀå®ī":13012,"Ġsuch":13013,"åħīè°±":13014,"Ġheart":13015,"ĠæıĲåıĸ":13016,"ä¸įåŃĺåľ¨":13017,"åĩĮæĻ¨":13018,"å¼ĹéĩĮ":13019,"ices":13020,"æµģæ°´":13021,"è®¡ç®Ĺç»ĵæŀľ":13022,"çĽ¸ä¼¼çļĦ":13023,"åĮĹæµ·":13024,"æ¶ĤæĸĻ":13025,"ä¸ºé£Ł":13026,"é¾ĻèĻ¾":13027,"æķıæį·":13028,"åİ¦éĹ¨":13029,"çīĽä»Ķè£¤":13030,"ç»ĻæĪĳä¸Ģä¸ª":13031,"ä»İèĢĮæĽ´å¥½åľ°":13032,"äººçī©çļĦ":13033,"350":13034,"è§ģéĿ¢":13035,"åıįèĢĮ":13036,"åĴĮéŁ³ä¹Ĳ":13037,"æĽ°":13038,"çļĦè¶ĭåĬ¿":13039,"å¹´ä¸Ń":13040,"ä¼ļè®¡":13041,"åĨħèĴĻåı¤":13042,"æĹłåħ³":13043,"ç¬¬ä¸īæĸ¹":13044,"ç³ĸéĨĭ":13045,"èīºæľ¯å½¢å¼ı":13046,"ç³ĸæŀľ":13047,"ä¸Ģæ®µå¯¹è¯Ŀ":13048,"å·ŀåĪºåı²":13049,"åıĮæĸ¹çļĦ":13050,"åľ¨æĹ¥æľ¬":13051,"ä»£çłģå¦Ĥä¸ĭ":13052,"æ°´å¹³çļĦ":13053,"ship":13054,"è¿Ļåı¯ä»¥éĢļè¿ĩ":13055,"ç«Ń":13056,"è·¯æĺĵæĸ¯":13057,"è¿Ļé¢Ĺ":13058,"ç®Ģæ´ģæĺİäºĨ":13059,"çļĦçĽ¸åħ³":13060,"åĪĨæŃ§":13061,"ä½įäºİè¯¥":13062,"åĽłç´łçļĦå½±åĵį":13063,"çļĦçŁĽçĽ¾":13064,"ä»¥ä¸Ĭå¯¹è¯Ŀ":13065,"ä¾ĿæĹ§":13066,"å¼ĹéĽ·":13067,"éĴ¥åĮĻ":13068,"ä¹Łç§°ä¸º":13069,"äºīå¤º":13070,"1951":13071,"ä½įç½®åĴĮ":13072,"]]":13073,"04":13074,"æĢĿè·¯åĴĮ":13075,"å·©":13076,"Ġdog":13077,"å¸¦ä¸Ĭ":13078,"Ġits":13079,"å¤įä»ĩ":13080,"å®¶è£ħ":13081,"ense":13082,"che":13083,"å¯¹æľªæĿ¥":13084,"Ġè¿Ļæ®µ":13085,"é¢Ĩå¯¼äºº":13086,"åĿį":13087,"æĸ¹ä¾¿åľ°":13088,"æıĲè®®":13089,"åĩºåħ¥åı£":13090,"æ°´æĻ¶":13091,"çĮ´åŃĲ":13092,"åĪĨéĴŁå·¦åı³":13093,"åı²å¯Ĩ":13094,"ä»ĬæĹ¥":13095,"æĪĳä»¬æīįèĥ½":13096,"ç«ĭåĪ»":13097,"Ġmed":13098,"ä¹Łå¼Ģå§ĭ":13099,"âĢĿï¼ī":13100,"éĦĤ":13101,"æ³¢æĸ¯":13102,"ç®ĢçŁŃçļĦ":13103,"é¦ĸä¸ª":13104,"å¹¶æĮīçħ§":13105,"è¹²":13106,"åĩıè½»åİĭåĬĽ":13107,"äºĶè¨Ģ":13108,"è¿ŀä»»":13109,"ä¿®è®¢":13110,"åı·çļĦ":13111,"Ġhis":13112,"Apple":13113,"æŀģå¤§åľ°":13114,"å¹¶è¾ĵåĩºç»ĵæŀľ":13115,"ED":13116,"çŁ¥åĲįçļĦ":13117,"åĴĮä¿¡æģ¯":13118,"çļĦå¤§æ°Ķ":13119,"wer":13120,"å®ĩèĪª":13121,"1963":13122,"Amy":13123,"çļĦæķ£æĸĩ":13124,"æķ°éĩıä¸º":13125,"åĿļéŁ§":13126,"åº§æłĩä¸º":13127,"æĺ¯åĲ¦éľĢè¦ģ":13128,"index":13129,"åĽ½åĨĽ":13130,"ä¸ĸçķĮä¸ĬæľĢé«ĺçļĦ":13131,"æĶ¹åĲįä¸º":13132,"ä¸»åľº":13133,"é¾Ļæ±Ł":13134,"éķ¿çº¦":13135,"æĭ¼éŁ³":13136,"è¾ŀèģĮ":13137,"å°Ĩæĺ¯":13138,"éģĵå¾·åĴĮ":13139,"è·ŁçĿĢ":13140,"Fr":13141,"åĴĮé¢ľèī²":13142,"ä¸įçŃī":13143,"å¿Ļç¢Į":13144,"å¦ĤæŀľæĪĳ":13145,"ä¼ļåıĳçĶŁ":13146,"ä¼ĬåĪ©":13147,"çļĦåħ³éĶ®è¯į":13148,"åįĩèµ·":13149,"æĶ¿çŃĸåĴĮ":13150,"å¹¶åıĬæĹ¶":13151,"çļĦåĪĨç±»":13152,"èĥ½åľ¨":13153,"ä¸İä½ł":13154,"æīĶ":13155,"par":13156,"çĪ±ä½ł":13157,"900":13158,"éŁ³ç¬¦":13159,"pany":13160,"æĸ°å»º":13161,"å¹³æĹ¶":13162,"çĥ«":13163,"çļĦèĥ½éĩı":13164,"å¯¼åħ¥":13165,"æİ¨æµĭ":13166,"æĹ¢æľī":13167,"åľ¨è®¸å¤ļ":13168,"æĮīä¸ĭ":13169,"çļĦæ¯ĶèµĽ":13170,"è¾ĵåĩºç»ĵæŀľä¸º":13171,"è¥Ħ":13172,"åĪĻåı¯ä»¥":13173,"ä¸Ńç«ĭ":13174,"äº¦æĺ¯":13175,"å»ºçŃĳè®¾è®¡":13176,"åĬłåĪ©ç¦ıå°¼äºļå·ŀ":13177,"åĽŀæĿ¥":13178,"éªĳè¡Į":13179,"è¯ĪéªĹ":13180,"ET":13181,"æĢ»ä¼ļ":13182,"ocument":13183,"æħĮ":13184,"éĹ´æİ¥":13185,"æ¸©åº¦åĴĮ":13186,"æ¯ıä¸ªåħĥç´ł":13187,"ä¸ĢåįĬ":13188,"çļĦéĿ¢ç§¯":13189,"éĺ±":13190,"æŁĶè½¯çļĦ":13191,"æıŃç¤ºäºĨ":13192,"æĦŁè°¢æĤ¨çļĦ":13193,"èĭ±è¯Ńåı£è¯Ń":13194,"çī¹å¾ģåĴĮ":13195,"---|---|":13196,"æľįåĬ¡è´¨éĩı":13197,"çĲĨå·¥":13198,"æ°´æµģ":13199,"æĶ¯æµģ":13200,"èĲ½å®ŀ":13201,"Ġå½ĵä½ł":13202,"éĺ²æ²»":13203,"å½Ĵå±ŀ":13204,"\"]":13205,"è¿Ļæł·åģļ":13206,"çĻ¾åĪĨ":13207,"ç³»æķ°":13208,"åĳ½é¢ĺ":13209,"è§Ĥä¼ĹçļĦ":13210,"Ġåľ°çĲĥ":13211,"åİŁæĿ¥çļĦ":13212,"çļĦç»ıæµİ":13213,"ï¼Įï¼Ľ":13214,"èµ·ä¼ı":13215,"ä»ķ":13216,"åħ³èĬĤ":13217,"åħįåıĹ":13218,"ç³ĸåĴĮ":13219,"åįİæ°ı":13220,"æ»¡äºĨ":13221,"çīĩåĪ»":13222,"éĢ¾":13223,"çļĦåĩ½æķ°":13224,"ä¸Ģä»£":13225,"æĹ·":13226,"åľ¨è¿Ļä¸ªä¾ĭåŃĲä¸Ń":13227,"åħ¥ä½ı":13228,"åħ´èµ·":13229,"çļĦç§ĳåŃ¦":13230,"æ·±åĪ»åľ°":13231,"ational":13232,"çļĦæŃ£ç¡®":13233,"åĪĽéĢłåĬĽåĴĮ":13234,"åįĩä»»":13235,"åĳĬçŁ¥":13236,"çļĦçªĹ":13237,"å¬":13238,"çļĦæĥ³æ³ķ":13239,"åİĨåı²ä¸ĬæľĢ":13240,"ves":13241,"ility":13242,"å¸¸åĬ¡":13243,"èµ¤éģĵ":13244,"çĶŁåĳ½çļĦæĦıä¹ī":13245,"è¶³çĲĥæ¯ĶèµĽ":13246,"åĩºç§Łè½¦":13247,"å¤ĸè¡¨":13248,"ä¸įæĥ³":13249,"äºĨä¸Ģæ®µ":13250,"åį³ä¸º":13251,"è¿ĺæľīä»Ģä¹Ī":13252,"çĽ´éļ¶":13253,"å®ĥè¿ĺ":13254,"è§Ĥåħī":13255,"Ġage":13256,"å¤įåı¤":13257,"Ġuser":13258,"æĹ¥åĩº":13259,"è¢«å¹¿æ³ĽåºĶçĶ¨äºİ":13260,"ron":13261,"æ¯ıå¹³æĸ¹åħ¬éĩĮ":13262,"ä¸ŃçļĦæīĢæľī":13263,"åº¸":13264,"è¡¨è¾¾å¯¹":13265,"cos":13266,"é¢Ĩåľ°":13267,"ç²¾åº¦":13268,"è¯Ńæ³ķåĴĮ":13269,"UI":13270,"æİ¥æĽ¿":13271,"åľ¨ä¸İ":13272,"å±±é¡¶":13273,"å®ĥä¹Ł":13274,"çĸ²æĥ«":13275,"Ġart":13276,"æħ¢è·ĳ":13277,"çļĦç½ª":13278,"çļĦæĪĲåĳĺ":13279,"æĤ¨åı¯ä»¥éĢīæĭ©":13280,"ä¸Ĭè¿Ľè¡Į":13281,"ĠåŃ¦ä¼ļ":13282,"çļĦæľĭåıĭ":13283,"å°Ĩè¿Ļä¸ª":13284,"gest":13285,"ç¾ĬèĤī":13286,"çļĦè¡ĮåĬ¨":13287,"ott":13288,"ĠåŁ¹åħ»":13289,"æĦ¿æĻ¯":13290,"1935":13291,"Ġæİ¨èįĲ":13292,"è¿Ľåı£":13293,"çļĦæĥħæĦŁåĴĮ":13294,"å·´å¡ŀ":13295,"äºĨè§£åĨ³":13296,"å°ĨæĿ¥":13297,"å¾Ļ":13298,"èĢĮå®ļ":13299,"ç¤¾ä¼ļè´£ä»»":13300,"åĿĩåĮĢåľ°":13301,"çļĦå¿ĥæĢģ":13302,"çİ¯ç»ķ":13303,"å®¢æĪ·æ»¡æĦıåº¦":13304,"å®½æĿ¾":13305,"å¤§è¡Ĺ":13306,"å¤§éĿ©åĳ½":13307,"çļĦç´ł":13308,"èģļèĲ½":13309,"Ġwould":13310,"æŃ¦å¸Ŀ":13311,"ç¼´çº³":13312,"åĵªä¸ªåŁİå¸Ĥ":13313,"çļĦè¡ĮæĺŁ":13314,"åľ¨æĪĳä»¬":13315,"ä¾Ŀèµĸäºİ":13316,"ä¸ŃåĴĮ":13317,"åĪ»çĶ»":13318,"å¥³äºº":13319,"Ġä¸įè¦ģ":13320,"è¨Ģè¯Ń":13321,"çº§çļĦ":13322,"åħļåĳĺ":13323,"çĥ§çĥ¤":13324,"ç§ĳåĬ¨çī©":13325,"éĽį":13326,"æĸĩç«łçļĦ":13327,"çĶŁæ´»ä¹łæĢ§ä¸įæĺİ":13328,"è°Ľ":13329,"ä»£è¡¨ä½ľåĵģ":13330,"å¤§çģ«":13331,"æľīè¶³å¤ŁçļĦ":13332,"aph":13333,"å¾Īå¥½åľ°":13334,"å¾Ĺåĩºç»ĵè®º":13335,"æĦŁå®ĺ":13336,"sub":13337,"åŃĲçŃī":13338,"å¥½åĲĥ":13339,"ä¸ºäººä»¬":13340,"æĺ¯ä¸Ģä¸ªåħħæ»¡":13341,"æ¶²æĢģ":13342,"è¡ĮæĿİ":13343,"çī¹æĭī":13344,"éĹ¨ç¥¨":13345,"çĶŁéķ¿åľ¨":13346,"éĩıåŃĲè®¡ç®Ĺæľº":13347,"è·¯çĶ±":13348,"è¶ĬæĿ¥è¶Ĭå¤ļçļĦäºº":13349,"è¯¥åľ°åĮº":13350,"å¼ķè¿Ľ":13351,"åĴĮå®¶åºŃ":13352,"åĩłæ¬¡":13353,"æĺŁçŃīä¸º":13354,"çķħéĶĢ":13355,"æĿ¥åĪ¤æĸŃ":13356,"å¤ĦçĲĨåĴĮ":13357,"æ¯ıä¸ªæľĪ":13358,"äºĨä¸Ģæ¬¡":13359,"å¿ĥçĲĨåĴ¨è¯¢":13360,"ä¸¸":13361,"ä¸ŀ":13362,"ç¢İçīĩ":13363,"è¿Ļä¸īä¸ª":13364,"éĺ»ç¢į":13365,"Ġwhich":13366,"è®©å¥¹":13367,"ç©ºæ°ĶåĩĢåĮĸåĻ¨":13368,"ç»ļ":13369,"æķĻè®Ń":13370,"èĴ²":13371,"éľĢè¦ģå®ļæľŁ":13372,"number":13373,"ä¸Ńä¸ĸçºª":13374,"è¯ģè¨Ģ":13375,"ä½įäºİç¾İåĽ½":13376,"çĤ¹æĺ¯":13377,"^{":13378,"æĢ»ä½ĵèĢĮè¨Ģ":13379,"æĺ¯åĲ¦æŃ£ç¡®":13380,"ä¼ļè®®åĳĺ":13381,"åīįæıĲ":13382,"å¸ĥéĽ·":13383,"åīįç«¯":13384,"ç¨ĭåºıä¼ļ":13385,"ĠCl":13386,"å¦ĤæŀľæĤ¨åĸľæ¬¢":13387,"ç²®é£Ł":13388,"æľ¬çīĩ":13389,"æİĴè¡Įæ¦ľ":13390,"åıĸå¾ĹæĪĲåĬŁ":13391,"çļĦæ³ķå¾ĭ":13392,"æĶ¾åħ¥éĶħä¸Ń":13393,"åī¯ä½ľçĶ¨":13394,"éĹªèĢĢ":13395,"æĹłéĻĲçļĦ":13396,"æ»ķ":13397,"å¸Ńä½į":13398,"æŃ£éĿ¢çļĦ":13399,"èĪĴæľį":13400,"æ²ŁéĢļèĥ½åĬĽ":13401,"èĢĥæł¸":13402,"åŃĺæĶ¾":13403,"éħįèī²":13404,"æķħä¹¡":13405,"ç»´æĬ¤åĴĮ":13406,"reet":13407,"ĠæĪĳè®¤ä¸º":13408,"æĥħæĦŁçļĦ":13409,"æĻºæħ§åĴĮ":13410,"èĢĮåĩº":13411,"ä¹Łè¶ĬæĿ¥è¶Ĭ":13412,"æ°¢æ°§åĮĸ":13413,"æİ¨è¡Į":13414,"cod":13415,"çīłä»¬":13416,"åĲĪåĶ±":13417,"éĽ¨æ°´":13418,"éħįéŁ³":13419,"ä½Ĩä»į":13420,"åıĹå®³èĢħ":13421,"æľīåħ¶ä»ĸ":13422,"åħ¶ä¸Ńä¸ĢäºĽ":13423,"çļĦçģµéŃĤ":13424,"èįīåľ°ä¸Ĭ":13425,"ä¸¥è°¨":13426,"è¶³çĲĥä¿±ä¹Ĳéĥ¨":13427,"æļ¨":13428,"æĸĩæľ¬è¿Ľè¡Į":13429,"éĿ¢åĲĳå¯¹è±¡":13430,"æĪĳä»¬èĥ½å¤Ł":13431,"ä¹Łå¯¹":13432,"ä½Ĩåħ¶":13433,"æĢ§èĥ½åĴĮ":13434,"åĮĹäº¬çļĦå¤©æ°Ķ":13435,"æ·±æĥħ":13436,"puter":13437,"It":13438,"é¢Ĩäºĭ":13439,"CH":13440,"èģĮåĳĺ":13441,"æĿ¥åĪ°äºĨ":13442,"åı£åĳ³åĴĮ":13443,"ç¨ĭåºıä¸Ń":13444,"çºªå½ķçīĩ":13445,"å¡ĳæĸĻè¢ĭ":13446,"è¶³ä»¥":13447,"åŁºäºİä»¥ä¸Ĭè¿Ļæ®µæĸĩæľ¬":13448,"è½¦åİ¢":13449,"ç¿»è½¬":13450,"æŃ¤ç±»":13451,"å¢ŀéķ¿çİĩ":13452,"ĠâĪ":13453,"æł¹æį®è¿Ļä¸ª":13454,"ç¿»è¯ĳä¸º":13455,"ç½Ĺé©¬å°¼äºļ":13456,"å°Ĩè¯¥":13457,"é¡·":13458,"ç¼ļ":13459,"SELECT":13460,"æ¯ıä¸ªäººéĥ½åºĶè¯¥":13461,"å¤ĸåĩº":13462,"æ·±çļĦ":13463,"é«ĺæķĪåľ°":13464,"é£Łçī©åĴĮ":13465,"Ġå¤ıå¤©":13466,"æĿł":13467,"Fi":13468,"Ġ27":13469,"ä½łåĸľæ¬¢":13470,"æĶ¹è¿Ľå»ºè®®":13471,"ç¤¾ä¼ļä¸»ä¹ī":13472,"ç¨ĭå¼ı":13473,"å¼ĢåıĳçļĦ":13474,"åł¤":13475,"åĴĮäº¤æµģ":13476,"Ġ26":13477,"çļĦäººç±»":13478,"ä¸ŃåĲ«æľī":13479,"æ¹ĸåįĹçľģ":13480,"è¶Ĭå¤§":13481,"åįļå£«åŃ¦ä½į":13482,"åĩłå¤©":13483,"çĥ§å¼Ģ":13484,"comm":13485,"çļĦç¦»":13486,"Ġæ²¡æľī":13487,"æĤ¨æĥ³è¦ģ":13488,"Ġåı¯":13489,"å®Įæ¯ķ":13490,"çĪ±å¾·åįİ":13491,"Ġç»ĥä¹ł":13492,"æ²³åĮĹçľģ":13493,"atter":13494,"ç½ļæ¬¾":13495,"åĻ¨çŃī":13496,"æķ°æį®ä¸Ń":13497,"éĻ·éĺ±":13498,"èĤ¢ä½ĵ":13499,"åĹħ":13500,"é¼»åŃĲ":13501,"ä¹Łä¸įä¼ļ":13502,"å¤§çĨĬçĮ«":13503,"å¨ģå°¼æĸ¯":13504,"éļ¶å±ŀ":13505,"èīºæľ¯çļĦ":13506,"åħ¶ä¸ŃåĮħåĲ«":13507,"ä¹Łåı¯ä»¥éĢļè¿ĩ":13508,"å¦Ĩå®¹":13509,"èĥ½éĩıçļĦ":13510,"Ġä¸Ĭæµ·":13511,"å¤ļä½Ļ":13512,"åı¯èĥ½ä¼ļå½±åĵį":13513,"çĵ¦å°Ķ":13514,"èĽĭé»Ħ":13515,"ãĢĤãĢĤ":13516,"å¯¼å¼¹":13517,"éĤĳ":13518,"é©¬ä¸Ĭ":13519,"éĺ³åı°":13520,"æµģå¤±":13521,"çľ¼éķľ":13522,"æĪĺäºīä¸Ń":13523,"åı¯ä»¥ä¸İ":13524,"æľīå¤ļç§į":13525,"Ġag":13526,"åı²èĴĤ":13527,"è¯·æıĲä¾Ľ":13528,"çĲī":13529,"åħ¬åħ±äº¤éĢļå·¥åħ·":13530,"lue":13531,"æĦŁæĤŁ":13532,"ç¼Ĩ":13533,"çļĦåŃ¦ä¹ł":13534,"æĪĳä¼ļå°½åĬĽ":13535,"åı£åĳ³çļĦ":13536,"ä¸Ģå°ıæĹ¶":13537,"åıĹçĽĬ":13538,"é¦ĸåºľ":13539,"ç´§åĩĳ":13540,"æ²¿éĿ©":13541,"ä¸Ģè·¯":13542,"éķ¿å¤§":13543,"ç¥¸":13544,"è¾ħå¯¼":13545,"ä¼łæŁĵ":13546,"ause":13547,"æİ§åĪ¶åĴĮ":13548,"ç¼ħçĶ¸":13549,"æĽ¾äºİ":13550,"éħįå¤ĩäºĨ":13551,"åĢįæķ°":13552,"æĸ¹åĿĹ":13553,"å°ĳå¥³":13554,"å¸¸æķ°":13555,"åĿļå¼º":13556,"æĢİä¹ĪåĬŀ":13557,"ield":13558,"æīĢå¤ĦçļĦ":13559,"ä½łèĥ½ä¸įèĥ½":13560,"Ġæĸ°":13561,"çĽ´è§Ĥ":13562,"çļĦçķĮ":13563,"read":13564,"çİ°ä»£ç¤¾ä¼ļä¸Ń":13565,"äººæ°ĳä»£è¡¨å¤§ä¼ļ":13566,"ĠæĢ»ç»ĵ":13567,"å¼ºå£®":13568,"æ²»çĸĹæĸ¹æ³ķ":13569,"çļĦæľªæĿ¥":13570,"çĲª":13571,"ä¹ŁæĹłæ³ķ":13572,"éĺŁåľ¨":13573,"è¦ģåľ¨":13574,"ç§ĴéĴŁ":13575,"è¿Ļç§įæĸ¹å¼ı":13576,"ç¤¼åĵģ":13577,"ique":13578,"ãĢĤ\\":13579,"æĩĤå¾Ĺ":13580,"åħ¼å®¹":13581,"åŃ¦åİĨ":13582,"é«ĺåİŁ":13583,"è£¸":13584,"è¯·éĹ®æĤ¨éľĢè¦ģ":13585,"èĬĻ":13586,"èĶ½":13587,"çļĦçľŁæŃ£":13588,"å»ºç«ĭèģĶç³»":13589,"éļľç¢įçī©":13590,"èĿĻ":13591,"åĪ®":13592,"PC":13593,"èĩªæĪĳæĦıè¯Ĩ":13594,"åĨłçĬ¶":13595,"els":13596,"æĳĬ":13597,"Ġèİ·åıĸ":13598,"æ½ľèīĩ":13599,"ensis":13600,"æł¼å°Ķ":13601,"å¸Ĥåľºè°ĥçłĶ":13602,"char":13603,"èĭıå·ŀ":13604,"èĩªæĿĢ":13605,"è¿Ľè¡ĮéĢīæĭ©":13606,"etime":13607,"èĿĻèĿł":13608,"æ·¹":13609,"verage":13610,"åĲĦä¸ªæĸ¹éĿ¢":13611,"éĶĻè¿ĩ":13612,"å°ĳè®¸":13613,"çĶ·ä¸»è§Ĵ":13614,"è¯Ĺè¯į":13615,"æ¡ĥåĽŃ":13616,"Ġ!=":13617,"å®¶åºŃæķĻèĤ²":13618,"çļĦæ°Ķæģ¯":13619,"Ġ_":13620,"Ġä½ľä¸ºAIè¯Ńè¨Ģæ¨¡åŀĭ":13621,"åĲįåĴĮ":13622,"åŃ¦ä¼ļäºĨ":13623,"å©ī":13624,"æĶ¶è§Ĩ":13625,"éĩįè¦ģçļĦè§Ĵèī²":13626,"æįķé£Ł":13627,"éļ¾å¿ĺçļĦ":13628,"æłĳç«ĭ":13629,"è±¡å¾ģçĿĢ":13630,"ä»²è£ģ":13631,"ĠJava":13632,"éĹ®é¢ĺæĹ¶":13633,"ä¸ĵçĶ¨":13634,"ä¸ļä¸»":13635,"ä»ĸä»¬å¯¹":13636,"åħ¬äº¤è½¦":13637,"çļĦåĵģè´¨":13638,"åº·å¤į":13639,"ĠAnd":13640,"çģ«çĦ°":13641,"è¦ģç¡®ä¿Ŀ":13642,"ç¯·":13643,"æĻķ":13644,"å¤ĸè²Į":13645,"ences":13646,"æł¼éĽ·":13647,"éħįå¥Ĺ":13648,"æ´ŀç©´":13649,"åĪĽéĢłæĢ§":13650,"çļĦåĪĨæŀĲ":13651,"å¤ĸäº¤éĥ¨":13652,"ç³Ļ":13653,"æ·±æ·±åľ°":13654,"çļĦç§įç±»":13655,"åħ¨ä¸ĸçķĮ":13656,"çĶ²çĥ·":13657,"è¯¾åłĤ":13658,"SI":13659,"éľĢè¦ģåħ·å¤ĩ":13660,"è¯ºè´Ŀå°Ķ":13661,"åĨ³å®ļäºĨ":13662,"af":13663,"æĹ¥æŃ£å¼ı":13664,"é«ĺè¡Ģåİĭ":13665,"çŁŃä¿¡":13666,"è¶Ĭé«ĺ":13667,"Ġhad":13668,"çº³ç±³":13669,"å®īå¾½çľģ":13670,"çĪ¸çĪ¸":13671,"ä¼ĺçĤ¹åĴĮç¼ºçĤ¹":13672,"ç§¯æŀģåľ°":13673,"ĠLe":13674,"å¼ĢæĶ¾å¼ı":13675,"æľĢä¼ĺ":13676,"ä¸įåĸľæ¬¢":13677,"çī¹éĩĮ":13678,"åĲ¦å®ļ":13679,"åįłçĶ¨":13680,"è¯·æķĻ":13681,"çŃīæĸ¹æ³ķ":13682,"å¯ĵæĦı":13683,"çļĦæĮĳæĪĺ":13684,"æķĳèµİ":13685,"å¤ªæŀģ":13686,"æľºæ²¹":13687,"è§£éĩĬä»Ģä¹Īæĺ¯":13688,"è¯ŀçĶŁ":13689,"éĺµå®¹":13690,"æľīåĬĽçļĦ":13691,"è®½":13692,"æĽĿåħī":13693,"æĻĥ":13694,"åŃ¦æł¡çļĦ":13695,"mail":13696,"å½ĵæĪĳ":13697,"çļĦåİŁçĲĨ":13698,"ä¹Łè¢«ç§°ä¸º":13699,"Ġè¿Ļåı¥è¯Ŀ":13700,"èİ«æīİ":13701,"å¾®åįļ":13702,"æ³°åĿ¦å°¼åħĭ":13703,"èįīåĿª":13704,"æĪĳå¾Īé«ĺåħ´":13705,"ris":13706,"éª¨å¤´":13707,"äº¤åĵįæĽ²":13708,"æ»ŀ":13709,"åı¯çĪ±çļĦ":13710,"ä¸Ģä¸ªå¥½çļĦ":13711,"ç¡ħ":13712,"130":13713,"äºĮè¿ĽåĪ¶":13714,"å¸ĥéĩĮ":13715,"åĨ³å®ļçļĦ":13716,"é¦ĸçĽ¸":13717,"Ġâī":13718,"è¾ĥå°ıçļĦ":13719,"å¾Ĺä¸»":13720,"æĺ¯ä¸Ģé¦ĸ":13721,"çļĦæĥħç»ª":13722,"åĴĮå®ŀè·µ":13723,"è¯Ĺåı¥":13724,"Ġ->":13725,"åĭĩå£«":13726,"åĮ¿":13727,"var":13728,"ä¼ĺåĬ¿åĴĮ":13729,"çºłç¼ł":13730,"åİŁåĪĽ":13731,"format":13732,"éħ¯":13733,"è°Īè¯Ŀ":13734,"æŃ£åľ¨å¯»æī¾":13735,"åĪĴåĪĨä¸º":13736,"è¿Ļä¸¤ç§į":13737,"çļĦè§Ħå®ļ":13738,"éĺ²æĻĴéľľ":13739,"æĿ¥æııè¿°":13740,"æķ°çļĦåĴĮ":13741,"ä¸»å¯¼":13742,"åĮºè®®ä¼ļ":13743,"å¤©ç©ºä¸Ń":13744,"ä½łä¹Łåı¯ä»¥":13745,"æŀģç«¯å¤©æ°Ķ":13746,"é£ŀè¡Įåĳĺ":13747,"è·Łè¿Ľ":13748,"Wi":13749,"çªĹåı£":13750,"å¤©æĸĩåı°":13751,"ä½Ļé¢Ŀ":13752,"Ġbet":13753,"ç¬Ľ":13754,"è¯¥çīĩ":13755,"æ£®æŀĹéĩĮ":13756,"çĭ©çĮİ":13757,"åĲ¦è®¤":13758,"çļĦåĲĦç§į":13759,"éķ¿é¢Ī":13760,"åľ°ä¸Ńæµ·":13761,"åºĩ":13762,"èµ°åĪ°":13763,"Na":13764,"æ°¦":13765,"å¥½æľĭåıĭ":13766,"çļĦäººåĳĺ":13767,"èµ·å§ĭ":13768,"å¾ģæľį":13769,"æĬĢèĥ½åĴĮçŁ¥è¯Ĩ":13770,"ä¸įåĪ©":13771,"é»ĳçĻ½":13772,"åİĨåı²åĴĮ":13773,"èµĦäº§è´ŁåĢº":13774,"åĽłä¸ºä»ĸ":13775,"åĲĮæł·çļĦ":13776,"åĬ£åĬ¿":13777,"$\\":13778,"Ġæī¾åĪ°":13779,"äº¤ç»Ļ":13780,"ç¡®å®ļçļĦ":13781,"å°Ĩä»¥ä¸ĭåı¥åŃĲ":13782,"ĠçīĽå¥¶":13783,"æĮĩåĲĳ":13784,"äºĶåįģ":13785,"é¸¡å°¾":13786,"é¥±åĴĮ":13787,"è¿ĺæľīä¸Ģä¸ª":13788,"Ġsentence":13789,"åĪĩç¢İçļĦ":13790,"ways":13791,"å°Ĩäºİ":13792,"åħīæĺİ":13793,"Ġcase":13794,"èĤ©èĨĢ":13795,"æ¸¸çİ©":13796,"ç»¿æ¤į":13797,"å¦Ĥä½ķè¿Ľè¡Į":13798,"å£«é¡¿":13799,"æĭĽåĭŁ":13800,"ä»¥åıĬåľ¨":13801,"è¿ĻéľĢè¦ģ":13802,"åŁºäºİä»¥ä¸ĭ":13803,"Ġsorted":13804,"èĤºçĤİ":13805,"è¿ĩé«ĺ":13806,"ä¸įç¡®å®ļæĢ§":13807,"éĢļè¿ĩä½¿çĶ¨":13808,"éĤªæģ¶":13809,"é¢Ĩå¯¼åĬĽ":13810,"ä¸ºä»ĸä»¬":13811,"æłĹ":13812,"éĻįéĽ¨éĩı":13813,"ä¸įåĲĮç§įç±»çļĦ":13814,"å¼Ģå¹ķ":13815,"åĩºåľº":13816,"åı¯èĥ½å¯¹":13817,"èİ·å¥ĸ":13818,"ä¸ĬçıŃ":13819,"åıĺæį¢":13820,"rist":13821,"åĿļæĮģä¸įæĩĪ":13822,"å¤ķéĺ³":13823,"åĩºèĩª":13824,"åĸĿæ°´":13825,"ç§ĳçłĶ":13826,"çĲĥè¿·":13827,"æĶ¾æĿ¾åĴĮ":13828,"Ġæİ§åĪ¶":13829,"å¼ĢæºĲ":13830,"çī¹è´¨":13831,"å¹¶åĪĨæŀĲ":13832,"rown":13833,"çļĦå±±å³°":13834,"åħ¨éº¦":13835,"çļĦçŃĶæ¡Ī":13836,"ðŁ":13837,"ille":13838,"ush":13839,"æī§æ³ķ":13840,"èľĢ":13841,"æī©æķ£":13842,"æĪĳçļĦå¿ĥ":13843,"ä»ĵåºĵ":13844,"æ²īæµ¸åľ¨":13845,"å¾Ĺå¤ļ":13846,"æĭ¾":13847,"å®ĹæķĻä¿¡ä»°":13848,"ä¸İäººç±»":13849,"Sam":13850,"æĿ¥èİ·å¾Ĺ":13851,"çİ°ä»£åĮĸçļĦ":13852,"èĩªçĦ¶é£İåħī":13853,"é¦ĸä½į":13854,"è¿ĻäºĽæĬĢæľ¯":13855,"ç»Ħç»ĩåĴĮ":13856,"åĴĸåķ¡åºĹ":13857,"åĴĮå®¶äºº":13858,"of":13859,"çļĦè´¡çĮ®":13860,"Ġçİ°åľ¨":13861,"çļĦæ°´åĪĨ":13862,"çī©çĲĨåŃ¦å®¶":13863,"äºļåİĨå±±å¤§":13864,"ç¾İåŃ¦":13865,"è¯Ħä¸º":13866,"åĮħæĭ¬ä»¥ä¸ĭçī©ç§į":13867,"èĬĿéº»":13868,"åĨ³è®®":13869,"ç§ĭèĬĤ":13870,"è¾ĥå¤ļ":13871,"Ġå¾ªçİ¯":13872,"çĶµè½¦":13873,"çĮİçī©":13874,"æ¸ħåįİ":13875,"è´§è¿Ĳ":13876,"æ²³éģĵ":13877,"æ¯«æĹł":13878,"åŁºåĽłç»Ħ":13879,"éĴĹ":13880,"æ³ķå¾ĭè§Ħå®ļ":13881,"title":13882,"éļĲç§ģä¿ĿæĬ¤":13883,"èķ¨":13884,"æŀģåº¦":13885,"æııè¿°ä¸º":13886,"æŃ¥ä¼Ĳ":13887,"æľĢå¤§åĮĸ":13888,"ä½ĵéªĮåĴĮ":13889,"æĺ¯æĦıå¤§åĪ©":13890,"matrix":13891,"ploy":13892,"ä»¥ä¸ĭä¸º":13893,"angle":13894,"é¡¹çĽ®ä¸Ń":13895,"æĺ¯åı°æ¹¾":13896,"æĸ¯åį¡":13897,"è¡įçĶŁ":13898,"ç»´å¥ĩ":13899,"ç¨ĭåºıçļĦ":13900,"æĪĳä»¬åı¯ä»¥ä»İ":13901,"çĥĺçĥ¤":13902,"1933":13903,"å¯»æ±Ĥä¸ĵä¸ļ":13904,"ais":13905,"åľ¨åı°æ¹¾":13906,"æīŃæĽ²":13907,"æģ¶åĮĸ":13908,"ä¸»è¦ģæľī":13909,"æľ¬å±ŀåĮħæĭ¬ä»¥ä¸ĭçī©ç§į":13910,"ä¸İå®¢æĪ·":13911,"æļ´éĽ¨":13912,"ä½łæľĢè¿ĳ":13913,"èĢĮè¿ĻäºĽ":13914,"Ġthrough":13915,"ç»İ":13916,"åİķ":13917,"åį°åº¦å°¼è¥¿äºļ":13918,"åľ¨å¤ĦçĲĨ":13919,"èĤīè´¨":13920,"åįĹçĵľ":13921,"Ġè°¢è°¢ä½ł":13922,"ä¸ĢäºĽéĹ®é¢ĺ":13923,"çļĦæĢĿæĥ³":13924,"å¹¶éĩĩåıĸ":13925,"è¯Ńæ³ķéĶĻè¯¯":13926,"ç¥ĿæĤ¨":13927,"éĺª":13928,"äºĨè§£åĴĮ":13929,"æĪĳä»¬ä¸įèĥ½":13930,"Ġfriend":13931,"æ³°åĭĴ":13932,"çĶľåĳ³":13933,"åı¯ä»¥æĮīçħ§":13934,"éĺ¶ä¹ĺ":13935,"å±Ģéĥ¨":13936,"Ġar":13937,"æ´Ĺåıĳæ°´":13938,"ç©ºæ°Ķä¸ŃçļĦ":13939,"æĤ¨å¯¹":13940,"é¸¡å°¾éħĴ":13941,"æ¸ħæĸ°çļĦ":13942,"çļĦå½¢è±¡":13943,"åĽ¾è¡¨":13944,"æİ¨å¯¼":13945,"åĭĭç«ł":13946,"[:":13947,"çº¤ç»´ç´ł":13948,"åĬ¨çī©åĽŃ":13949,"Ġcolor":13950,"ĠSch":13951,"LO":13952,"æ·±å±Ĥ":13953,"è´¦åı·":13954,"æĪĳä¸ĢçĽ´":13955,"å¿ĥèĦıçĹħ":13956,"è¿ĩéĩı":13957,"10000":13958,"åı¯ä»¥åİ»":13959,"è¿Ľè¡Įè¯Ħä¼°":13960,"ç½ĳç«ĻçļĦ":13961,"æĪĲè¯Ń":13962,"æ¸©å¸¦":13963,"erc":13964,"æ£ĴçĲĥ":13965,"ç«ĸ":13966,"å§Ĭ":13967,"ç»ıéªĮçļĦ":13968,"åĲĮåĲį":13969,"emp":13970,"æķĻèĤ²éĥ¨":13971,"èĩªçĦ¶èµĦæºĲ":13972,"è°ĥåĳ³åĵģ":13973,"äººç§°":13974,"åĨĢ":13975,"è¯ŃéŁ³åĬ©æīĭ":13976,"è´¬":13977,"æĶ¶ç¼©":13978,"é»ĳé¾Ļæ±Ł":13979,"âĦĥãĢĤ":13980,"ä»ĭç»įä¸ĢäºĽ":13981,"æ²īæ·Ģ":13982,"çĽ¸å¯¹è¾ĥä½İ":13983,"board":13984,"åĿŀ":13985,"ä»ħä¾ĽåıĤèĢĥ":13986,"æľĢä½İæ°Ķæ¸©":13987,"è½¯ä½ĵ":13988,"æľ¬å±Ĭ":13989,"Ġcurrent":13990,"ray":13991,"elli":13992,"çļĦçĹĽ":13993,"åĺīä¹ī":13994,"sole":13995,"å¸¸å§Ķ":13996,"ç¬¬äºĮå¤©":13997,"å®ŀè·µä¸Ń":13998,"çľĭèµ·æĿ¥æĽ´åĬł":13999,"Ġå©´åĦ¿":14000,"éģĵçĲĨ":14001,"å½ĵæĹ¥":14002,"è¡¨è¾¾èĥ½åĬĽ":14003,"æ·ĺå®Ŀ":14004,"å¹¶æľĢç»Ī":14005,"ä½łåı¯ä»¥ä½¿çĶ¨":14006,"åĨħåľ°":14007,"é¹¦":14008,"è¿Ļå¯¹äºİ":14009,"Ġprov":14010,"æıĲåĪ°çļĦ":14011,"é«ĺåİĭ":14012,"éĶ¯":14013,"ient":14014,"éĢļå¸¸åĮħæĭ¬":14015,"çłĶç©¶äººåĳĺ":14016,"åı¯ä»¥æľīæķĪåľ°":14017,"ç°§":14018,"çĶŁéķ¿äºİ":14019,"æŃ£æĸ¹å½¢çļĦ":14020,"åıĺå¼Ĥ":14021,"ä»·æł¼ä¸º":14022,"time":14023,"101":14024,"å½±åĵįçĿĢ":14025,"è¯ģæĺİäºĨ":14026,"å¤ıå¤©çļĦè¯ĹæŃĮ":14027,"è½©":14028,"çļĦåħ¶ä»ĸ":14029,"API":14030,"å¤įæĿĤåº¦":14031,"åĨķ":14032,"æıĲåįĩèĩªå·±çļĦ":14033,"è®¾äºİ":14034,"ä¿ĥä½¿":14035,"èħ¹éĥ¨":14036,"æıĴåº§":14037,"éŁ³ä¹ĲèĬĤ":14038,"æĿ¾é¼ł":14039,"åģľçķĻ":14040,"ä¸ĢéĹ¨":14041,"ĠçĻ½":14042,"åı¸ä»¤éĥ¨":14043,"æĹ§éĩĳå±±":14044,"æŁ´æ²¹":14045,"çļĦèģĶç³»":14046,"æŀĦæĢĿ":14047,"iness":14048,"erg":14049,"å»ºè®®ä½¿çĶ¨":14050,"ä¸įæĸŃåŃ¦ä¹łåĴĮ":14051,"Mac":14052,"çļĦèĥĮæĻ¯":14053,"è¿Ļä¸įä»ħ":14054,"è¡¨è¾¾åĩº":14055,"Ġinto":14056,"cond":14057,"Ġsee":14058,"Ġåı¯ä»¥ä½¿çĶ¨":14059,"äº«å¹´":14060,"lim":14061,"æ¯ħåĬĽ":14062,"ä¸įè®º":14063,"æ¸¸ä¹Ĳ":14064,"çļ®éĿ©":14065,"ĠApp":14066,"çļĦç¥ŀç»ı":14067,"å¦ĸ":14068,"äº§çĶŁäºĨæ·±è¿ľçļĦå½±åĵį":14069,"ä¸ªäººæīĢå¾Ĺç¨İ":14070,"ä»»åĬ¡çļĦ":14071,"å®ģæ³¢":14072,"è·¯ç¨ĭ":14073,"ather":14074,"æĤĶ":14075,"alax":14076,"å½ĵä»ĸ":14077,"main":14078,"è¿Ľè¡Įè®¡ç®Ĺ":14079,"ä¼Ĭä¸½èİİ":14080,"åĨ³çŃĸæłĳ":14081,"çŃīæĸ¹å¼ıæĿ¥":14082,"èİ·å¾ĹçļĦ":14083,"åģľéĿł":14084,"è¿ģç§»":14085,"ä¸Ńèį¯":14086,"é«ĺæ¡£":14087,"èµ·åĪĿ":14088,")=":14089,"ä»įåľ¨":14090,"æ²¼":14091,"å¹¶åĪĹåĩº":14092,"çļĦäººä»¬":14093,"Ġtype":14094,"oll":14095,"é¦ĸæĴŃ":14096,"æī©å»º":14097,"ç»ĨèĬĤåĴĮ":14098,"cont":14099,"ä¸¤å²¸":14100,"çĽ´åįĩ":14101,"æĪĲå¹´äºº":14102,"èĤļ":14103,"ç¨ĭåº¦çļĦ":14104,"å·´å·´":14105,"åĪĽéĢłäºĨ":14106,"å¯¹æĤ¨æľīæīĢå¸®åĬ©":14107,"ä¹Łåı¯":14108,"æ²¹æ¼Ĩ":14109,"ä¸īå¤§":14110,"ç§ĳæĬĢåıĳå±ķ":14111,"çķľ":14112,"çĶŁåĳ½ä¸Ń":14113,"æŃ£åĪĻ":14114,"æĤ£æľī":14115,"åı¯ä»¥æ»¡è¶³":14116,"randint":14117,"æĺ¥ç§ĭ":14118,"æ¯įä¹³åĸĤåħ»":14119,"å¯¹è¯ĿæĢ»ç»ĵ":14120,"å¯¹çİ¯å¢ĥçļĦå½±åĵį":14121,"å°Ĩä¸Ģä¸ª":14122,"çļĦå°ıè¡ĮæĺŁ":14123,"è®¤ä¸ºæĺ¯":14124,"æĭ¿ä¸ĭ":14125,"ãĢĭ(":14126,"æĦıä¹īçļĦ":14127,"èĻĲ":14128,"ä¸įè§ģ":14129,"ä½ĵéªĮåĪ°":14130,"å¥³çĶŁ":14131,"ç¿»è¯ĳæĪĲèĭ±æĸĩ":14132,"forå¾ªçİ¯":14133,")/":14134,"å¼ıæľĪåı°":14135,"çļĦæīĭ":14136,"peri":14137,"åľ¨ä¸Ĭæµ·":14138,"éĤ»å±ħ":14139,"äºļåĨĽ":14140,"1928":14141,"ç»Ļä»ĸ":14142,"éľĢè¦ģä»İ":14143,"æł¹æį®ä»¥ä¸Ĭè¿Ļæ®µå¯¹è¯ĿæĢ»ç»ĵ":14144,"æł¹æį®ä»¥ä¸Ĭè¿Ļæ®µå¯¹è¯ĿæĢ»ç»ĵä¸»è¦ģåĨħå®¹":14145,"å±±è¥¿çľģ":14146,"ä¼ģä¸ļåĴĮ":14147,
[...]
